#version: 0.2
h e
Ġ t
Ġ a
Ġ s
Ġ w
n d
Ġt he
e d
Ġa nd
Ġt o
Ġ b
i n
Ġ h
Ġw a
r e
o u
Ġ f
i t
Ġ T
Ġ l
Ġ c
Ġ d
e r
Ġ he
Ġ m
Ġ p
Ġwa s
o m
Ġ o
a y
ĠT he
a r
i s
in g
i l
Ġ g
i d
Ġ S
a t
e n
Ġ n
Ġs a
Ġh a
a n
i m
o r
o n
Ġ it
Ġt h
Ġ H
l l
l e
Ġ "
Ġhe r
o t
e t
ĠS he
i r
ĠH e
ĠThe y
e s
Ġ in
v er
u t
o w
c k
Ġ e
Ġ L
Ġ u
l d
Ġ y
o o
Ġsa id
i g
il y
Ġ r
Ġb e
Ġ I
a m
Ġs t
c e
k e
Ġs he
v e
p p
it h
Ġw ith
O n
Ġo n
Ġy ou
Ġo f
k ed
r i
ĠL ily
Ġs o
n t
Ġh is
Ġp l
a d
ver y
Ġ B
Ġd ay
Ġth at
Ġu p
Ġpl ay
Ġha d
s t
Ġthe y
Ġw e
Ġm om
Ġf or
Ġ M
e l
u n
ou ld
' s
m y
Ġl i
c h
en t
Ġha pp
Ġwa nt
it t
Ġs h
ou t
he r
Ġd o
l y
Ġn ot
om e
s e
Ġ very
ou nd
e nd
a ll
Ġw h
im e
itt le
Ġ k
Ġt ime
Ġl ittle
a l
Ġthe re
Ġn e
h t
Ġ re
Ġ A
Ġhapp y
Ġs m
ĠI t
Ġ Ġ
Ġb ig
Ġ is
Ġb ut
a ck
Ġa n
Ġsa w
ri end
. "
Ġf riend
r y
Ġa s
r a
On e
id e
a ke
' t
! "
u g
Ġl oo
v ed
t er
Ġwe re
ĠT im
o re
On ce
Ġl o
Ġ One
e c
Ġh im
Ġto o
Ġg o
Ġ J
Ġb o
Ġs e
ir l
Ġa re
Ġ j
ar d
Ġwant ed
il l
Ġg irl
Ġup on
Ġthe m
Ġ out
Ġa t
u r
i nd
Ġthe ir
f u
Ġs p
w ay
Ġsm il
Ġd id
Ġc ould
ĠT om
he n
ĠB en
Ġha ve
a in
ar t
Ġe x
he d
r om
Ġw ent
Ġa r
i c
Ġc an
Ġ W
l p
fu l
oo d
? "
h ing
Ġfriend s
Ġn am
ĠB ut
ig ht
Ġa ll
Ġhe lp
Ġk n
u m
on e
ar k
Ġb ack
Ġs ay
Y ou
Ġf un
Ġc l
a re
Ġn o
Ġl e
o p
ĠTim my
Ġsmil ed
Ġs c
Ġnam ed
Ġa l
ou g
Ġlo ved
s ide
el t
Ġm an
Ġas ked
i ck
Ġto y
Ġli ke
Ġf e
Ġf elt
Ġloo ked
Ġs ome
Ġar ound
Ġse e
Ġm e
am e
om et
Ġr o
Ġb r
u re
Ġb ir
g et
i ce
Ġbo y
Ġw ould
Ġst art
on g
Ã ¢
â Ĥ
âĤ ¬
s s
Ġbir d
Ġs omet
Ġf a
d d
ing s
Ġa g
Ġw or
Ġwh at
ad e
Ġm ake
k ing
ĠM om
, "
i e
ow n
Ġt re
Ġr an
get her
Ġ You
Ġa way
a g
ar ed
Ġsay s
Ġstart ed
ou d
i f
Ġm ade
Ġc ar
Ġsomet hing
Ġto gether
it ed
t her
Ġp ark
Ġc o
Ġsa d
Ġo ther
Ġne w
Ġex c
Ġ E
Ġp ut
Ġf rom
Ġp r
e ll
Ġl a
Ġh ug
b le
Ġm u
oo k
a ch
Ġag ain
Ġh ome
Ġw hen
Ġ F
Ġg ood
h at
e p
Ġwh o
es t
ri ed
Ġf ound
Ġf l
Ġthe n
Ġc h
Ġd ec
pp ed
Ġwa l
a s
Ġg et
q u
Ġ D
Ġplay ing
oug ht
p l
all y
Ġs w
ĠS u
ou s
n n
Ġth ings
Ġexc ited
Ġli ked
Ġg ot
u ck
r o
id ed
Ġdec ided
Ġb l
a ve
Ġc ame
Ġe very
ar a
Ġyou r
ĠS am
a x
Ġ v
Ġsc ared
u st
Ġon e
Ġdo g
Ġd own
ou se
n y
Ġf ind
Ġc are
Ġbe c
is t
Ġth an
Ġfe el
a p
nn a
Ġd ad
Ġa b
Ġm y
Ġloo k
Ġ ke
ou r
Ġw ill
ar n
Ġg r
nd er
Ġg ra
way s
es s
Ġdid n
ĠM ax
Ġp o
f e
Ġal ways
Ġtoo k
Ġab out
an t
b b
Ġl ot
Ġmom my
Ġtoy s
Ġkn e
er s
is e
ĠS o
Ġb u
ĠS ara
it e
Ġout side
Ġtre e
Ġth ought
Ġb all
Ġm ore
ec i
en ed
c hed
Ġt a
Ġo ld
ĠA nna
Ġh o
Ġle arn
re t
Ġin t
g ed
ĠW hen
Ġp u
Ġkn ow
Ġla ug
Ġt ake
eci al
Ġsp ecial
Ġs or
Ġc at
dd en
Ġkne w
i ve
ĠH er
i a
Ġp e
Ġan y
dden ly
Ġt r
f ter
Ġh ow
ĠJ o
a u
m a
Ġsh ow
in k
Ġsor ry
Ġt w
Ġmu ch
is h
Ġr un
a nd
Ġha nd
ĠE very
Ġs l
ĠJ ack
v en
Ġh ouse
Ġo r
Ġo p
Ġs k
Ġm o
Ġcl o
Ġs un
Ġint o
Ġt ried
Ġin side
at e
Ġto ld
Ġwa ter
Ġth is
Ġ en
an k
Ġ if
Ġpr oud
um p
Ġ qu
Ġo ver
he re
Ġcould n
d y
Ġg ave
Ġhe ard
Ġne ver
b y
Ġe ach
a ce
Ġro om
t y
Ġex pl
Ġe at
ĠSu ddenly
ĠW e
ot her
au se
Ġp ick
i on
Ġp ret
Ġplay ed
g e
et ter
ĠThe n
Ġj ust
a k
Ġhug ged
Ġg re
Ġof f
Ġc om
Ġwa t
ot h
ĠM ia
Ġbo x
Ġn ice
ĠF rom
u e
' m
Ġst r
Ġbec ause
Ġne ed
ĠH is
il e
Ġman y
ĠA nd
Ġf o
u c
Ġj o
Ġbe ar
Ġsm all
i z
v ing
Ġl ong
in e
g ry
s ed
im al
or t
Ġan imal
Ġs n
oug h
Ġt ry
Ġu nt
il d
s el
ur t
Ġunt il
Ġ C
Ġk ind
Ġlearn ed
Ġ im
Ġ Ã¢
Ġlo ve
Ġb etter
f t
Ġfl ow
Ġc all
Ġd on
Ġe nd
Ġa d
Ġb est
v ent
Y es
ar s
ur p
ad y
e m
re am
a ut
ur n
Ġc le
v es
Å ĵ
ard en
Ġg arden
Ġfa st
Ġc u
Ġcare ful
b er
ll y
Ġbe aut
Ġe ven
p t
Ġb ra
i es
Ġthan ked
Ġf i
Ġc he
Ġlaug hed
Ġsk y
Ġb y
Ġj ump
Ġg l
a se
Ġt e
Ġl oud
sel f
T h
in y
Ġwa y
w n
Ġbeaut i
Ġc ome
le w
Ġl ist
Ġw o
Ġbeauti ful
Ġh ard
Ġlot s
Ġr a
Ġst ill
Ġf am
Ġanimal s
Ġh urt
Ġu nder
ec t
Ġst ay
n ing
Ġl et
c t
Ġ P
Ġb oth
I t
s h
he s
b e
Ġsa fe
oo l
re e
Ġco l
Ġtw o
Ġb ad
Ġb ook
Ġim p
op le
Ġre m
an e
ĠA s
Ġli ved
k ay
o ck
uc y
Ġwal ked
a st
Ġs u
urp r
Ġbra ve
Ġsh ould
Ġit s
ĠL ucy
o b
is hed
Ġan gry
Ġs urpr
Ġfam ily
re ss
ig h
Ġpe ople
Ġf lew
Ġcall ed
N o
Ġr ed
ĠA fter
Ġst or
ĠJo h
i p
Ġso on
Ġf in
L et
l ed
Ġke pt
Ġf ore
f ore
Ġd an
Ġsh are
Ġf ly
x t
is ed
dd ed
Ġp ic
âĤ¬ â
Ġdo or
Ġgo ing
Ġpret ty
ĠMom my
Ġ G
Ġke ep
Ġn ow
ĠD ad
Ġro ck
Ġcle an
Ġd ra
ar y
Ġad vent
um my
Ġno ise
Ġop ened
Ġsh iny
ag e
Ġexpl ore
Ġw ind
Ġdo ll
Ġc ry
Ġc on
Ġ ide
Ġbe fore
i ed
il ly
Ġre al
Ġst o
s o
W hat
Ġgr ound
Ġal so
le s
Ġt urn
Ħ ¢
âĤ¬â Ħ¢
Ġe y
Ġf ar
Ġide a
Ġf r
ĠS p
Ġno dded
Ġcol or
Ġwa r
Ġfeel ing
ĠJoh n
Ġu n
Ġpick ed
o y
im b
t h
Ġne xt
Ġwal king
t hing
t ure
Ġcl imb
Ġha s
Ġm a
Ġth r
Ġwh ile
e et
Ġb ed
Ġadvent ure
Ġsmil e
ĠB ob
k es
T hat
ay be
ic ed
g er
Th ank
i ous
Ġbe ing
Ġd if
Ġw r
Ġclo s
Ġf ood
j oy
t ed
Ġg ive
Ġpic ture
Ġth ink
Ġloo king
Ġ N
Ġd el
f f
a c
Ġtr uck
Ġwa it
Ġey es
ug ht
Ġto w
t ing
Ġre pl
Ġbr o
Ġsto pped
Ġlist en
Ġa fter
Ġb re
Ġo wn
Ġv o
Ġwal k
em ber
Ġwo nder
Ġgre at
ĠSp ot
Ġ R
Ġhand s
Ġsh out
Ġhe ad
Ġen joy
Ġimp ort
Ġflow ers
Ġe ver
ĠSu e
Ġnot iced
Ġbl ue
Ġfore st
bb it
iz ed
Ġa pp
ir st
Ġne ar
Ġqu ick
Ġd is
Ġd e
a ble
Ġimport ant
Ġrem ember
Ġf ish
ll ow
Ġs ound
o on
Ġsl ide
Ġu s
ma z
Ġrepl ied
Ġa maz
Ġa c
le ase
Ġwor k
Ġwat ch
Ġr ain
Ġshow ed
Ġra bbit
Ġo kay
g an
Ġt al
by e
L ily
fe re
bb ed
Ġas k
Ġr u
Ġdif fere
Ġme an
ĠSara h
Ġr ight
Ġto u
Ġy e
d ay
Ġwat ched
Ġbr ight
Ġfo llow
Ġevery one
Ġstr ong
W e
Ġs qu
Ġst ick
Ġu se
Ġbe en
Ġm or
Ġvo ice
Ġt ra
er ed
Ġquick ly
at h
Ġ our
Ġw here
Ġy ell
Ġdiffere nt
Ġch ild
Ġcu ri
Ġbo at
n g
Ġs ure
ĠJ ane
Ġbec ame
Ġgood bye
Ġfa ce
Ġpl ace
an ge
Ġh op
Ġh igh
ĠT h
Ġa m
L ook
a ught
Ġclos er
Ġst ore
Ġwar m
Ġdo es
Ġc r
Ġd ress
un ny
Ġcuri ous
Ġm ag
il a
Ġc ook
Ġbe l
Ġfor g
Ġt ell
Ġfa v
nd ma
a ss
ou nt
c o
Ġth ree
ĠJo e
le ep
Ġn ight
Ġop en
Ġc ake
m ore
Ġhe re
Ġany more
Ġbl ock
Ġf irst
it c
u ll
Ġpu ll
is s
a ched
ir ed
Ġbut ter
Ġ z
im es
or n
Ġsw eet
Ġp ain
Ġk id
Ġgra bbed
C an
is y
ĠI n
Ġon ly
Ġm on
Ġle a
Ġfe ll
Ġb a
Ġcon t
ĠEvery one
Ġbird s
Ġjump ed
Ġgl ad
Ġb it
Ġsa nd
itc hen
Ġk itchen
M om
ĠT hat
Ġhelp ed
Ġse es
Ġfi re
Ġp er
Ġfl o
Ġst op
Ġhapp ened
Ġs ing
Ġgra ss
Ġb unny
Ġshout ed
Ġstor y
ĠL et
Ġt ri
nt s
Ġd r
a ir
ĠD o
Ġre ached
pp y
Ġbe h
e y
Ġreal ized
Ġy ummy
Ġbr other
Ġl ady
Ġm um
Ġha ving
Ġpr in
in s
Ġfav or
ĠL ila
' re
Ġm ess
Ġfavor ite
Ġdra w
Ġc re
Ġre st
Ġthr ough
Ġg ame
Ġh at
Ġat e
Ġl ess
Ġunder st
ak es
Ġso ft
Ġp are
z y
Ġth ing
Ġre ally
at her
Ġre ady
Ġbe gan
w here
Ġpret end
ĠC an
Ġwor ld
Ġlook s
k en
Ġhim self
Ġmag ic
fu lly
Ġp ap
Ġd one
Ġbutter f
Ġma king
Ġc ut
Ġcom ing
Ġd uck
at er
Ġpo nd
Ġkid s
Ġwa ved
Ġwh y
Ġp rom
Ġt ired
Ġf ro
Ġfi x
st er
Ġm ouse
Ġwor ry
o lly
Ġp art
Ġcar s
Ġst e
Ġdel ic
Ġnam e
Ġflow er
ig n
ĠTom my
ĠF in
Ġf ill
W ow
a isy
Ġtou ch
ed dy
Ġfun ny
Ġcat ch
b o
Ġu sed
Ġse en
Ġha ir
Ġta st
i ent
Ġto p
Ġpare nts
re l
Ġan other
ĠS ally
Ġho ld
Ġho pped
Ġc ried
i ver
one y
m er
Ġdo ing
Ġc ool
Ġblock s
" .
Ġsurpr ise
T om
Ġl ight
h y
Ġgre en
Ġthan k
Ġless on
at ion
Ġre ad
Ġflo or
Ġd in
Ġg i
Ġw ood
Ġd ri
D on
ard s
Ġf ull
Ġtre es
Ġrun ning
Ġwind ow
Ġwor ked
Ġye ars
Ġc ra
Ġ -
Ġd ro
Ġd ark
Ġbeh ind
Ġli kes
Ġsm ell
Ġsp ot
Ġw ished
Ġpap er
u ed
Ġyell ow
and y
Ġb ow
re n
Ġsw im
Ġhapp ily
Ġb ag
Ġs at
u l
Ġsh o
Ġs leep
u s
ar ing
Ġsurpr ised
ĠD aisy
el y
Ġfro g
Ġbutterf ly
i ke
Ġsw ing
Ġs et
Ġcare fully
ĠE m
Ġsl ow
Ġremember ed
Ġlo st
Ġco ld
ĠBen ny
Ġhe ld
u ff
ell o
H ello
Ġho le
Ġ ice
Ġlaug h
re w
Ġneed ed
ĠA t
Ġbu y
Ġper f
Ġle ft
Ġ K
on s
Ġmo ve
re ed
c ess
Ġany thing
Ġd ream
Ġt all
Ġenjoy ed
Ġwr ong
Ġar ri
Ġhe ar
ĠN ow
Ġfa ir
Ġa ir
Ġfollow ed
ĠFin ally
Ġbook s
ro ss
Ġe l
Ġchild ren
Ġbu s
Ġh un
Ġdelic ious
Ġta ble
Ġfin ished
Ġcont in
Ġfriend ly
Ġd ir
Ġh ot
Ġsn ow
Ġher self
ĠT o
ĠG ra
d s
l f
Ġh ill
en s
Ġunderst and
Ġp lease
Ġclo se
ĠB illy
in ed
Ġh id
ĠJ im
s p
Ġarri ved
Ġc ast
Ġel se
Ġar m
Ġba by
Ġwonder ful
Ġm ight
Ġg ent
Ġt ight
Ġforg ot
ĠA my
ie ld
Ġb ug
Ġcolor s
Ġre l
Ġbu ild
Ġbro ken
Ġa ble
Ġg one
a v
n er
Ġy es
at ter
Ġs ong
i ch
Ġwa ll
Ġsqu ir
Ġfill ed
Ġag reed
Ġsome one
Ġg u
Ġcontin ued
ro om
ĠThe re
Ġcre at
as ure
' ll
Ġc ount
ĠJ en
Ġwant s
Ġsquir rel
Ġp ink
Ġlea ves
as k
ĠTh is
Ġen ough
ĠM olly
Ġli on
am a
e e
O K
Ġmor ning
Ġv is
Ġmom ent
Ġfin ally
Ġget ting
Ġstay ed
Ġcook ies
Ġbre ak
s hed
a pp
Ġpo in
an ce
Ġbe ach
ĠM aybe
Ġfe w
Ġsc ary
Ġf ight
Ġsomet imes
r ow
as h
ri es
c ed
r ed
ĠW hat
Ġturn ed
Ġhun gry
Ġf all
Ġdin ner
g on
Ġm other
Ġgra ndma
Ġj u
Ġw et
Ġamaz ing
a pped
Ġtry ing
Ġc ream
Ġdad dy
Ġperf ect
Ġp i
Ġm akes
Ġcast le
Ġother s
Ġclimb ed
ke y
ou p
Ġpicture s
ic y
Ġcom p
am p
Ġtal k
Ġm et
Ġmu s
e re
Ġwh ite
o om
Ġlist ened
Ġsmil es
m an
Ġf ur
Ġball oon
Ġcl ot
or ing
Ġal one
Ġclot hes
Ġpo l
l c
Ġta il
Ġjo y
at ed
r ot
O h
Ġpu ppy
Ġsp l
en ce
Ġm ar
Ġwas n
Ġbr ought
Ġde ep
Ġevery thing
Ġp et
Ġse ar
Ġstr ange
is ter
ct or
Ġsp ark
T he
d er
Ġs it
Ġwood s
Ġgr ow
Ġpull ed
l ing
Ġsa il
ot t
Ġw on
Ġpl an
Ġr ide
et er
Ġask s
Ġfo x
Ġp ie
Ġdan ger
Ġtre at
uff y
Ġro ll
Ġvis it
o s
Ġle ave
m ed
Ġp at
ĠJ ill
uck y
Th is
Ġmus ic
Ġamaz ed
Ġwa ited
ĠSo on
Ġt eddy
Ġh ide
m e
B ut
an g
e ver
Ġtow ards
ow er
Ġf ield
Ġla nd
Ġp re
Ġfly ing
z z
ĠA ll
Ġp en
Ġs illy
Ġsh ared
Ġrun s
ain ed
Ġown er
Ġcl oud
ap e
Ġli ving
ug g
Ġqu i
am es
Ġjo b
Ġprom ised
ĠDad dy
O kay
Ġbel ie
ig g
Ġmor al
Ġs ide
g s
or m
o l
Ġl ake
Ġthink s
ck et
M aybe
op e
Ġpain t
Ġs ec
th y
Ġs ister
u ally
Ġpart y
Ġqui et
is es
Ġmu st
c le
Ġr ace
av y
Ġm oney
Ġwe ar
s w
Ġwor ried
as ed
Ġan sw
un ch
Ġslow ly
Ġp ot
ec es
ĠM ary
Ġcolor ful
Ġfast er
Ġgr ate
Ġo w
Ġdan ce
Ġpi eces
Ġbr an
Ġb ott
Ġwe lc
Ġbro ke
Ġcu p
i x
Ġgrate ful
Ġg if
Ġsu ch
Ġbig ger
z e
Ġtra in
p h
f ort
Ġsn ack
Mom my
Ġch o
ĠF l
Ġre ach
Ġbl ank
ĠM r
Ġmon ster
Ġpr o
Ġpl ant
Ġjo in
Ġr iver
Ġbl ack
le ss
Ġw in
Ġc andy
i re
Ġblank et
Ġsc ream
u it
Ġtre asure
e ar
Ġmagic al
Ġ ve
Ġprin cess
Ġe le
Ġsm art
Ġst u
ĠM ama
Ġb ike
Ġdanger ous
ĠJ ust
Ġs ign
Ġdra gon
Ġac ross
Ġmon key
Ġb ar
Ġevery where
Ġmo st
Ġhelp ing
Ġn ap
Ġfar mer
out h
Ġe m
Ġm outh
W hy
s et
Ġdis app
Ġp a
Ġwor ds
Ġj e
i pped
S ure
Ġst re
or ed
Ġtow er
m ing
e ared
H i
Ġth rew
Ġste pped
Ġhe avy
Ġdoll s
Ġp ass
Ġb ite
d e
Ġbow l
Ġdir ty
Ġtw ins
Ġsa me
Ġcry ing
Ġbe e
Ġsp r
Ġdo ctor
id ent
Ġac c
Ġbelie ve
Ġwould n
Ġb ath
Ġhe al
ch ool
ĠGra ndma
Ġh ig
b ble
Ġclo sed
Ġcar rot
Ġhe art
Ġst uck
ck ed
Ġc our
Ġfr uit
Ġb uck
Ġm in
Ġat t
Ġte ac
Ġs chool
Ġbr own
Ġhop ed
ask et
it ing
Ġsu ddenly
Ġb asket
Ġfeel s
Ġm ix
Ġch air
Ġeat ing
Ġto wn
ĠEm ma
Ġcour se
Ġcr ay
Ġcl apped
Ġco ll
Ġgent le
Ġfair y
pp ing
Ġbut t
Ġp ack
vent ually
Ġst and
i er
Ġdro ve
or s
ĠJim my
Ġpu shed
b r
B en
is sed
Ġwelc ome
t s
Ġsw ings
Ġwith out
ĠIn side
Ġhig her
Ġto day
Ġne igh
Ġpo cket
or row
Ġh it
Ġteac her
Ġneigh b
Ġp ers
or d
Ġsm o
Ġg ames
our n
Ġpie ce
ra ct
Ġche ered
Ġw ings
Ġfor get
Ġb en
Ġexpl ained
Ġj ourn
Ġy ard
Ġlong er
Ġf ree
i ble
Ġc orn
Ġacc ident
e ad
h o
Ġd ry
Ġal ong
um b
ĠM um
m ent
ĠThe ir
c y
Ġno ises
itt ing
Ġne ck
Ġsa ng
Ġin st
Ġl ate
Ġhapp en
Ġthr ow
A nna
Ġhug s
Ġyou ng
Ġturn s
Ġstor ies
ve l
Ġsho es
ph ant
Ġl on
Ġm iss
Ġadventure s
Ġsing ing
Ġ On
Ġtr ou
Ġwe ll
Ġse a
Ġl unch
Ġapp le
Ġup set
Ġlon ely
Ġke y
c hes
Ġ O
Ġbel ong
bb y
ou n
Ġd ist
Ġsec ret
Ġstre et
Ġpl ac
Ġele phant
Ġto m
Ġw ish
Ġf ence
Ġm ine
ount ain
Ġm at
e k
Ġsh ap
Ġsh ook
Ġexpl oring
Ġmo ved
Ġp urp
Ġye ar
aught y
Ġnear by
Ġn aughty
Ġst ar
Ġs oup
Ġsh op
Ġw ise
Ġst ars
Ġow l
Ġbr ing
fu sed
Ġj ar
b ow
ock ed
ĠFl uffy
Ġin v
Ġex p
Ġw he
y ard
Ġc aught
D o
w ard
Ġback yard
Ġsee med
ĠT w
a il
Ġ es
Ġrel ie
Ġdro pped
Ġp h
Ġrock s
aught er
ll o
Ġ 3
Ġdr ink
Ġbuck et
Ġd es
ad ow
c es
Ġpurp le
Ġsw am
Ġfar m
Ġre sp
ĠTh ank
Ġta king
Ġma il
Ġor ange
Ġth ough
ion s
Ġshap es
s y
ĠSam my
Ġp ast
co l
Ġc ow
Ġwo ke
Ġben ch
Ġsound s
Ġa f
un g
it y
Ġwonder ed
Ġbus y
Ġf it
Ġt iny
Ġo b
ĠL ater
Ġno se
Ġs itting
Ġn est
Ġrain bow
es e
Ġd aughter
Ġta kes
Ġm ark
Ġm ad
f ish
Ġc ou
Ġk ite
t o
re ad
Ġhold ing
Ġnot hing
Ġcom es
Ġju ice
Ġarm s
th day
Ġp ig
o g
Ġco at
in ing
Ġc ir
ĠW ith
Ġbran ch
ra id
Ġrelie ved
pp er
o se
Ġaf raid
c ing
id ge
Ġdri ver
Ġm il
Ġfore ver
ver ed
Ġsp oon
ĠE ll
S ara
Ġcut e
Ġcar ry
Ġgif t
Ġs ick
Ġb oun
a le
Ġli ft
st ing
Ġpe ace
Ġprom ise
O f
our s
Ġhug e
Ġa ct
Ġtou ched
Ġpat ient
u nt
Ġk ing
Ġr ound
c er
s c
Ġhe llo
ĠC ome
Ġbir thday
Ġf ing
Ġl etter
Ġgra b
Ġint ere
Ġexc iting
le t
Ġsun ny
Ġche ese
T im
ĠTw eet
et h
Ġon to
Ġbu sh
Ġlaug hing
Ġday s
bo ard
Ġjourn ey
Ġg igg
Ġb and
Ġcreat ure
ĠA l
Ġdis co
ĠW h
itt ens
Ġbre ad
H ey
ar p
Ġre t
p ed
Ġim ag
sh ine
Ġli fe
Ġk ick
g ged
Ġhop e
Ġp ower
Ġcra w
ĠJen ny
Ġshe ll
Ġco zy
Ġswim ming
Ġin c
Ġbott le
Ġm ist
Ġsh arp
Ġw ra
Ġs uc
Ġcom fort
g g
n ess
Ġinst ead
Ġwh ist
Ġmil k
Ġwatch ing
Ġret urn
Ġe ar
ĠEm ily
Ġsp in
al m
Ġaccident ally
Ġe as
Ġsun shine
t en
Ġc ave
p a
Ġsp o
Ġput s
Ġl ucky
Ġtal ked
Ġh oney
Ġpu dd
Ġpoin ted
Ġgi ves
Ġcoll ect
Ġg ather
it ch
Ġro ad
Ġ ent
Ġsmil ing
Ġb ought
Ġany one
Ġh or
Ġsear ched
Ġl ater
ĠC h
Ġc e
Ġf an
Ġsand w
b all
r ound
itt en
Ġapp les
el s
ble m
ir t
Ġpro blem
Ġme et
iz e
Ġm ach
Ġw om
Ġlo ves
Ġintere sting
Åĵ I
G ood
Ġwom an
Ġpl ane
Ġk iss
Ġpre s
Ġheal thy
e b
Ġp ile
Ġtast y
Ġduck s
Ġv ill
Ġw ide
o ve
on t
am ed
u b
a ur
Ġad m
Ġe ag
Ġsp id
Ġcle ver
Ġcray ons
Ġpr ot
Ġm atter
Ġtrou ble
er ly
nd pa
Ġz oom
Ġcloud s
ow ed
Ġstor m
Ġpers on
Ġp ath
ck s
Ġp ill
Ġfe ather
Ġr ope
Ġp op
Ġsh ining
Ġprot ect
Ġsmell ed
Ġfr ont
Ġh on
Ġbutt on
ĠH ow
Ġp ract
Ġspot ted
Ġscream ed
Ġz oo
Ġmin ut
Ġpres ent
C ome
Ġa p
Ġmu d
Ġv al
Ġresp ect
Ġsa f
ĠS omet
Ġdan ced
Ġche er
Ġor gan
Ġp ar
Ġqu est
o nd
Ġapp eared
ĠJ ake
Ġwh ich
Ġpu zz
Ġse at
Ġte ach
Ġmy ster
Ġsnow man
is a
Ġsn ake
Ġth in
er t
Ġw ild
Ġas leep
Ġlove ly
Ġs ur
Ġansw er
ep end
ĠTo gether
Ġwe aring
ĠM ittens
Ġgent ly
Ġneighb or
oo se
Ġb ark
Ġhor se
Ġgi ant
ĠS t
Ġplac es
Ġgo es
Ġwho le
ĠR e
Ġsear ch
ĠA nn
Ġspl as
u p
Ġcorn er
Ġimp ress
ul ar
Ġdir t
Ġm ed
Ġsh r
e en
Ġtri es
Ġtri p
Ġcon fused
Ġli ve
Ġm ind
Ġd i
at o
Ġroll ed
Ġc ard
Ġsl id
Ġtast ed
n ic
ce an
Ġas h
Ġo cean
Ġsu pp
Ġforg ive
Ġpic nic
ĠG o
ĠL e
Ġc a
Ġru de
Ġmach ine
Ġsp ent
Ġdri ve
Ġte eth
Ġs er
ss ed
itt y
J o
Ġph one
Ġo ven
Ġp an
Ġp our
Ġla st
l a
Ġc alm
Ġpretend ed
Ġdel ight
ĠL isa
Ġcook ie
Ġfur ry
Ġspid er
iz z
Ġfe et
Ġfa ces
un k
Ġl ay
Ġwor m
Ġr ing
Ġre c
um ber
Ġhelp ful
Ġl ad
ĠB e
Ġe ventually
Ġw ip
Ġch ick
Ġwa ve
Ġm ountain
Ġsa l
Ġb an
Ġem b
Ġtal king
on es
Ġro b
Ġfo ld
Ġsh y
Ġc art
Ġtom orrow
Ġs el
Ġcho col
Ġt id
Ġsp read
Ġvill age
ĠP eter
ar ge
if e
Ġrem ind
Ġ ign
Ġbu bble
Ġt un
Ġco in
Ġfo ot
Ġcou ch
Ġwr ite
Ġpu sh
Ġlad der
Ġbuild ing
Ġfight ing
Ġsmo oth
ĠSomet imes
Ġtreat s
Ġw ore
Ġch ased
Ġtoo l
ig hed
Ġb lew
Ġst ret
le x
ar ra
Ġbug s
p er
M y
Ġemb arra
Ġhid ing
Ġp ool
Ġc ross
Ġ '
Ġwait ing
op h
Ġkne e
Ġrob ot
Ġneck l
Ġst ep
Ġpudd le
m o
Ġfin ish
Ġshe lf
Ġbe ll
Ġc oo
n ot
al s
Ġsong s
Ġst ir
at or
Ġwhen ever
Ġsel fish
Ġa nt
Ġm aybe
Ġcan not
Ġstr ing
Ġst ra
Ġchocol ate
ĠEvery where
ul t
Ġso l
Ġtast e
Ġsp e
Ġre p
ĠT eddy
Ġh um
Ġp le
Ġl arge
Ġpa w
Ġn et
bo x
Ġsa ck
Ġlea f
Ġsc ar
Ġfix ed
le br
Ġbar ked
Ġtid y
ump y
Ġban an
Ġwas h
Ġspr ay
Ġst one
Ġce lebr
o ld
ĠSu s
Ġg en
Ġcl oth
P lease
ĠB u
Ġcra b
Ġpeace ful
Ġcol our
S t
nn y
ung le
ĠP lease
Ġhe l
u sh
ir d
o in
Ġm issed
Ġd eter
Ġj ungle
ig er
ar m
Ġland ed
Ġdeter m
Ġfor ward
Ġembarra ssed
ĠS ome
Ġneckl ace
Ġhon est
Ġjump ing
air s
ell y
Ġb at
Ġdec or
d ge
Ġtr ust
Ġhe ars
Ġmo on
or ry
Ġstick s
ĠT V
Ġsh irt
Ġcreat ive
Ġsh aring
Jo h
a king
Ġte a
mo st
Ġkn ocked
Ġcarrot s
Ġdisapp oin
Ġsuc cess
ĠD on
Ġme adow
y ing
ĠE ven
get able
Ġwh is
Ġst ood
Ġgen er
Ġve getable
ĠWh ile
Ġb al
Ġme ant
Ġle gs
Ġtight ly
ĠL ittle
Ġbre ath
Ġpl ate
Ġal most
Ġash amed
n ed
Ġem p
Ġs our
Ġgr ay
d le
Ġgre w
Ġtell s
Ġemp ty
Ġpill ow
Ġ Z
g round
on y
Ġg as
Ġspl ash
Ġwhist le
ĠM ummy
i an
Ġunderst ood
Ġshe ep
Ġb er
ĠJoh nny
Ġcar ried
d en
Ġyell ed
ĠW hy
Ġle m
ust r
ar l
Ġno ds
v ous
Ġsa ve
Ġpol ice
Ġdisappoin ted
Ġsnack s
Ġh ours
Ġn ut
it al
Ġje w
Ġthe se
ĠAl ice
h in
or k
Ġho sp
et s
ĠB o
Ġspark ly
Ġgo ld
W here
er p
Ġhosp ital
Ġk itten
S am
Ġsh ip
Ġp ay
in a
Ġb ored
ur se
Ġl ine
Ġgener ous
Ġfr ustr
Ġt est
Ġhid den
Ġta ught
Joh n
Ġstand ing
Ġr ad
Ġscar f
ĠLe o
if f
Ġche w
Ġreturn ed
Ġminut es
Ġp izz
Ġknow ing
Ġgr oup
Ġh ur
Ġplant s
Ġeas y
Ġbl ow
Ġbed room
Ġpol ite
Ġmyster ious
Ġwa ves
Ġgl ass
Ġs ighed
ĠRe x
Ġsh ore
Ġp ri
Ġse ed
Ġwo lf
Ġsee k
Ġdeterm ined
k in
St op
Ġpuzz le
Ġpower ful
Ġthank ful
f l
Ġcl ass
Ġn er
Ġp ir
Ġsandw ich
Ġf ig
ĠB r
Ġsleep y
Ġprin ce
Ġpass ed
Ġd rew
' d
ĠB l
Ġfing er
Ġj elly
Ġpizz a
Ġner vous
Ġfrustr ated
Ġsp icy
Ġg un
Ġspo il
Ġmat ch
Ġfan cy
Ġmess y
os aur
w ork
Ġg ate
Ġbr idge
Ġlo ck
ĠM ark
Ġk issed
Ġt ick
au l
Ġclos et
Ġfe ar
Ġre g
a f
Ġfe ed
Ġm ot
Ġso ld
Ġw is
ĠSus ie
Ġgather ed
Ġa v
Ġexc ite
Ġpo or
Ġcir c
ot e
Ġha ng
Ġcat erp
Ġcaterp ill
Ġes c
Ġfl ag
oo p
Ġp in
Ġgr umpy
Ġv an
id dle
ell a
Ġdin osaur
Ġyour self
an o
iss ors
u ce
Ġansw ered
Ġc ries
A re
Ġof ten
itt er
Ġtw irl
sel ves
Ġche st
s ist
Ġsc issors
Ġho pping
Ġte ars
p ack
g ly
S orry
m b
Ġm ummy
Ġu gly
Ġb urn
Ġc and
ens ive
Ġde er
Ġdr op
ill ed
Ġf il
Ġexcite ment
er a
iz zy
Ġcaterpill ar
Ġl it
Ġwor king
Ġm iddle
Ġexp ensive
Ġsc r
Ġsa ved
Ġta ken
Ġo k
Ġtr ue
Ġwa gged
Ġon es
Ġple ased
Ġcr own
Ġsp end
Ġb oring
Ġpick s
Ġle g
qu e
oo f
ug ar
Ġv ase
Ġt ent
Ġas king
bo dy
u al
Ġbr ush
Ġt ie
at es
Ġvegetable s
eci ally
Ġgigg led
Ġbo ss
et e
W ho
Ġmist ake
Ġc age
s er
Ġget s
l ight
Ġrock et
T here
Ġc ap
Ġm ir
Ġcomfort able
Ġs ugar
Ġe ld
Ġst uff
Ġpack ed
Ġdan cing
p ecially
Ġes pecially
ĠTo day
Ġwa nder
Ġcl own
Ġmed ic
Ġn umber
Ġp ress
Ġs ight
ĠD an
Ġkn ight
g gs
ot s
Ġfruit s
in ess
ĠE ventually
Ġe ggs
Ġl ying
Ġdr um
Ġpu s
ĠBo bby
Ġf ake
Ġd est
r or
Ġmedic ine
Ġwalk s
Ġdist ance
ag ed
Ġgl ue
Ġsplas hed
Ġsweet ie
Ġb ake
Ġfl ut
Ġb one
ĠBl ue
Ġ No
Ġdraw ing
Ġmo ving
Ġdisapp eared
Ġ U
Ġwe ek
Ġ OK
Ġle ad
Ġsmell y
Ġcl ap
Ġbec ome
Ġlem on
Ġch ange
ĠK itty
Ġpr ay
Ġfeather s
h a
Ġmom s
Ġlo se
ĠI f
Ġmo v
Ġli cked
Ġcall ing
Ġtw ist
Ġdog s
Ġbath room
Ġplay ground
or y
y al
Ġf is
Ġla zy
Ġro ar
Ġeld erly
Ġwe ak
Ġinc red
Ġc ri
Ġg ar
?" .
N ow
Ġbo dy
Ġh orn
Ġex am
Ġcr ack
Ġquest ions
Ġa dd
Ġwr ote
Ġy og
Ġyour s
Ġno isy
Ġf ather
Ġmir ror
ugg est
Ġm ic
Ġno d
Ġs uggest
ĠF red
at ing
el p
ĠP ete
ee z
Ġfl uffy
Ġsk ipped
Ġ ed
Ġwhe el
Ġeag er
Ġlo yal
Ġl amp
Ġd ish
Ġex t
Ġcle ar
Ġfam ous
l and
ĠE nd
Ġd ig
Ġst ones
Ġru ined
in ation
Ġr ich
Ġr are
Ġor d
Ġt ape
ĠM andy
Ġse ll
Ġdr ank
Ġcont ent
Ġfig ure
Ġqu een
ĠEll ie
Ġmar ch
Ġincred ible
Ġgl ow
Ġm ap
Ġshow s
Ġr id
t i
Ġche ck
Ġju icy
Ġso ap
Ġco vered
Ġ ind
Ġball s
Ġsail ed
Ġrel ax
Ġa w
Ġsho ot
ill i
h ip
Ġte am
at ely
Ġme asure
Ġdec ide
Ġreal ised
umb led
Ġdisco vered
Ġco ins
Ġneed s
Ġb orrow
Ġsw an
Ġstra w
f ic
Ġadvent ur
ce pt
H elp
Ġclean ed
Ġbran ches
Ġtow el
Ġboy s
Ġext ra
Ġha m
as ing
B e
im p
ĠEll a
W ell
Ġbo ard
Ġchick en
Ġb arn
Ġmo d
Ġt iger
Ġmot or
Ġt ag
Ġadventur ous
Ġjo ke
Ġdif fic
Ġoff ered
Ġf ine
ke ep
Ġbal ance
Ġlift ed
ĠBr own
i que
Ġbubble s
Ġcolour ful
ĠM ar
Ġfr own
Ġt urt
Ġey e
Ġth ick
ĠR ose
Ġdiffic ult
Ġbott om
Ġtr ack
Ġto ug
al ous
Ġorgan ized
Ġco ver
Ġhappen ing
Ġun ique
ra g
Ġje alous
Ġdo lp
Ġho se
p ort
Ġkn ife
ĠB ella
Ġwe ird
Ġis land
ĠBob o
c il
Ġgar age
Ġfr ight
Ġman aged
im ed
Ġhurt s
Ġpen cil
Ġwor d
j ect
Ġcraw led
Ġco st
Ġlearn ing
Ġar g
M e
Ġcir cle
ĠMr s
Ġsay ing
Ġkind ness
ur ed
Ġber ries
Ġon ce
Ġtoug h
ol og
Ġmight y
Ġballoon s
Ġpoin ting
Ġch ase
Ġba ld
Ġfav our
re ady
Ġwa nd
dd y
Ġt er
l ies
keep er
Ġsh ake
i v
Ġjew el
Ġloud er
i pper
Ġa dded
ag es
Ġb atter
Ġs il
Ġh unt
Ġgu it
Ġhard er
Ġgu ess
Ġap olog
Ġun us
Ġed ge
he ad
Ġal ready
Ġf our
Ġan g
ĠTweet y
Ġsp un
Ġfavour ite
Ġf ool
Ġn orm
Ġwh ale
i pp
Ġunus ual
Ġli br
Ġval u
ra ge
al k
Ġenjoy ing
Ġd izzy
a w
Ġhat s
Ġp ump
Ġbelong ed
Ġgra ce
Ġwra pped
Ġcheer ful
Ġsmo ke
ugg led
Ġimpress ed
Ġstraw ber
ĠM ike
Ġtruck s
Ġrec ord
Ġgi ving
Ġsw ord
Ġmark et
Ġgr own
Ġre f
ĠGra ndpa
Ġlaugh s
Ġtr unk
Ġnorm al
an ged
ĠF r
Ġgra nd
Ġher o
Ġe ars
Ġguit ar
Ġloud ly
ol a
illi ant
Ġh arm
Ġturt le
L ila
Ġbanan a
H ere
Ġproud ly
Ġbox es
Ġsc are
at ure
il t
Ġbr illiant
Ġch oose
Ġbrother s
er y
Ġcirc les
Ġwhis p
Ġter ri
Ġboss y
Ġdream ed
Ġagain st
Ġesc ape
y m
Ġgo at
Ġinv ited
Ġsk in
Ġca b
Ġhelp s
ĠD ave
g y
c ient
Ġcomp et
Ġp il
ip e
Ġpain ting
Ġmean s
Ġm elt
Ġfright ened
ĠS oph
Ġac cept
f ast
Ġpe e
Ġfl ash
Ġsaf ely
Ġd epend
Ġbutt ons
Ġsl ipped
Ġdes ign
Ġstu bb
Ġbird ie
Ġj ack
Ġwra p
Ġvalu able
Ġcab in
Ġcray on
Ġwa ke
Ġst ream
Ġwall s
Ġhapp iness
ous es
Ġbreak fast
Ġlo g
er ry
Ġan cient
ed ient
Ġstu dy
Ġsuccess ful
Ġcl ay
em o
or ge
Ġknow s
Ġfool ish
Ġto ast
Ġfall s
Ġfr idge
y e
Ġle an
ĠN emo
Ġstubb orn
Ġun l
ĠM y
Ġnice ly
at ch
Ġsh ape
app ing
om ed
Ġfi er
Ġcu dd
Ġr ough
Ġdream s
Ġmov ie
Ġsp ace
Ġh ouses
Ġc ity
Ġno sy
Ġbl oom
Ġdelic ate
ĠL ola
Ġob edient
Ġfier ce
Ġoff ice
Ġtom ato
Ġf at
Ġgra ndpa
ad o
a z
la imed
Ġ icy
Ġcompet it
Ġsuggest ed
Ġsh ark
Ġde ad
Ġnot ice
Ġwa gon
p es
Ġexc laimed
Ġme m
Ġkind s
Ġmix ed
Ġwip ed
Ġc her
Ġuse ful
e xt
Ġpour ed
Ġshell s
ut h
Åĵ Let
Ġst ri
Ġlight s
Ġlo cked
Ġsound ed
Ġtool s
Ġth u
Ġsto ve
Ġexcited ly
Ġexpl ored
Ġa unt
w ards
Ġe gg
Ġf rag
e orge
Ġro se
!" .
Ġs on
o ppy
Ġsh adow
Ġt imes
Ġc ro
Ġen c
Ġbag s
Ġf ountain
ent ion
o ot
Ġthem selves
Ġst umbled
Ġbus hes
ar ry
Ġwe al
ac he
d om
Ġl ow
Ġshow ing
Ġspoil ed
re ll
Ġfing ers
Ġperf orm
Ġla b
Ġab ove
v ice
Ġthought ful
Ġre sc
ĠD ucky
Ġind epend
k n
Ġsmall er
Ġw itch
Ġd ough
n a
Ġfrag ile
Ġdepend able
Ġra ced
Ġjo g
r ay
art h
ĠWhen ever
Ġplay ful
in al
Ġsee m
Ġhel m
Ġspin ning
Ġen g
Ġte le
c orn
Ġclo ck
Ġbright ly
in es
Ġprin t
Ġro de
Ġstret ch
Ġpar rot
orm ous
Ġdelight ed
Ġbu ilt
Ġadm ired
Ġla w
Ġen ormous
ĠS n
Ġkick ed
Ġr oof
Ġcount ed
Ġj am
Ġsw e
Ġr at
Ġpract ice
re en
Ġor ig
Ġway s
Ġch anged
Ġsh one
Ġsun fl
Ġc op
Ġremind ed
Ġtw ig
Ġac orn
it her
Ġc am
i ence
Ġsn iff
Ġz ip
ee ze
Ġham mer
Ġindepend ent
ĠYou r
Ġus ing
ĠC l
Ġb itter
Ġhand ed
Ġwhisp ered
Ġh oop
mb rell
kn own
Ġcho se
Ġch ir
an ut
Ġlo ll
Ġjo lly
Ġc one
Ġu mbrell
Ġtun n
Ġsol ve
Ġstrong er
Ġbe es
Ġser ious
ip op
Ġorig inal
Ġt ummy
Ġste al
Ġbe ak
Ġbra ce
Ġterri ble
Ġm is
Åĵ Yes
ĠB ill
Ġpop corn
Ġf re
Ġloll ipop
Ġpain ted
Ġboat s
Ġall owed
Ġhair y
ic t
Ġmo der
ia ble
Ġsa uce
Ġclean ing
ĠG eorge
Ġun known
Ġlea ving
Ġd ust
Ġgas ped
Ġfind ing
Ġjo ined
Ġgu ard
Ġsal ad
Ġpot ato
he t
Ġbe an
Ġpump kin
ie w
ĠTo by
Ġpick ing
Ġcl um
in ary
Ġdo ve
an ger
Ġb ump
Ġha lf
Ġs ink
am ond
Ġcost um
ur ing
Ġy et
ro be
Ġmet al
Ġt ank
Ġboun ce
Ġrel iable
Ġpo st
Ġto r
Ġv iew
Ġdoes n
Ġth ose
Ġfor th
ag het
aghet ti
Ġdi amond
Ġdolp hin
Ġad vice
Ġ Once
c om
Ġh ay
Ġbar ber
p id
Ġmoder n
Ġst amp
Ġru bb
Ġthin king
Ġg em
Ġ ing
Ġhold s
g u
eb ra
Ġpir ate
ug ged
Ġmar ble
Ġcre ate
H ow
Ġreg ular
red ient
Ġing redient
Ġclum sy
Ġsleep ing
ĠK im
Ġsearch ing
Ġst airs
Ġweal thy
Ġy arn
S ee
Ġru shed
Ġstu pid
Ġpre p
il ty
Ġtell ing
Ġsp aghetti
Ġgu ilty
Ġche ap
ĠP e
Ġpe anut
Ġg oose
Ġch ar
Åĵ What
c u
Ġru b
Ġmag n
ation s
Ġf lex
Ġcomp ass
Ġopen s
Ġm ask
Ġpat ch
Ġst at
Ġar row
Ġz ebra
Ġeng ine
i o
Ġthu nder
Ġkn ock
Ġsqu are
ill a
eez ed
irst y
Ġang el
Ġc ur
ĠB ear
Ġgrace ful
Ġcam era
Ġumbrell a
co d
Ġdri ving
Ġbu ll
Ġcra zy
âĤ¬â Ģ
ĠB a
Ġsh iver
Ġwas hed
Ġcarry ing
Ġst age
is k
Ġpop ular
Ġbe et
Ġd ull
umb ers
ĠP olly
Åĵ It
Ġmiss ing
Ġspark led
Ġfriends hip
Ġtr uth
sh ion
Ġme al
ĠSoph ie
G o
Ġseed s
f a
Ġflex ible
Ġimpress ive
Ġsn e
Ġt ied
Ġpe bble
t ime
Ġcare less
Ġlibr ary
Ġimag ined
Ġcom b
Ġfre sh
Ġdel iver
Ġn ature
Ġshe l
Ġend ing
Ġp atter
Ġdest ro
Ġjack et
Ġpers ist
Ġre ward
Ġhand le
is ion
Ġru bbed
ĠR o
Ġingredient s
Ġdream ing
Ġsh ocked
ĠA lex
ri c
Ġpri ze
oom y
Ġsu dden
Ġcro cod
Ġlo ad
Ġent h
ie f
i bb
Ġpig e
Ġpatter n
Ġcompass ion
Ġen vel
ĠN ext
Ġflash light
Ġth irsty
Ġsad ly
Ġenc ou
R e
Ġstr anger
ars h
in ce
Ġenth us
Ġwhe els
Ġdes k
ÅĵLet Ã¢
em ent
ĠJoe y
Ġread ing
Ġw ire
Ġdisco ver
Ġear ly
Ġmail box
Ġfor k
Ġsu it
Ġn umbers
Ġt em
Ġpee ked
ĠAnd y
Ġpen ny
Ġbutterf lies
a wn
Ġcry st
Ġsp illed
Ġbrace let
Ġtor n
Ġr ug
Ġg um
Ġstop s
l oo
Ġre ce
Ġen v
Ġcomp ut
Ġa head
Ġspr ing
b led
Ġor der
Ġtow ers
com fort
Ġsor ts
Ġob ject
ell ig
Ġw ing
Ġb ent
Ġc ere
Ġan x
Ġsur f
Ġpen gu
Ġe arth
Ġint ellig
Ġwar ned
Ġwindow s
Ġspo ke
Ġp ow
Ġpu p
g est
Ġhum ble
Ġun comfort
Ġav o
Ġp ant
Ġnot e
Ġuncomfort able
Ġplac ed
Y ay
ic hes
Ġsunfl ower
Ġpa le
Ġtra vel
Ġsu per
Ġbad ly
Ġold er
Ġslid es
Ġanx ious
i kes
Ġbig gest
Ġsc ale
Ġcom pl
Ġcouldn Ã¢
Ġst ack
Ġflut e
Ġtra p
Ġstat ue
Ġsc oot
O w
Ġcount ing
Ġgrow ing
Ġcoo king
Ġcomp let
Ġli z
Ġtunn el
Ġbeet le
Ġcelebr ate
ho st
Ġm el
The y
Ġcup board
Ġmu sh
Ġso fa
Ġn ail
Ġharm less
Ġsc atter
ĠP aul
Ġbeaut y
Ġmo le
Ġde af
Ġval ue
Ġn urse
Ġper m
ĠHe re
Ġ er
Ġsh ut
Ġpersist ent
Ġjump s
Ġcrocod ile
Ġhun g
Ġg host
Ġgif ted
ĠCh arl
Ġre fused
Ġchar ming
Ġtri ck
ĠG ive
Ġne at
Ġnam es
ĠP at
Ġcou rage
op us
Ġy awn
Ġfl our
ct opus
Ġcr ane
Ġc urt
Ġpretend ing
c ream
Ġp ony
Ġcere al
Ġb ase
Ġsandw iches
ic es
Ġra ven
Ġsn uggled
Ġcurt ain
Ġdestro y
Ġsupp ort
Ġt ur
Ġord inary
Ġch asing
Ġun iver
ĠL ook
a id
Ġquest ion
Ġenvel ope
ac hes
Ġdraw er
Ġtri ang
Ġv i
Ġc amp
ĠU n
Ġset t
u d
Ġcomput er
Ġo ctopus
Ġatt ract
Ġru les
Ġcraw l
Ġlive ly
Ġs end
Ġgl oomy
Ġcart oon
Ġun cle
ip s
Ġintellig ent
H e
Ġm ay
Ġpi ano
Tom my
Ġspe ed
Ġpack age
Ġblue ber
Ġsh aking
Ġf u
Ġhelm et
Ġcryst al
Ġneed le
Ġmush room
Ġtur key
o e
Ġcoll ar
Ġpar ade
Ġcreature s
st ri
he art
Åĵ That
Ġhur ry
Ġtwirl ed
Ġph ot
Ġliz ard
en ry
er able
a ff
or ant
u bby
Ġal ert
u nd
Ġmis erable
M ax
Ġth ief
g ust
Ġst ation
Ġsold ier
Ġhunt er
Ġpe pper
ce ed
Ġt ask
ill ie
Ġany where
Ġd ug
Ġdis gust
Ġb icy
Ġfire man
Ġen er
c ut
Ġcar p
ĠGra ce
i est
ĠBe fore
s es
Ġwis hes
Ġse al
Ġre sist
Ġl ed
Ġv ide
Ġbe ep
Ġign orant
Ġband age
Ġstick ers
co a
ĠBrown ie
Ġsc reen
Ġrad io
Ġhelp less
Ġboun ced
t ter
Ġtra sh
G ive
Ġsec ond
Ġle ash
Ġrep e
Ġpract iced
Ġmu ff
Ġsh ine
Ġch ance
Ġletter s
Ġattract ive
Ġimp at
Ġm ill
Ġstir red
Ġcri cket
Ġje ep
Ġstret ched
Ġno body
ur b
Ġth read
Ġpast a
Ġcu be
Ġp and
Ġch ubby
Ġto oth
um mer
Ġpige on
Ġj et
Ġg ir
ĠAnn ie
Ġcompassion ate
c col
ĠS h
I f
Ġcl ub
ccol i
Ġtr ump
Ġdist urb
or able
Ġdecor ate
ĠTweet ie
Ġco coa
Ġbright er
Ġj ug
Ġimpat ient
Ġstep s
ar ian
Ġt ire
Ġcompetit ive
Ġfur ther
Ġo tter
Ġrespect ful
Ġsuc ceed
Tim my
Ġtrou bled
Ġpress ed
ol in
Ġit self
a ked
Ġb et
Ġo stri
n oon
Ġcand le
Ġm ug
Ġafter noon
ĠJ erry
Ġatt ic
Ġrest less
Ġstart s
Ġp un
Ġt ap
Ġsome where
ĠB et
ĠA re
Ġr ibb
aur ant
st ic
Ġd ess
Ġqu ar
Ġcarp et
Ġany way
Ġshout s
Ġsho e
Ġdisgust ing
Ġad orable
Ġrest aurant
Ġsk ip
Ġle op
Ġfor t
g n
Ġpant s
Ġv ine
ĠW here
Ġtr ay
Ġnut s
Ġwa ff
Ġc ase
c ome
Ġg or
Ġfear ful
Ġsc rew
Ġenv ious
Ġsweet heart
op ter
Ġc ards
Ġall ig
ĠT r
ic opter
ia stic
Ġdist ant
Ġbro ccoli
Ġenthus iastic
en ny
Ġh ipp
Ġfil thy
Ġgigg le
Ġexp er
ĠL ee
Ġtrump et
Ġcoo ked
Ġhel icopter
Ġmonkey s
ĠEvery thing
n ight
Ġre co
Ġp or
ĠW ill
ir it
Ġsand box
ar oo
ang aroo
Ġh ook
Ġh arsh
ĠW ould
ĠCharl ie
Ġb ri
ĠL illy
Ġadm ire
Ġnow here
Ġt en
Ġback pack
gg ing
Ġso ar
Ġs ent
Ġbel t
Ġbat ht
g ie
Ġexpl ain
Ġscoot er
Ġa nts
Ġme as
op l
Ġpo em
er opl
Ġcount ry
ĠSn ow
cy cle
Ġbatht ub
Ġp ipe
Ġa eropl
Ġbark ing
Ġqu ite
Ġun pack
st airs
p ar
Ġcow s
Ġspe ak
Ġk angaroo
Ġl id
Ġsqu ash
ĠH enry
Ġleop ard
Ġm ama
Ġhapp ier
Ġsp ell
Ġrep air
ĠR ed
Ġlisten ing
Ġbicy cle
Ġse par
im i
Ġs ummer
ĠMar ia
ĠS m
Ġst ared
ĠP ap
Ġgrab s
Ġmess age
Ġbre at
Ġdidn Ã¢
uc t
Ġostri ch
Ġfire work
Ġhum an
Ġloo p
Ġgi ven
Ġc omet
Ġmu le
h ood
ĠM illie
Ġsor t
Ġimp ro
Ġgor illa
Ġmod est
Ġpa id
Ġfind s
y ear
Ġyog urt
ĠBa by
Ġdess ert
Ġme at
Ġob ser
Ġvi olin
Ġu r
B ye
Ġhe dge
i pping
Ġsp irit
ĠS andy
Ġpull s
Ġtri pped
Ġjelly fish
Ġmel on
Ġspl it
ĠB unny
Ġpaw s
ĠK ate
Ġallig ator
Ġf le
Ġresc ue
Ġs ize
Ġho les
ĠPap a
Ġpro v
uck ed
ĠJ ess
Ġro ared
Ġf ive
Ġforg ave
Ġcat s
Ġwhe at
Ġp urse
Ġreco gn
Ġhipp o
Ġpil ot
Ġha ll
Ġt ax
Ġshe et
Ġp al
Ġca ct
Ġin se
Ġpus hing
oph one
Ġb ikes
Ġorgan ize
c i
Ġswing ing
Ġs le
Ġra ft
ĠM imi
Ġsal t
Ġsc old
ĠM ag
Ġstart ing
Ġsh ade
Ġbeh ave
Ġb in
ĠT ed
Ġlight ning
Ġo at
Ġr ice
Ġhair cut
Ġbr us
Ġtriang le
e er
Ġbu zz
Ġener gy
ĠBu ddy
isk ers
Åĵ You
Ġb ur
Ġkn ot
Ġfrown ed
b ul
Ġle ar
al ed
Ġlear nt
Ġe ither
Ġpor ch
Ġm ath
Ġrid ing
Ġp ed
Ġli p
lc ano
se um
Ġtra ins
eb ook
Ġend ed
Ġnot ebook
Ġstick er
il ing
in king
ĠDan ny
Ġl end
ĠR os
Ġwall et
Ġl uck
Ġeven ing
re ci
Ġpand a
ĠWh iskers
Ġcact us
Ġjo kes
Ġch alk
Ġbanan as
Ġpap ers
Ġro d
Ġmu seum
Ġswe ater
Ġapp reci
Ġli ons
Ġpal ace
Ġtax i
Ġvo lcano
u be
Ġshop keeper
Ġch ain
Ġstrawber ry
Ġbear s
Ġroll ing
Ġbo ots
Ġer as
Ġhad n
ast ic
Ġneighb our
Ġbar rel
Ġsh akes
f fe
Ġmic r
ic er
ffe e
oo ped
Ġsil ver
ur ch
Ġla und
Ġal ive
Ġsmell s
Ġm ild
ĠR u
pl ay
Ġre ind
Ġso ck
Ġlaund ry
Ġste ak
Ġavo c
Ġin k
Ġpo le
Ġstr ugg
ir on
Ġpus hes
Ġput ting
Ġvis ited
Ġgo al
Ġsoft ly
Ġmagn et
Ġju dge
ĠT ony
ed y
Ġtri cks
Ġdraw ings
Ġmicr ophone
Ġcl apping
Ġp ad
Ġo l
Ġh ive
Ġsh ield
Ġt ube
Ġlean ed
Ġcol ours
Ġsail or
Ġsho vel
Ġair port
Ġzoom ed
Ġfall ing
Ġr ag
Ġbelong s
Ġshel ter
ĠB un
Ġunl ock
Ġspr ink
ĠIn st
Ġche cked
ĠH arry
el ery
Ġin sist
Ġpengu in
Ġquar rel
ha ppy
Ġam bul
Ġclimb ing
Ġmar ched
Ġg ro
Ġdis play
Ġreind eer
c ast
hin o
Ġsa us
en se
Ġaeropl ane
Ġd ive
Ġdis hes
op hy
Ġpol ish
Ġbark s
g es
Ġav ail
Ġdon Ã¢
Ġfield s
Ġgra pes
M ia
Ġsand cast
Ġambul ance
Ġpe ek
ĠO r
a it
Ġapolog ized
Ġy ach
Ġso il
Ġco ffee
Ġsk ill
sel y
Ġcostum e
Ġele v
Ġo y
Ġtr ophy
Ġfeel ings
Ġplan et
Ġhop ing
an ic
Ġfil m
Ġpr un
Ġar t
Ġrubb er
D ad
r on
Ġun happy
Ġdrop s
Ġshr imp
n ger
Ġmed al
Ġk itty
âĤ¬âĢ ľ
Ġthank s
Ġrain ing
Ġm en
ch anic
Ġst om
Ġminut e
Ġelev ator
Ġc elery
Ġc ord
Ġon ion
Ġr hino
Ġavail able
ect ed
Ġeras er
Ġinc l
Ġp age
Ġsh ort
Ġyach t
ree ze
Ġshould n
Ġfis her
Ġperfect ly
Ġimag ine
Ġw ool
Ġmar ry
Ġwin ter
Ġbasket ball
Ġme chanic
Ġdi ary
n am
Ġbu l
Ġher b
ĠK at
Ġfl ies
Ġcomplet e
Ġre ver
Ġapp l
ĠA b
Ġclo sely
au sed
Ġcard board
Ġinse ct
Ġmag az
H a
Ġeag erly
Ġplay er
e ath
Ġjourn al
ĠSm ith
J im
Ġba king
Ġve nd
Ġqu it
Ġf urn
Ġgl ove
it ure
Ġdis ag
ĠJ ames
Ġfurn iture
Ġstuff ed
Ġt ub
Ġbreak s
Ġimag ination
Ġbul b
Ġtreasure s
Ġch urch
g en
ec ause
Ġcount er
Ġw ife
Ġhead ed
an y
Ġcool er
a zz
Ġp air
Ġfree z
Ġfrog s
ĠM iss
Ġt ut
qu it
ĠJ ul
Ġsk ull
ma nd
or ies
Ġp it
Ġkn ob
w een
Ġfa ctor
Ġsw itch
Ġfoot ball
pl ace
Ġoff er
id es
Ġsun set
Ġbet ween
Ġli e
ĠInst ead
if l
ĠCl ara
aul ifl
Ġche ek
Ġs ym
Ġsw ung
Ġfactor y
Ġcup s
Ġmotor cycle
p e
r ight
Ġchir p
Ġmo s
quit o
Ġfl ame
Ġtw ink
. .
Ġshout ing
nam ent
Ġpain ter
Ġgo lf
Ġpe ach
Ġor nament
ke let
Ġblow ing
Ġh ut
Ġsun g
af fe
Ġhot el
J ack
Ġsee ing
Ġc aulifl
Ġfold er
Ġvend or
c cer
l ass
Ġvide o
Ġmix er
M ama
iz es
bo l
Ġthrow s
Ġpir ates
Ġcreat ed
ors es
Ġhead s
Ġo il
Ġk ay
Ġfr ame
Ġmos quito
ĠMag gie
ang u
M um
m m
ĠM ay
Ġcu shion
Ġso ccer
Ġfisher man
Ġco al
z zy
Ġsym bol
Ġh orses
Ġc able
cer os
Ġpo pped
Ġl angu
a b
Ġwip e
Ġp ine
Ġatt ention
Ġs kelet
Ġbatter y
M olly
Ġpow der
Ġcaulifl ower
Ġstu d
Ġla ser
ĠGo d
re nder
Ġforgot ten
Ġwe ather
ro d
Ġli ves
Ġm op
Ġcelebr ated
Ġfis hing
Ġa x
e f
Ġr ot
Ġs ince
Ġtra il
ĠI Ã¢
el come
Ġma ze
aw s
Ġphot o
it es
Ġyog a
Ġsur round
Ġwa ving
Ġsle pt
Ġsne ak
Ġan ch
Ġde ar
un ately
Ġgir affe
Ġint rod
Ġrhino ceros
Ġpo ke
Ġsw amp
p le
Ġfle a
Ġpoin ts
Ġit ch
Ġpoin t
Ġglow ing
Ġit Ã¢
Ġfire place
Ġb reeze
n ey
lass es
Ġsu b
Ġv et
Ġsung lasses
You r
Ġking dom
Ġmem ories
Ġtut or
Ġstre ng
Ġtun a
Ġ iron
Ġre ve
ĠRos ie
Ġv est
sp ap
Ġpet als
Ġfo g
Ġmist akes
Ġax e
ĠSt e
Ġcompl ain
Ġbase ball
Ġdan cer
Ġchick ens
Ġpare nt
Ġ ig
her o
Ġnew spap
Ġstreng th
Ġgre edy
Ġce iling
ck ey
Ġsquirrel s
Ġho ckey
Ġig loo
Ġs ir
ĠTr ue
Ġgr in
ch ie
Ġanch or
Ġskelet on
ro sc
Ġsniff ed
Ġgro cer
Ġsuper hero
Ġarg ue
Ġnap kin
Ġgold en
u es
Ġhang ing
Ġtra ve
Ġmusic ian
med i
Ġsk irt
rosc ope
Ġst aff
Ġtem ple
Ġun if
Ġag ree
Ġsqu e
Ġbu ry
medi ately
Ġthe ater
Ġdis cu
Ġunif orm
Ġeat en
Ġsl ipper
Ġwelc omed
Ġse as
Ġshould er
Ġz ipper
Ġquiet ly
Ġmeet ing
ss ible
Ġl ime
Ġinv est
ist ol
Ġmic roscope
s ing
Ġpin ch
ch air
Ġfl apped
Ġslipper y
Ġaccept ed
Ġf ought
Ġinvest ig
er c
Ġp istol
Ġdoor s
Ġmin er
ree k
Ġrad ish
Ġpl astic
Ġthrow ing
Ġcall s
Ġboun cing
t ress
Ġmat tress
m en
Ġsur render
Ġco b
ac es
h ouse
Ġpe ar
Ġc reek
Ġv room
Ġkay ak
t ain
Ġmo ves
Ġstick y
Q u
Ġlaw y
Ġno vel
W ait
ll ie
all ey
Ġcu b
Ġavoc ado
Ġc ared
Ġsu ff
Ġfreez er
Ġlot ion
au d
c ase
is on
l er
t e
ĠF irst
w as
Ġfa uc
A nd
ĠT ina
Ġarm chair
Ġwr iting
in ked
Ġre ef
Ġmake up
Ġmyster y
Ġv alley
w eb
Ġt ug
Ġinvestig ate
Ġnew s
Ġsail ing
Ġcher ries
Ġreg ret
Ġcri b
was her
im ney
Ġex erc
Ġoy ster
Ġfauc et
Ġag re
Ġsplas hing
Ġtick et
Ġcollect ed
Ġwor th
Ġch imney
Ġto il
Ġpresent s
Ġdish washer
Ġmagaz ine
Ġhapp ens
Ġspray ed
Ġwa gs
ÅĵIt Ã¢
Ġpre vent
Ġcob web
Ġqu ack
Ġve il
Ġcast les
Ġent ered
Ġte ar
Ġshr ugged
Ġh ar
Ġpass port
Ġappl aud
Ġche ss
Ġsepar ate
Ġscold ed
Thank s
Ġwe igh
Ġtoil et
Ġal arm
i ves
ĠS ee
Ġblanket s
Ġr ake
Ġign ored
Ġt ucked
Ġlawy er
Ġcho ice
i ved
Ġhop es
Ġatt ach
Ġcoat s
s it
Ġcand les
Ġfollow s
Ġkiss es
Ġapp ro
Ġclass room
r ing
Ġpudd les
Ġeas ily
Ġap art
et y
Ġdisapp ear
ĠFr eddy
Ġbee f
Ġchair s
Ġburn ed
Ġb other
ĠS ad
Ġlet ting
Ġstra ight
eter in
eterin arian
Ġy ield
Ġwar d
Ġdress ed
Ġcan e
Ġtrust ed
ĠM e
Ġlangu age
Ġs izes
Ġv eterinarian
Ġra z
Ġtele ph
ra ged
Ġcar ing
Ġplan es
Ġward robe
Ġjewel ry
at ched
Ġbl inked
id ay
Ġshow er
Ġr ise
Ġmiss ile
Ġkeep ing
Ġla wn
Ġre qu
Ġst able
Ġcabin et
Ġcross ed
Ġo ak
Ġb le
ĠHow ever
Ġbooks he
v ision
Ġst ro
Ġteleph one
Ġnewspap er
m end
Ġcl aws
Ġroom s
Ġwhis per
Ġs igh
Ġpuzz les
Ġa ut
Ġtr ade
Ġinc re
iv al
Ġc ell
Ġtorn ado
Ġscr atch
un a
ang es
Ġbook case
Ġin f
amp oo
ĠM illy
Ġblueber ries
Ġsn ap
Ġamaz ement
Ġper fu
ct ion
om mend
Ġsqu eezed
Ġbookshe lf
Ġrec ommend
Ġop era
Ġsub way
Ġp ra
ĠRu by
Ġg ym
Ġdel ay
Ġgr ill
ĠHe lp
Ġraz or
Ġbl ouse
Ġrequ est
Ġcraw ling
Ġp ur
Ġpo ked
âĤ¬ .
Ġtele vision
Ġb ill
Ġho l
gg y
Ġfollow ing
om es
ict ion
Ġsh ampoo
Ġf ile
Ġli cks
Ġsp ear
Ġsqu eeze
Ġhol iday
B ecause
Ġexper ience
Ġl umber
Ġimpro ve
ĠI s
Ġmin t
Ġperfu me
Ġser ve
Ġde mand
Ġste am
Ġcl iff
Ġring ing
Ġcr ow
fort unately
iction ary
a h
bb ie
Ġribb on
Ġim mediately
Ġhelp er
ĠF o
Ġmuff in
Ġf est
Ġgrow led
Ġis n
Ġbe gged
Ġd ictionary
Ġmat ches
Ġshr ink
Ġwas te
Ġbl ood
Ġbird c
Ġpr op
Ġide as
Ġwarm th
ĠSnow y
i b
Ġmust ache
Ġsn eeze
ore s
Ġinv ite
h ic
ĠPe ople
Ġg ear
Ġbirdc age
Ġve hic
Ġfu el
up s
Ġal right
ale nd
ĠL uck
Ġrabbit s
as is
Ġc alend
Ġwe ep
Ġy ucky
Ġflut ter
Ġinst r
ĠLuck ily
Ġfall en
Ġmar ried
Ġber ry
l ier
Ġra il
Ġr ow
ĠE ach
Ġpast ry
Ġref re
uc ture
D id
Ġworm s
Ġstr ucture
Ġlaug ht
Ġsurpr ises
Ġbrave ly
Ġbel ow
Ġcalend ar
Ġo asis
Ġwander ed
Ġw igg
Ġkne el
is ing
Ġd ire
Ġunderstand ing
Ġhurt ing
Ġlaught er
omed ay
Ġdra in
Ġp ages
Ġflo at
Ġheart s
O k
Ġent er
ĠKat ie
Ġair pl
ink y
Ġit em
om ob
ĠK ing
Ġhar b
Ġre aches
ĠL iz
Ġap ron
I s
Ġsaf ety
ĠO llie
Ġcra sh
Ġaut omob
Ġbat he
Ġbu ried
Ġj unk
Åĵ No
Ġbuck le
Ġadm ir
Ġro ot
Ġcap tain
Ġstrawber ries
Ġmy self
ache l
Ġrelax ed
Ġsandcast le
or al
Ġign ore
Ġskill s
Ġpl ates
W elcome
' ve
Ġwh ip
ĠW ho
Ġsp ade
Ġmoment s
Ġrever se
ht ray
ic ing
Ġqu iz
Ġas htray
ĠJo y
Ġfest ival
Ġbe amed
' .
Ġsn apped
r iger
ĠR achel
Ġs omeday
c akes
Ġref riger
Ġra ise
Ġrece ived
Y uck
ĠC o
Ġrefriger ator
ĠEvery day
ar i
Ġear lier
Ġto ng
Ġli c
Ġwe ap
Ġv ac
Ġteach ing
Ġma ss
Ġharb or
ĠBet sy
Ġmod el
ĠIt s
Ġspark ling
Ġspot s
ap ed
Ġinsist ed
Ġsa ving
Ġvan ished
Ġso cks
Ġbump ed
ĠBu zz
Ġth umb
an na
Ġd ried
Ġsupp ly
iss ion
ĠSte ve
Ġblack board
ig ail
Ġprep are
Ġj ail
Ġjew els
Ġspend ing
x y
Ġbal an
Ġscatter ed
Ġto es
Ġsc ooped
Ġsett led
Ġperm ission
Ġspark le
Ġkn own
ct ly
Ġbreat he
Ġbo ot
Ġyawn ed
ĠĠ Ġ
ĠP enny
Ġre s
am ber
Ġa chie
Ġdestroy ed
Ġ V
Ġbath robe
ĠAb igail
Ġte ase
Ġrem ain
Ġhard ly
Ġencou raged
Ġrepl ace
Ġwaff le
ant ly
Ġpr ide
Ġlemon ade
Ġd are
Ġha nger
ĠH ave
Ġsit s
Ġpull ing
Ġdecor ations
st ers
op s
Ġrem ove
Ġcudd led
Ġh ate
Ġd aisy
Ġlic ense
av id
u ch
Ġbean s
ĠP oppy
Ġs imp
Ġp ort
Ġresp ons
Ġpra ised
re at
Ġchirp ing
Ġhit s
ent s
Ġe qu
as p
T o
Ġfast est
Ġsuff er
xt ure
Ġbuzz ing
Ġpatient ly
Ġdress es
Ġm ention
Ġble ed
s ity
Ġr hy
Ġautomob ile
n ies
Ġw iz
Ġappreci ate
Ġpo ppy
Ġdest ination
Ġtall er
Ġm all
o sed
Ġh omes
Ġn ation
i um
Ġd igg
Ġfl av
Ġclimb s
Ġgu y
Ġwas hing
Ġp alm
Ġgl o
Ġsh ot
Ġlab el
Ġbelie ved
Ġdigg ing
Ġappro ached
Ġhe sit
f ied
Ġn one
Ġto re
M mm
Ġdeep er
Ġw ine
Ġinf ant
u de
Ġrest ore
Ġsc ore
Ġher s
Ġm itten
Ġch amber
Ġsaus age
r m
Ġstrugg ling
Ġhe at
Ġdiffere n
Ġtong ue
Ġhill s
Ġhur ric
Ġpun ish
Ġpillow s
ĠFr ank
Ġbill board
Ġsn eezed
ĠD avid
Ġsp ort
Ġwiz ard
Ġup stairs
Ġthr illed
Ġprov ide
Ġbra in
Ġaw e
Ġdiscu ss
ĠM at
Ġpan ic
Ġwar ning
Ġtwist ed
Ġgl owed
Ġuniver se
Ġfire f
Ġthe rm
Ġvac ation
Ġwor se
Ġcr unch
Jim my
Ġpo ison
Ġshe d
Ġsol ved
Ġpart s
os ity
be y
Ġe vent
Ġset ting
all en
Ġto ur
M ummy
Ġrem ained
ĠSp ike
Ġairpl ane
Ġhurric ane
Ġtherm omet
Ġplay s
Ġexam ine
Ġspark les
Ġshoot ing
Ġinv it
Ġneighbor hood
Ġst y
Ġch ores
Ġor anges
Ġflo ated
Ġran ch
Ġch allen
th m
Ġweek s
Ġle ak
Ġuniver sity
g ing
s hing
Ġpaint s
Ġthermomet er
Ġbit es
Ġrepe at
Ġb ang
ad ium
Ġflo ating
Ġfix ing
Ġmeas ured
Ġst adium
Ġgrin ned
! '
The se
d o
Ġd uring
!" ,
Ġsurround ed
Ġsupp osed
asp oon
Ġcon f
Ġrhy thm
Ġmass age
Ġbr ings
Ġp aused
Ġcher ry
ĠC at
Ġgif ts
Ġf ut
Ġsprink les
Ġfa sc
S p
Ġfut ure
Ġmem ory
ĠUn fortunately
ÅĵI Ã¢
Ġte aspoon
Ġgre y
r ise
Ġcollect ion
Ġsign s
Ġmarble s
bble s
Ġj azz
Ġstom ach
W ould
em ember
ĠG ood
Ġg ust
Ġwis dom
Ġact ually
Ġfl ood
Ġdisco very
Ġincl ud
Ġse w
Ġvehic le
Ġt ide
Ġl ily
Ġgirl s
Ġsun rise
is hing
ĠZ oe
v et
ÅĵThat Ã¢
Ġme owed
an ny
l s
Ġelephant s
Ġur ge
Ġexerc ise
Ġmail man
Ġl ugg
um ble
Ġdec ision
Ġru sh
Ġchew ed
er o
Ġweap on
Ġstr ang
Ġobser ve
Ġlugg age
Ġun ite
Ġcartoon s
Ġso re
Ġfasc in
Ġtomato es
i ers
Ġsc ur
ĠCh r
Ġpo ssible
ĠR a
Ġto e
all ow
c les
Ġsun light
it ies
Ġfold ed
Ġcur led
Ġchir ped
Ġr ust
Ġmelt ed
Ġsp ill
Ġc akes
ĠB eth
u ing
Ġs ip
Ġcollect ing
Ġ x
Ġ Qu
Ġgra pe
s on
ĠSome one
Ġminer al
S h
Ġdifferen ce
Ġproblem s
Ġb ak
Ġtrack s
Ġjo gging
ĠRe my
Ġwhere ver
Ġmountain s
ip ment
Ġb es
e ed
Re ady
Ġslid ing
ĠSp ark
Ġman age
Ġequ ipment
et ch
Ġla id
N ot
Ġli ck
Ġadmir ing
Ġwater ed
c ious
Ġsat is
Ġcont ain
Ġop er
B ob
Ġbri cks
ĠJ e
o ved
Ġtwig s
r r
Ġpattern s
Ġkind ly
Ġpet ted
ĠF ro
Ġsk ipping
Ġpotato es
Ġseat s
b ers
Ġsold iers
Ġglo ves
Ġsp aces
z ag
joy ed
Ġrece ive
Ġkeep er
Ġco pper
Ġe mer
Ġsl ice
ĠL una
Ġlet s
Ġg ain
ĠSu nd
Ġcontin ue
Ġord ered
Ġstrang ers
w alk
ĠJ an
Ġover joyed
ĠSund ay
Ġwat ches
Ġgot ten
Ġpig s
om as
Ġz ipped
ĠJ am
m other
Ġland s
Ġwhist ling
Ġg az
Ġbes ide
Åĵ Thank
Ġsaf ari
Ġbe g
Ġpray ed
W ill
Ġpe ered
Ġnet work
bb led
Ġsp it
Ġe ff
Ġinvit ation
Ġmarch ing
ĠM oral
Ġour s
as es
Ġgl itter
Ġwood en
ĠN ot
Ġearth qu
Ġside walk
Ġeag le
ig zag
Ġdog gy
Ġdrink s
Ġgrocer y
ir p
Ġwe ight
Ġn avy
Ġacorn s
Ġatt ached
A l
Ġra ised
Ġdisag reed
Ġwere n
Y um
ĠLet Ã¢
l oe
Ġbe at
Ġcomp any
ĠJul ie
Ġm ister
Ġburn ing
f y
Ġon wards
he st
" ,
Ġw re
Ġhapp iest
ĠSu zy
Ġra cing
Ġbr id
ĠS unny
Ġcra shed
Ġspoon s
Ġf ed
Ġcrunch y
ĠSh aring
ĠUn cle
Ġpeanut s
Ġwhist led
Ġpri ce
ĠS ure
J ill
se ek
ĠTh omas
Ġme ow
Ġhur ried
Ġhis t
Ġoff icer
ĠK ay
O uch
Ġbri ck
ĠCh loe
Ġacc om
Ġtre mb
Ġrefre shed
Ġp ies
Ġrem em
Ġfl ap
Ġwork s
Ġcle aring
n ie
Ġoper ation
Ġprep ared
Ġbow ed
Ġscr atched
Ġremem bers
Ġhist ory
Ġex a
ad ed
Ġlip s
am b
Ġfirework s
Ġprun e
Åĵ We
Re ally
Ġesc aped
Ġdinosaur s
Ġmen u
Ġbrid ges
Ġtal ent
Ġplant ed
ĠN ut
Ġbuild ings
ĠA d
Ġreve aled
Ġeas ier
Ġby e
Ġturn ing
Ġcom fy
Ġscream s
Ġol ive
Ġbra nd
Ġhat ed
ĠP r
Ġc hat
Ġsell ing
Ġsnow ball
d ie
Ġrecogn ized
Ġwar n
Ġaccom pl
ĠA m
Ġcre pt
Ġpre cious
Ġland sc
ĠSad ly
Ġstri p
Ġmu ddy
ĠJo sh
Ġpad d
Ġw id
ĠB y
Ġdr inking
Ġs ings
xy gen
Ġpu pp
Ġbed s
ĠA n
ĠCh irp
ect ure
Ġsett le
Ġearthqu ake
Ġsimp le
c c
Ġeff ort
Ġremind er
Ġspaces hip
Ġmeas uring
Ġsl ip
Ġper ched
Ġl ecture
Ġb ones
Ġser ved
Ġapp ear
Ġwonder s
Ġshadow s
Ġwait s
Ġvo ices
Åĵ Can
Ġcudd le
Ġevery day
Ġped al
B illy
Ġp itch
Ġcomfort ed
Ġagre ement
Ġrespons ible
Ġcirc us
Ġrain ed
Ġve l
Ġo bey
ff ic
Ġv ict
Ġt ip
Ġso ared
Ġall ow
Ġany time
Ġtra pped
Ġc al
Ġwhat ever
Ġz igzag
Ġtast es
ĠJam ie
Ġapolog ize
Ġlandsc ape
Ġcut ting
Ġsucceed ed
Ġsho pping
Ġran g
Ġpet s
Ġsecret s
ĠC la
Ġvill ag
Ġvel vet
Ġprin ter
Ġdisturb ed
ĠP ip
Ġwa ist
Ġitem s
Ġswim s
Ġb un
ĠO l
Ġtra ffic
Ġpract icing
Ġste el
Ġbring ing
Ġoat s
Ġexa ctly
Ġsister s
Ġrest ed
Ġvisit ing
Ġact iv
Ġcostum es
anna h
Ġsc oop
Ġansw ers
ĠL u
iz ing
Ġol ives
Dad dy
i en
m ble
ĠAnn e
r s
Ġbrus hed
Ġsty le
Ġmouth s
Ġso ak
Ġcuri osity
is hes
ĠF or
Ġout do
n eath
Ġbre aking
Ġfa shion
Ġre le
ĠN ina
Ġown ed
Ġlady b
Ġencou rage
Åĵ Don
ĠK e
Ġkn elt
Ġfascin ated
ĠB ig
Ġle ather
m are
Ġim age
igg y
Ġvillag ers
om ing
ĠR ob
Ġnail s
Ġben eath
ic orn
Ġunder ground
Ġwaff les
ĠCo co
Ġun icorn
Ġsad ness
ĠThe se
ent y
ĠL ucky
ĠIt Ã¢
ĠFl oppy
ter day
Ġunl ocked
ind a
Ġd ied
Ġrecogn ize
Ġdown stairs
Ġcre ation
Ġcatch ing
Ġgrand mother
Ġo xygen
ist en
Ġmon sters
Ġtre mble
Ġche f
Ġeat s
ĠM ad
ĠNut ty
Ġpup il
i k
Sp ot
Ġwant ing
Ġnight mare
Ġjo gged
Ġc ape
ĠG r
Ġstri pes
Ġdoctor s
ĠRa bbit
ĠCla ire
Ġso aring
Ġblueber ry
le y
ĠSomet hing
Ġstr uggled
Ġlem ons
ĠO w
Ġwonder ing
Ġbleed ing
Ġpun ished
Ġg ained
S he
Ġfam il
Ġf etch
Ġexam ined
Ġn icer
ĠH op
Ġguess ed
Ġplan ned
Ġdra g
Ġc aut
Ġsit u
Ġmach ines
Ġmiss ion
ĠT iny
Ġsteal ing
Ġarg ued
Ġare a
Ġcomp le
Ġpil es
Ġs i
Ġherb s
Ġfree ze
Ġintrod uc
l en
Ġstir ring
ĠL ul
G ra
Ġr ipped
Ġs ix
Ġchallen ge
Ġt ugged
ĠBet ty
Ġstud ied
Ġfire men
ĠT illy
Ġbe nd
Ġb are
Ġwa gging
Ġzoom ing
Ġaccident s
Ġvict ory
Ġsatis fied
L ittle
ĠC arl
Ġwre ck
Ġinstr uct
Ġprop erly
Ġkey s
Ġwin ning
Ġshiver ing
loo king
Ġbun nies
Ġincre ase
ag ull
d ing
Ġgather ing
Ġtun e
O r
Ġm ice
Ġex it
Ġfiref ight
Ġoutdo ors
Ġwin ner
Ġtwirl ing
Ġsl apped
Ġload ed
Ġte asing
Ġpe el
Ġdecor ated
x u
Ġdes er
Ġsupp lies
Ġyell ing
Ġun e
Ġneighbour hood
Ġse agull
Ġunder neath
Ġperm it
Ġsight s
Ġtick ets
Ġan n
ĠChirp y
Ġpan cakes
ĠH annah
ĠJess ie
o h
Ġbeg in
Ġbur row
Ġpe arl
Ġrid es
Ġsi ren
Ġpe aches
ĠLul u
Ġmix ing
ĠS l
ĠC ar
Ġrele ased
Ġdraw s
Ġwe ighed
ak y
Ġsne aked
ĠMat t
ic a
ĠA unt
u xu
ind y
. '
Ġconf ident
Ġreal ize
Ġinstruct ions
ĠBu bbles
a les
Ġspid ers
ĠSus an
Ġintrod uce
Ġl uxu
Ġd am
Ġmuff ins
Ġcont ro
Ġlet Ã¢
Ġpin ched
Ġbu dge
Ġsol ut
ĠAd am
Ġz ero
Ġcompetit ion
ĠA bby
Ġprin ted
Ġstudy ing
Ġlo ving
ĠD id
ĠO ut
Ġbeh a
Ġin ch
Ġpocket s
Ġba ked
Ġstr uck
Åĵ Look
Ġshould ers
Ġb unch
Ġop in
ĠL ike
Ġl ines
Ġfro sting
Ġre lease
Ġdec ides
Good bye
Ġgigg ling
Ha ppy
Ġbro om
Ġour selves
Ġwe b
Ġpast el
Ġstamp s
Ġtrave ll
Ġcon es
n es
Ġemer gen
Åĵ Hello
Ġst air
Ġst itch
bb ing
ĠSt op
Ġprun es
Ġladyb ug
Ġs ides
en a
o ed
Ġgr ant
Ġscur ried
Ġstr ings
âĤ¬âĢ Ŀ
Ġt im
a is
Ġmark s
Ġru ler
Ġpe ars
g ers
ed nes
ednes day
Ġrepe ated
Ġdri ft
E x
Ġkeep s
Ġag o
Ġclap s
Ġpo king
ant a
Åĵ This
Y e
ay s
Ġcrow d
Ġru in
ĠB ir
Ġprin ts
k ins
Ġbrus hes
Ġkick ing
Ġstretch ing
Ġdemand ed
Ġst ing
Ġneighb ors
ĠW ednesday
Ġmention ed
ĠM art
ir a
Ġm ast
ow ers
Ġtouch ing
Ġto night
Ġprotect ed
Ġwr ites
Ġsweet ies
ĠL ou
x p
Ġgood night
ĠZ oom
ues day
Ġyou th
Ġbucket s
Ġribb ons
v a
j am
uct antly
ti est
b ies
as hed
Ġpret tiest
o dy
ĠS anta
Ġforg i
Ġv ent
Ġpar ked
ick y
Ġpro ject
Ġcamp ing
Ġso aked
z ie
Ġbare ly
Ġhorn s
Ġboun cy
ĠL inda
ick ed
ĠB oth
ri age
ĠJ u
h ins
Ġdiscover ing
ĠT uesday
ÅĵDon Ã¢
Ġe ast
Ġtwink ling
Ġres ult
Ġexp ect
Ġsurf ace
Ġsor ting
Ġd ent
Ġsto le
Åĵ Why
Ġw est
Ġintere st
A h
Ġv owed
Ġte xture
ĠMom o
Ġgaz ed
Ġpur red
Ġste ep
Ġguy s
ĠAfter wards
Ġba bies
Ġsh ock
Ġbe ard
Ġmov ies
Ġcaut ious
xp ected
ĠKay la
z en
ĠJe ff
Ġpow ers
Ġapplaud ed
Ġsil ence
ĠH oppy
th ank
Ġpebble s
Ġ 1
Ġent ire
Ġloo se
Ġcontro l
Ġtick le
Ġgun s
Ġur ged
ĠLu ke
Ġdrag ons
Ġact ed
Ġdra gged
Ġune xpected
Ġluxu ry
ed ding
Ġcat ches
U h
as on
er n
Ġm ittens
Ġmus cles
Ġchew ing
Ġrock ing
Ġfl at
Ġfa b
Ġdolp hins
Ġcomple ted
Ġfab ric
Ġcurtain s
Ġemergen cy
Ġbl ink
Ġintroduc ed
un e
Ġdire ction
Ġch ips
Ġhon k
Ġseas on
Ġpat ience
Ġstri ke
Ġimport ance
ĠL izzy
eez ing
Ġrel uctantly
Ġb ank
Ġe ight
Ġsl im
ust ed
Ġfig ured
Ġhig hest
Ġshiver ed
ĠH a
Ġfro zen
Ġlibr arian
Ġsolut ion
Ġcont est
Ġrock ed
Ġachie ve
Ġscream ing
Ġch ases
Ġrepl ac
Ġpour ing
ĠJen na
Ġshel ves
Ġw ound
Ġtheir s
Ġcr umb
Ġrubb ing
es ome
Ġt i
Ġhug ging
Ġdri ves
Ġst aring
Ġsor ted
R emember
Ġsn ail
Ġro aring
Åĵ Oh
led ge
Ġincl ude
Ġplan ets
S omet
Ġm ater
Ġmater i
Ġsaf er
Ġpolice man
f it
Ġcur ly
Ġsitu ation
Ġfood s
Ġgre et
Ġaw esome
Ġcan Ã¢
Ġus ual
v in
Ġsigh s
Ġknow ledge
it ely
ir ts
Ġ Yes
Ġpass ing
Ġsh ined
Ġflag s
Ġex ha
Ġd ared
Ġbalan cing
Ġpl enty
ĠSu zie
Ġyou Ã¢
Ġtr u
Ġmat ched
Ġtow els
Ġli ed
ul ts
Ġhome work
Ġout fit
th ough
Ġslim y
Ġbra very
ĠDo lly
Ġpretend s
Ġtru ly
ĠJ ac
av i
Ġzoo keeper
Ġcheer ing
Ġhe el
Ġw edding
Ġgo als
Ġrainbow s
jam as
Ġsaus ages
J ust
ĠC indy
cu se
Ġth reat
To day
Ġaccompl ish
Ġpat ted
Ġc aused
Ġpaint ings
Ġreach ing
ĠSl ow
Ġrest ing
ĠAl ways
ĠP inky
Ġrad ishes
Ġarg uing
ĠQu ack
Ġpack ing
Ex cuse
.. .
ber t
Ġgrow ling
Ġspray ing
Ġbloom ing
Ġwait er
Ġexha usted
i ar
Ġg e
Ġstrugg le
izz ie
Ġsweet s
Ġstick ing
Ġp out
en ces
Ġmark ers
Ġmot ion
Ġwork er
Ġkneel ed
Ġpadd led
Ġgrow l
Ġsl ed
im mer
Ġsu itc
Ġman e
W hen
Ġs way
Ġstart led
ĠE x
Ġsn ugg
Ġcub es
Ġresc ued
Ġb oo
Ġsp ike
Ġwr itten
Ġdust y
Ġtrave led
Ġinv iting
he llo
ĠJ on
Ġexp ected
ĠJac ob
Ġbe ad
Ġsl ap
Ġcut s
Ġc ent
Ġbott les
Ġmatch ing
ĠT ara
Ġgu est
Ġsing er
Ġflav or
ĠM on
Ġreve al
Ġlearn s
Ġhe av
le e
Ġprincess es
Ġcreat ing
Ġregret ted
Ġf art
Ġbloom ed
Ye ah
Ġtremb ling
Ġreplac ed
Ġf ir
Ġarri ve
Ġmar riage
ĠM ick
ĠJul ia
p ite
y ou
Ġrecord ed
ais ies
ĠL izzie
Ġpencil s
Ġinclud ed
Ġla p
Ġch uck
Ġobser ved
Ġdisag ree
n joy
ĠL ena
ĠJess ica
Ġd aisies
Ġpot s
Ġactiv ities
Ġpray er
Ġfir m
Ġtim er
ĠP ipp
Ġpa jamas
Ġroad s
ĠM il
Ġwire s
C h
Ġrem oved
Ġdark ness
Ġwor ries
Ġus es
Ġvent ured
Ġcountry side
Ġorgan izing
Ġst are
Ġcomplet ely
Ġwork ers
Ġopen ing
Ġfair ies
Ġrelie f
Ġwas ted
ang led
Ġle ap
Ġrep ly
Ġown ers
ĠM o
Ġstore keeper
Ġc ott
Ġbe lly
ver s
Ġran ger
Ġfa ult
ĠJohn son
ĠFo x
Ġpart ic
Ġun f
Ġquack ed
Ġpol ishing
Ġlead er
Ġst ern
or a
id ing
ĠF riend
Ġbec oming
Ġfl ames
Ġl amb
Ġk ites
ct ions
Ġagre es
ĠSlow ly
Ġpoem s
Ġpengu ins
Ġwasn Ã¢
ĠM el
Ġfa ced
ĠChr ist
Somet imes
Ġevery body
Ġsees aw
Ġ Y
Ġfold ing
Ġmelt ing
Ġsc ales
Ġsque aled
Ġth ro
Ġheal ed
Ġvan ish
Ġhelm ets
ĠJ ones
Ġw ink
Ġlo gs
or ds
Ġcrab s
Ġthro at
he ll
ĠLe ave
Ġus ually
Ġopin ion
Ġcrumb s
Ġtra ctor
R o
Ġr ipe
Ġd ipped
op es
l ings
ĠFo llow
Ġsc ra
ĠTw o
Ġseem s
Ġa st
Ġlollipop s
Ġtwink le
Ġc ash
Ġr isk
Ġteac hes
ĠB ye
Ġcom m
Ġgrocer ies
ĠM ira
Ġd en
Ġknight s
i very
as m
Ġprov ided
Ġdent ist
Ġpol ished
Ġval ued
Ġstay ing
id s
ell e
Ġpee king
a ze
Ġsn akes
Ġscr u
Ġinterest ed
ĠW atch
Ġblow s
Ġrub s
Ġcautious ly
ĠP ut
Ġcrack ed
Ġr ings
Ġun ited
ara way
Ġf araway
Ġdes ert
ĠS orry
Ġwin ked
Ġmiss es
Ġprotect ing
Ġf reed
Ġmar ked
ĠB ird
Ġyou nger
Ġwr ist
Ġclos es
Ġwander ing
m as
Ġbalan ced
Ġchuck led
ĠM any
Ġfu zzy
ĠL arry
Ġfore head
Ġlisten s
Ġpast ries
Ġsing le
Ġsign ed
g o
ĠN an
Ġro bb
Ġbead s
Ġpartic ular
Ġro ses
b oo
ĠJ une
Ġbo om
ĠDo ggy
Ġact ions
ĠL au
Ġdire ctions
Ġhow ever
Åĵ Mommy
Ġcop y
ig i
Ġc ough
Ġsplas hes
r ance
Ġcrack ers
ĠB ess
Ġbak er
Ġnap s
Ġc ous
ĠSoph ia
h ile
pp ers
Ġro ots
Ġfill ing
ĠWith out
Ġyes terday
Ġsnowball s
ĠPr in
ÅĵWhat Ã¢
Ġrest ored
ĠE l
Ġflutter ed
Ġdel ivery
Ġroll s
ĠHa ppy
ab el
ar ling
Ġst em
Ġcon n
Ġsw ooped
d ies
Ġg aze
Ġsuitc ase
Ġwigg led
Ġti pt
ĠA bbie
Ġsome body
Ġswe at
ĠChrist mas
B ad
Ġb umpy
Ġitch y
bb ly
Ġref le
Ġsw irl
Ġsl am
Ë ľ
Ġphot os
âĤ¬ Ëľ
ĠEvery body
ol ine
Ġstro ll
T hen
Ġtw in
Ġpast els
Ġcelebr ation
Ġtrip s
Ġped als
ĠG igi
Ġback ed
Ġtall est
ĠKe ep
Ġaw ake
ĠNot hing
Ġfro ze
Ġc ause
Ġcash ier
dd led
ĠMick ey
Ġne ct
Ġrem ote
Ġl ined
Ġdark er
Ġdeterm ination
Ġnect ar
il ity
ĠLau ra
Ġspe aking
Ġsec ure
or med
ĠSpark y
Ġkne es
Ġw ow
Ġp iggy
an es
Ġcomplain ing
ĠS que
Ġb ars
ĠBe ing
Ġrecord ing
Ġsneak y
Ġsil ent
Ġvide os
ĠP andy
R un
oy s
Ġheal th
Ġaccomplish ment
Ġli qu
Ġple asure
Ġact ing
?" ,
ĠEx c
Ġent rance
Ġt y
at ches
Ġwe ars
Ġrock ets
Ġdeliver ed
Ġmil es
Ġg lee
Ġin sp
Ġh i
es mer
Ġcolour ed
ĠN ick
Ġo pp
ĠE njoy
Ġtri cked
Ġm esmer
ĠP am
se qu
bo at
ĠEm my
Ġcheek s
y ond
Ġa ff
Ġbe yond
ĠJ azz
Ġafter wards
Ġno on
Ġs ib
Ġcon sequ
Ġhis sed
Ġstay s
Ġinsect s
Ġglass es
k y
Ġbowl s
um m
Ġjo king
ĠExc ited
Ġso bbed
Ġtick led
Ġfart her
Ġcolor ed
Ġbur st
aff es
ĠJ ay
Ġsc aring
ĠD ays
Ġsto len
ĠSt ella
F ine
Ġatt ack
ĠBu zzy
Ġs ense
Ġsandcast les
Ġtrick y
Gra ndma
Ġru le
Ġmask s
Ġcover s
ik i
ĠM a
Ġde al
Ġgir affes
Ġinstr um
Åĵ Come
Ġcal med
Ġhand ful
? '
ar ter
Ġtalent ed
ĠS qu
Ġp ause
Ġt angled
Ġind eed
are n
Ġadd ing
Ġsm arter
Ġscar ves
Ġcand ies
th s
Ġl ung
Ġsh irts
Ġachie ved
Ġcho ices
Ġconsequ ences
Ġliqu id
o ssible
Ġyour selves
ĠPrin cess
ri ous
w eet
Ġbeh avi
Ġlead ing
Ġbump s
Ġread s
Ġbatter ies
ig ers
ch oo
Ġhesit ated
Ġimp ossible
Ġbad ge
ep t
Ġm i
ĠE ls
Ġpad dle
Ġmi xture
ĠRo bert
ĠG et
ĠMay a
Ġexplore rs
Ġd arling
il ed
Ġmagn ets
ou ch
Ġclown s
Ġkick s
Ġrecommend ed
Sh h
ĠChr is
ĠSn ugg
Ġweep ing
Ġgrace fully
ĠMil o
n ers
Ġexper ien
ĠT ess
ĠB ee
Ġseas hell
Ġseek er
Ġbak ery
Ġfirefight ers
ĠMike y
ang ing
ĠOl ive
ĠZ ip
Ġsal ty
v est
br ush
Ġimpro ved
ĠR y
Ġsw ept
r ig
at ul
co at
Ġdeser ve
Ġstro ked
ĠRo bby
Ġfl apping
Ġwip es
Ġbegin ning
Ġcompl ained
Ġmushroom s
W he
ur ry
Th ose
ĠP l
Ġhid er
ob ody
itc hes
ĠP o
Ġste er
Ġknock s
Ġc ust
Ġth orn
Ġse ven
Ġcan s
Ġte ased
ĠSnugg les
Ġobject s
Ġpart ies
Åĵ Do
ĠMart ha
Ġtravell ed
Ġth ird
ĠC u
Ġhe aring
ĠGr anny
Ġbase ment
Ġt igers
Ġcup cakes
il es
Ġhor iz
Ġcl ick
ÅĵYou Ã¢
Ġfe ver
ĠD r
Ġsn uck
Ġhead ing
t le
Ġsecond s
Ġd ots
ĠR ock
Ġrain coat
ĠAb i
Ġsib lings
Ġhoriz on
el ia
n o
Ġsmile y
Ġperform ance
Ġcust om
Ġart ist
Ġhall way
Ġbe am
Ġmark er
Ġsn atched
Ġlight er
ĠThank s
Ġyell s
Ġjack ets
Ġdrum s
Ġflutter ing
ind r
Åĵ Hi
ĠRy an
st ep
ĠS c
p are
an s
Ġru ining
Ġgem s
N ext
Ġbed time
ig ning
ĠW ater
Ġwouldn Ã¢
Ġra indr
Ġwe e
Ġne ither
ĠC he
Ġcon cer
Ġbuy ing
ĠAl ong
rig ued
Ġpupp ies
Ġlet t
Ġpay ing
Ġscru bbed
Ġcelebr ating
Ġfamil ies
Ġdoll house
Ġann oy
Åĵ Wow
Ġcream y
Ġlett uce
b and
Ġam ong
umb ling
Ġpeace fully
Ġriver s
Ġscr atches
Ġwra pping
ri ver
Ġwid ened
Ġdrift ed
Ġr umble
Ġtask s
at ur
iv ity
ad es
Ġtree house
Ġhid es
Ġw ins
ĠFin n
Ġre pa
Ġbeha ved
c ers
Ġrust y
al ph
Ġplay ers
Ġwon Ã¢
Ġl un
ĠK aren
u zz
Ġcudd ly
immer ing
a el
f all
Ġun s
Ġfa ct
oun ce
Ġarrow s
Ġreward ed
Ġwill ing
Ġl ower
ĠJack y
L ucy
Ġneed les
Ġsour ce
Ġcreat ivity
Ġshr inking
ĠRo ver
Ġc or
Ġlo sing
Ġtem per
Ġe ch
ĠM abel
Ġrepa ired
Ġpass en
Ġfe ars
ie ce
Ġgrand pare
Ġinclud ing
ĠB inky
Ġch oo
Ġtipt oed
it ched
Ġcre ations
Ġta pped
ĠGood bye
Ġgrass y
Ġchef s
ong r
Ġde f
ĠJan ie
ĠS im
d ed
L e
Ġminer als
Ġsepar ated
Ġsprink led
j o
Ġr ising
Ġimag ining
Ġgrant ed
ich ael
Ġch op
Ġa ud
Ġg ross
Ġtem pt
Ġare n
ĠD uring
ĠRo bbie
ĠK iki
Ġswims uit
ongr atul
G reat
Ġt iss
ĠR emember
Ġpan s
Ġl imes
ĠSad ie
c us
ho g
Ġstom ped
Ġscrew d
Ġc oup
Ġgra bbing
ĠN obody
Ġpout ed
Ġback wards
Ġsp ong
it ude
Ġdecor ating
Åĵ My
Ġdam age
ish y
Ġhesit ant
Ġe arn
Ġprin ting
Ġpe ppers
Ġst ung
H ave
Ġsquare s
Ġunpack ed
ment s
c l
Ġtr amp
T ime
nt il
Ġslow er
Ġcow b
Ġdi ving
Ġplan ning
Ġbel oved
Ġon ions
p r
Ġmateri als
ĠJu dy
Ġheav ier
Ġ Q
Ġch ip
Ġgrow ls
Ġraindr ops
ĠC ra
Ġwr ink
Ġm er
ĠU ntil
ĠMar ie
Ġpoin ty
ĠSque aky
Ġsnow men
ĠBlue y
c ope
Ġsurround ings
Ġprom ises
ĠFl op
Ġavo id
Ġscrewd river
ĠS ince
Ġrec ipe
Ġaud ience
Ġsail boat
Ġcous in
Me ow
Ġrust ling
Ġforgi ven
Ġneighb ours
Y ummy
Ġblock ing
Ġh us
Ġcent er
ke nd
ĠM ichael
Ġsl ices
Ġgo bbled
Ġwip ing
Sam my
Ġwee kend
Ġtemper ature
ed s
Ġto uc
Ġhedge hog
Ġtramp oline
ĠE arth
ue en
Ġre fu
Ġar r
Ġhelp ers
Ġwo bbled
ab ly
Ġr ip
Ġwind y
y es
Ġcoup le
Ġst ool
Ġdiscu ssed
st y
Ġdesign ed
Ġornament s
Ġdream t
O ops
itt ed
Ġno ses
Ġcorn ers
n e
ĠMad die
ĠTo dd
ĠSim on
ch ild
Ġpe cked
Ġslam med
in t
un ched
Ġswan s
Ġaff ord
ile y
ĠG ina
Re x
E w
Ġfe ast
Ġsport s
Ġh itting
o ey
Ġag e
Ro ar
Ġstreet s
Ġwa g
Ġtiss ue
ĠF ar
Ġdad s
Ġac he
Ġas ide
ĠJack ie
cc oon
Ġra ccoon
Ġspong e
Ġst ain
Ġrequest ed
ĠB ack
Ġme als
Ġcurious ly
Ġfork s
J enny
Ġsunfl owers
Ġrefle ction
Ġsnow fl
Ġwarn ings
Ġtail s
ar row
ĠR alph
ĠZ oey
Ġdan ces
Ġpret t
Ġplan s
Ġbow s
id o
Ġvan illa
ck y
Ġshap ed
Ġfamil iar
ĠQ ueen
Ġspark s
Ġd et
ĠAl though
Ġg ri
Ġlean ing
Ġdoll ars
J ane
ĠTh ose
Ġcolor ing
Ġremember ing
Ġad ult
Ġbreat hed
Ġint rigued
Ġgreet ed
Ġsa le
Ġscrew s
Ġgrand child
it ion
Ġduck ling
Ġforget s
Ġspread ing
os en
Ġgas p
Ġch osen
ĠZ ara
Ġast ron
Ġthr own
Ġshop s
Ġprett ier
Ġtw ice
Ġpray ing
ĠH oot
Ġtunn els
ĠA sh
Ġh our
ak er
Ġpot ion
- -
Ġenthus i
Ġtouc hes
Ġastron aut
Ġsw ords
Ġenthusi asm
Ġhus band
ara c
Ġsail ors
ert ain
ĠO ur
Ġgarden er
ott en
Ġm oo
end y
Ġhop s
Ġz ipping
Ġsp ikes
Ġsuperhero es
Ġcor re
Ġre ason
Ġmagic ian
Ġwis hing
Ġd aring
Ġspoon ful
Ġgrandpare nts
ĠF u
m allow
Ġle ast
Ġm arsh
sh ions
Ġsk unk
ĠAm elia
Ġre ass
Ġch anging
ĠFriend s
Ġdo d
ĠF ido
Ġborrow ed
Ġto dd
Ġsc amp
Ġcount s
Ġp ens
Ġfl ight
Ġforget ting
Ġr otten
Al ice
Ġbo dies
Ġencou rag
Ġflav ors
Ġ1 0
Ġguest s
W oof
Ġhope ful
ent ly
Ġne are
ĠSt ar
Ġw oof
oun ced
ĠMe g
Ġsnugg le
Ġmesmer ized
Ġsend ing
f ly
Ġhero es
Ġch arac
Ġcharac ter
Ġmus cle
st ick
Ġbuzz ed
ĠS un
Ġsea w
Ġneat ly
Ġgrow s
w k
on i
Ġwrap s
ĠL isten
Ġste ady
Ġpo ss
Whe e
Ġn ibb
Ġfeed ing
ĠL i
Ġmarsh mallow
Ġhands ome
O ur
Ġco nd
Ġmin ts
ir rel
ll en
Ġdeliver ing
t he
Ġn ine
Ġo h
ant ha
Ġdi ved
bb a
Ġpol itely
Ġzebra s
ĠQu ick
Ġon ward
Ġal ien
Ġsuffer ing
Ġnap kins
Ġwarm er
ĠD e
B oo
A my
ye ars
Ġsn eezing
Ġbath s
Ġhon ked
ĠFro g
Ġpl ain
Ġde fe
Ġpl ucked
Ġcra shing
Ġmatter s
Ġembarra ss
ĠU nder
ĠW endy
Ġpo ster
ect ion
Ġthat Ã¢
me al
Ġlift s
S ally
Ġrefre shing
Åĵ Mom
Ġuns ure
Ġseaw eed
ĠBir thday
Ġlun gs
ĠSo f
Ġstud ents
Ġincre ased
Ġcre w
Ġjoin ing
Ġstand s
ĠAl i
S ome
S ue
Ġtodd ler
Ġoat meal
Ġsc en
all owed
Ġprop er
Ġprep aring
Ġsw allowed
Ġd ip
ĠD es
Ġgl ued
Ġthu d
Åĵ But
Ġexp ress
Ġfo cu
ĠFro sty
ĠL ia
Ġwhisp ers
Ġresp ond
ĠBess ie
Ġwater ing
ast er
Ġam ount
Ġd ie
Ġr opes
Ġperf ormed
Ġtoast er
ĠBa a
ĠR uth
Ġstar fish
Ġlead s
Ġtremb led
Ġpress es
Ġwo bbly
Ġtriang les
Ġha wk
Ġlesson s
ĠFar mer
Ġcu shions
Ġbit ing
Ġpost man
ĠH olly
ĠThat Ã¢
Ġge ese
w hile
Ġc au
ĠMom ma
Åĵ Well
Ġdan cers
Ġpop s
Ġpu ff
Ġtalk s
Ġsniff s
Ġresist ed
Ġscra ped
Ġfocu sed
Ġm erry
ĠL ove
Ġbu lly
Ġad ults
Ġpan icked
Ġcon fl
Ġru shing
Ġneckl aces
ĠM ouse
Ġfreed om
v ant
Ġfl as
Ġpupp et
Ġso fter
Ġsl ips
ĠP atch
Ġwa ddled
Ġfirm ly
ĠSqu irrel
Ġtr ot
ion a
ad os
Ġjoy ful
Ġfiref ly
Ġencourag ing
Ġtest ed
Ġwr igg
Ġdro pping
Åĵ Where
Ġdraw ers
Ġfrown ing
Ġtable s
on na
Ġwater fall
Ġwor n
Ġwigg le
B un
ĠDave y
Ġe v
i ppy
ĠMe an
Ġbl ast
ĠSam antha
ĠBu bba
Ġnervous ly
Ġf aded
re y
Ġlift ing
b ird
ĠOn ly
Ġscamp ered
ĠMad dy
Ġr out
Ġdriver s
Ġhuman s
le ts
Ġsp at
Ġexpl o
c ake
Ġappreci ation
Ġp ours
ĠMe gan
Ġfirefight er
Ġrobb er
Ġdra wn
Ġsque ak
Ġthought s
Ġpen nies
Ġrespect ed
ĠSt ay
Ġquarrel ing
Ġpige ons
Ġthrough out
Ġtwink led
Ġleap t
ret ty
ĠFlop sy
Ġo cc
ĠH oney
ĠR ay
Ġstack ed
ĠT una
F o
Ġdress er
ĠFu zzy
Jo e
ĠF e
Ġsc ient
Ġfit s
rr r
Ġco c
b ut
Ġmast er
Ġscient ist
e ars
ro ken
ĠMean while
E very
ĠM ina
Ġbra vest
Ġavoc ados
ĠKat y
M ary
Ġover come
Ġstrong est
Ġmon ths
us hed
Ġel f
Ġpol ar
ĠSof ia
Ġplay time
Ġsa n
Ġnot es
L isten
Ġg onna
f ire
Ġn ur
ĠT ake
Ġc ertain
ĠS pl
Ġman ag
ĠFred die
Ġwe pt
Ġn ood
ĠA ng
Ġm unch
Ġsp ins
Ġsc ored
Ġcold er
Ġech oed
b age
Ġco sy
Ġcon vers
Ġwa kes
ĠU p
Ġgar bage
Ġplay room
Ġdesign s
Ġperform ing
ĠE va
eez es
M ine
Ġpe ck
Ġpr ob
ĠF iona
Ġsan k
Ġfl own
Ġtri cycle
Ġsweet est
Ġpro ve
ĠOw l
Ġforgi ving
Ġprob ably
Ġmarshmallow s
c a
Ġg est
Ġbeha ving
c her
ry ing
im ent
Ġpump kins
Ġexplore r
Ġgu ide
o ke
p lease
Ġsqu eezing
Ġrobot s
ĠF ire
Ġto ssed
ÅĵI f
Ġbl inking
bb ling
Ġcau sing
ĠP h
Ġbell s
und red
.. ."
V ery
b roken
Ġsh own
Ġcobweb s
Åĵ Okay
urpr ise
he w
Ġsqu ishy
ĠDes pite
ĠJo jo
L ike
Ġsp ices
Ġhair d
Ġpassen gers
Ġc ongratul
Ġcra ft
Ġt ies
fu s
Ġtight er
Ġheal ing
Ġm ate
Ġang els
? !"
C l
Ġyield ed
ad ing
Ġrever sed
ild a
Ġp ound
Ġsa dd
ĠMa e
Ġa imed
Ġn apping
ĠCu rious
ĠLou ise
Ġgigg les
u pt
Ġnear ly
Ġpay s
Ġoff ic
Ġun w
Ġdist ract
Ġ 2
Ġk ittens
ĠSt ill
Ġinstrum ents
Ġwid er
ĠBir dy
Fo llow
am my
Ġre un
m ates
Ġsew ing
allow een
Ġt il
ay ing
Ġn uzz
ĠI m
Ġdoor way
Ġconfl ict
ĠB ecause
Ġcl ues
Ġappreci ated
Ġin j
Ġpaint brush
Ġbrus hing
f ound
Ġc oug
Ġsh oo
Ġgrand d
Ġact ion
L isa
W atch
Ġy um
ĠW ell
Ġe ase
Ġload ing
Ġbr u
Ġpassport s
Ġcott age
on ies
Al right
ĠH alloween
Ġpath s
Ġheart broken
Ġa is
Ġblock ed
Ġmer ma
ĠRock y
Ġlay ing
Ġsl ipping
in o
Ġswe ep
Ġres ults
Ġan ger
ĠP en
Ġbel ts
Ġrepe ating
Ġp ins
Ġfigure s
Ġbit s
Joh nny
Ġev il
Ġso aking
ant astic
ide y
Ġmail ed
Ġwith in
ast y
ĠSt art
Ġtwist y
is c
Ġtwist ing
ĠPipp in
ĠH ope
Ġsuff ered
dd ing
ĠM aisy
ĠA lly
Ġt uck
Ġconn ected
Ġpuzz led
âĤ¬ ,
Ġshovel s
Ġbus es
Ġaccompl ished
Ġdam aged
Ġnood les
Ġu nd
Ġcross ing
Ġh undred
ight ing
Ġbreat hing
Ġse ver
Ġlick ing
Ġbehavi or
Ġro ars
Ġsever al
Ġt ying
Ġshr ug
Ġrespons ib
Ġbrace lets
Ġsurf ing
Ġsurrender ed
ĠPipp a
Ġrisk s
Ġfin ishing
Ġdes pite
Ġfle as
Ġtow ard
Åĵ Please
Ġenc ount
ĠSp idey
Ġlend ing
Ġstream ers
Ġhaird ress
Ġhum ming
Ġdef in
ĠG reen
by es
l ves
Ġsupport ed
Ġsh ady
Ġoy sters
ĠT ime
Ġclean er
Ġqui eter
Ġaw oke
V room
Ġluck ily
Ġgood byes
Ġwho se
Åĵ Of
Ġign oring
Ġst itches
Ġrain y
Ġr ather
Ġtable t
is ions
Ġp onies
T ake
ĠFl o
Ġed ges
Ġcudd les
ĠJon ny
er k
Ġf antastic
ĠEl iz
un ity
ec ca
el ing
Ġsl ither
Ġcloud y
Ġfrown s
ĠDan i
S urprise
Ġhand ing
en ing
Ġfin al
Ġsnowfl akes
ĠBe cky
pp ies
Ġsp ed
ĠW ally
Ġdr own
Ġel bow
Ġhairdress er
Ġcott on
Ġthorn s
ĠW il
Ġdefin itely
Ġc oral
Ġrain s
Ġfo cus
ĠP retty
ĠAunt ie
Ġgest ure
Ġk ings
Ġsmall est
Ġsur v
Ġbat tle
I n
Ġs y
Ġremind ing
Ġwis ely
Åĵ Now
c row
Ġcorre ctly
Ġv ines
Ġdec isions
Ġdrive way
Ġs ou
ĠA ny
on nie
ĠJane y
ath y
Ġpeel ed
Ġnew found
Ġ X
Ġsque aked
w he
ĠL uc
Ġcho pped
Ġshark s
Ġpri ck
Ġstud ent
Ġsn ort
Ġwar ri
ĠK elly
Ġgrand son
Ġsymbol s
Ġwe eds
a by
ĠM other
Ġsimp ly
Ġfis hes
ĠR ain
ĠKe vin
ri e
c ent
ĠFro ggy
Ġband ages
Ġgrandd aughter
Ġwo bble
on se
Ġresp onse
Ġn asty
Ġex cept
Ġexerc ises
w e
Ġsto pping
step s
Ġt ar
Ġocc as
el ie
Ġaf ar
Ġban ged
Ġd arl
Ġn i
Ġinsp ired
Ġdarl ings
f ather
Ġtravel s
a bby
Ġt ipped
Ġdisturb ing
Ġfill s
Ġmast erp
Ġl ent
Ġfl ipped
Åĵ Hey
Ġfoot steps
ĠPe pper
w orm
Ġped aled
l ine
Ġbird house
Ġwindows ill
Ġpur r
Ġspit s
Ġtravell ing
a a
ĠW elcome
Ġship s
Ġcon vin
Ġpresent ed
Ġscare crow
ĠJ ax
so l
Ġadd ress
Ġpunish ment
Ġplant ing
Ġapolog ised
m ered
Ġchocol ates
Ġant ic
ĠExcited ly
dd ie
Ġforest s
Ġsurf board
m s
Ġcongratul ated
ĠB ounce
ĠD ory
Ġarr anged
Ġbelie ving
Ġreass ured
Ġtrot ted
ĠA r
ĠEll e
Ġreun ited
E m
Ġno dding
Ġencourage ment
Ġche ers
Ġli es
ĠJo an
Ġimag es
ĠFe eling
Ġpo ppies
ĠP u
Ġre app
Ġcamp fire
Ġsuit s
Ġbus iness
Ġcl erk
Ġtar get
ook y
Ġmar ve
Ġsail s
Ġmagn if
iss a
per ate
ĠSpl ash
Ġoffic ers
Ġterri fied
Ġbackpack s
mand a
Ġgri p
Ġcover ing
ut ter
Ġy el
Ġkn ots
Ġactiv ity
ĠB ow
Be ep
ink le
Ġyel ped
Ġsurpr ising
Ġwrink led
Ġsmell ing
Ġexp ert
ĠO ther
Ġm ood
Ġmasterp iece
Ġd ep
ĠF ighting
ott e
ĠSnow man
Ġch anges
Ġconcer t
Ġch illy
ĠSt an
Qu ick
Ġspill s
Ġspeed ing
Ġtest ing
Ġtast ing
Ġbra ver
Ġple aded
Ġsniff ing
Ġ Okay
Ġcomfort ing
Ġdelay ed
Ġge ars
ĠPh il
Ġcalm ly
ĠStart led
at s
ac le
ac les
ash a
Ġlab els
Ġmerma id
Ġsuggest ion
id er
ĠE lly
ĠDo g
ĠA manda
Ġaw are
Ġdiscuss ing
Ġst umble
ĠT ry
Ġj ars
Ġsp ies
Ġbelong ings
Ġmis chie
ĠQuack ers
Ġworry ing
Ġmagaz ines
Ġbother ing
fl ies
Ġcrown s
Ġart work
Ġal though
Ġunderstand s
Ġdisplay ed
Ġmischie vous
ĠD uck
ail s
Ġp uck
Ġadmir ation
Ġeffort s
ĠA na
Ġbury ing
Ġhe ight
Ġfox es
sc reen
em ma
Ġh oo
Ġun fortunately
M andy
p en
Ġsa v
Ġrefu se
Ġsell er
ĠJe an
Ġbasket s
ĠB ri
Ġtool box
ri er
ig hing
Ġbu ddy
Ġb itten
ĠOut side
Ġexperien ced
ĠDani el
Ġdec l
ĠCharl otte
Ġb less
in ted
Ġqu e
ĠSp e
T eddy
v room
Ġdragon fly
Ġvehic les
w ise
b ell
Ġpack ages
w hat
Ġdis c
Ġsol ving
Ġd ump
i bbit
ugg ing
Ġpand as
Ġannoy ed
Ġt umbled
Ġmom ma
Ġme mb
ip es
ĠRo ger
ĠNan cy
atur day
Ġmemb ers
Ġseashell s
ĠSnow ball
Åĵ The
Ġfire s
Ġwarm ly
ĠS aturday
Ġpo sit
Ġweal th
Ġnibb led
J en
Ġsun screen
ain t
Ġpe as
Ġtre ated
Ġtrouble s
ĠFrank ie
Ġsqu aw
Ġrot ting
ĠHe len
Ġsc ent
Ġmateri al
Åĵ Sure
ĠL ina
ĠF ort
Ġcon qu
Ġstom p
Ġgaz ing
ĠT y
Ġco ach
Ġinsist ing
Ġunt ied
ĠPat ty
Ġdis o
Ġpray ers
Ġenv iron
Ġpart ed
Jo ey
Ġconvers ation
M ag
Ġcoll ap
ĠEls a
Ġencount ered
A ll
Ġjo ins
Ġloop s
a ver
Ġra ces
Ġsew ed
Ġs ill
Ġteacher s
Ġenviron ment
Ġscur rying
ow ing
atter ed
Ġwhisper ing
Ġjo ked
Ġarg um
Ġpurp ose
Ġtil ted
ĠAnna b
ĠS asha
Ġstor ed
Ġord ers
Ġlo ses
D ear
Ġex ch
Ġhoop s
Ġgen ie
Ġcowb oy
ĠFort unately
ĠT ammy
pp a
Ġshe ets
Ġsp ooky
Ġtw eet
Ġto ss
or der
Ġperm itted
air y
ĠA va
G et
Good night
Ġa im
ong o
ĠG us
Sara h
Ġdiamond s
Ġscr am
Ġty pe
isc uit
ĠE ddie
Ġpupil s
Ġantic ip
an a
Ġglitter ing
Ġtr ans
Ġque ens
Ġturt les
illi am
Ġbeam ing
Ġneare st
Ġend s
Ġtub es
Ġm aker
Ġser vant
Åĵ See
Ġdon key
Ġvisit ors
ĠRu dy
Ġfilm s
ĠS w
Ġspell s
Ġopp ort
Ġg ap
ig ger
ĠE ric
Ġunt ie
ĠW oo
Ġcle ared
Ġfin s
Ġstro ke
ĠS e
Ġr in
ĠSt itch
Ġta pping
Ġopp os
Ġwas ting
Ġcustom ers
Ġnur ses
ust y
Ġpri z
Ġsw o
Ġsh all
Ġhunt ers
Ġg er
ĠL y
Ġconvin ced
a ven
Ġwound s
Ġswo llen
ĠH old
ĠSee ing
Ġgoat s
Ġsweat y
Ġdress ing
Ġslow ed
ĠSpe edy
ĠGra nd
Ġdecl ared
ĠPo or
Ġd ot
Ġexam ining
or ter
el ope
Ġoppos ite
Ġcharacter s
il ities
Ġfa iled
T w
ĠS k
Ġtid ied
Ġtrans f
Ġgrand father
Ġwarri or
ĠEls ie
Ġforgiven ess
ĠFin ny
Ġstern ly
Ġgood ies
ĠT erry
Ġguess ing
Ġlip stick
ĠM in
Ġpe ep
Ġyoung est
Ġscratch ing
Le ave
Ġseagull s
m ies
re st
Ġinch worm
Ġbeep ed
em pt
Ġmeow ing
W h
ĠL ion
Ġresc uing
ĠW illiam
S o
Ġthan king
Ġquestion ed
Ġatt empt
Ġscram bled
ĠYou Ã¢
Ġgr at
Ġdri pping
Ġb ou
ĠSp ring
Ġtire s
Ġbou qu
B o
Ġact ive
Ġst all
Ġfor m
ĠB ongo
Ġanticip ation
r ily
Ġpicnic s
Ġni bble
ac y
Ġais le
Ġbl ond
Ġfloor s
Ġrespond ed
Ġresponsib ility
Ġsh in
Ġsm ashed
Ġattack ed
Ġmate y
Ġfor ce
iv ia
Ġexplain s
ĠI zzy
Ġknock ing
Ġemer ged
F l
Ġobey ed
ĠT aking
Ġin ter
Ġdiscover ies
Ġgrat itude
Ġt ing
Ġju d
Ġvi br
c ie
Ġre ly
St ay
Ġr ays
Ġzoom s
Ġdecor ation
Ġman ners
Ġch arge
Ġclass mates
A ny
Ġspr out
Ġs ens
Ġsn ug
Ġvisit s
Ġs igning
A n
ĠJ ason
Ġsp y
Åĵ Who
Ġaeropl anes
Ġso ot
Ġgirl Ã¢
Ġtwist s
Ġsurv ive
eb ecca
Ġve gg
Ġinst antly
Al ways
m unk
and a
ipp ers
Ġlo c
ĠPe ppa
Ġwigg ly
ĠAm ber
Ġse als
ĠBe h
Ġsel f
Ġbreath s
ĠTess a
Ġunw ra
Ġr amp
Ġr umbling
ro ll
y l
ĠL a
a ct
s m
Ġbuck led
Ġbright est
Ġhe n
Ġshr unk
Ġm unched
Ġbo nd
Ġbee h
Ġincre asing
Ġsh immering
ath an
Ġpur rs
Ġmanag er
ĠR ebecca
id ence
ĠW in
Ġdoor bell
Ġflap s
Ġearn ed
ĠPen elope
Ġchat ter
g ain
oo king
ch ing
Ġmove ments
Ġlow ered
ud ged
Ġsway ing
i ens
ĠBo bbie
ĠCra bby
itt ered
Ġal iens
Ġhon king
Ġcrack s
ĠZ oomy
Ġargum ent
ss ss
Ġchip munk
Ġdiso bey
ĠCh ick
ing er
Ġwho ever
Ġwind ing
ĠNan a
rom ise
Ġann ounced
umm ies
Ġprevent ed
it s
Ġbe aver
Åĵ Good
ĠOl ivia
Ġr owed
ĠBri an
Ġsw itched
Ġbat hing
l ied
Ġam u
M r
ĠA nt
ĠSpark le
Ġmosquito es
Ġtap ed
st orm
ĠMat ilda
Ġpo ses
os cope
Ġoffer ing
Ġsw ap
ĠF el
Ġnuzz led
ĠG ary
Ġcon s
Ġprick ly
are t
fl owers
Ġsway ed
Ġst eth
Ġfl ips
u el
Ġdestro ying
Ġla pt
ĠR icky
Ġdes igning
Ġmind s
d a
Ġcare s
be e
Ġbad ger
ĠRob o
ĠBeh ind
Let Ã¢
Ġjob s
Ġdod ged
Ġgl immering
Ġrat s
Ġcrawl s
ĠAsh ley
dd les
ĠE ver
ĠJ illy
Ġwhist les
Ġsm elt
B ang
Ġcr ops
r ink
ĠS ir
Ġbeauti fully
Ġobser ving
Ġdan gers
Ġbe ating
Ġsh ines
Ġexplo ded
Ġkn ives
Ġmill ion
Ġscold s
Ġcheck out
Ġscoot ers
Ġstamp ed
Ġsnap s
ang le
ĠRe ady
Ġcustom er
ĠS weet
Ġgener osity
l o
lp h
