{"<s>":0,"<pad>":1,"</s>":2,"<unk>":3,"<mask>":4,"!":5,"\"":6,"#":7,"$":8,"%":9,"&":10,"'":11,"(":12,")":13,"*":14,"+":15,",":16,"-":17,".":18,"/":19,"0":20,"1":21,"2":22,"3":23,"4":24,"5":25,"6":26,"7":27,"8":28,"9":29,":":30,";":31,"<":32,"=":33,">":34,"?":35,"@":36,"A":37,"B":38,"C":39,"D":40,"E":41,"F":42,"G":43,"H":44,"I":45,"J":46,"K":47,"L":48,"M":49,"N":50,"O":51,"P":52,"Q":53,"R":54,"S":55,"T":56,"U":57,"V":58,"W":59,"X":60,"Y":61,"Z":62,"[":63,"\\":64,"]":65,"^":66,"_":67,"`":68,"a":69,"b":70,"c":71,"d":72,"e":73,"f":74,"g":75,"h":76,"i":77,"j":78,"k":79,"l":80,"m":81,"n":82,"o":83,"p":84,"q":85,"r":86,"s":87,"t":88,"u":89,"v":90,"w":91,"x":92,"y":93,"z":94,"{":95,"|":96,"}":97,"~":98,"¡":99,"¢":100,"£":101,"¤":102,"¥":103,"¦":104,"§":105,"¨":106,"©":107,"ª":108,"«":109,"¬":110,"®":111,"¯":112,"°":113,"±":114,"²":115,"³":116,"´":117,"µ":118,"¶":119,"·":120,"¸":121,"¹":122,"º":123,"»":124,"¼":125,"½":126,"¾":127,"¿":128,"À":129,"Á":130,"Â":131,"Ã":132,"Ä":133,"Å":134,"Æ":135,"Ç":136,"È":137,"É":138,"Ê":139,"Ë":140,"Ì":141,"Í":142,"Î":143,"Ï":144,"Ð":145,"Ñ":146,"Ò":147,"Ó":148,"Ô":149,"Õ":150,"Ö":151,"×":152,"Ø":153,"Ù":154,"Ú":155,"Û":156,"Ü":157,"Ý":158,"Þ":159,"ß":160,"à":161,"á":162,"â":163,"ã":164,"ä":165,"å":166,"æ":167,"ç":168,"è":169,"é":170,"ê":171,"ë":172,"ì":173,"í":174,"î":175,"ï":176,"ð":177,"ñ":178,"ò":179,"ó":180,"ô":181,"õ":182,"ö":183,"÷":184,"ø":185,"ù":186,"ú":187,"û":188,"ü":189,"ý":190,"þ":191,"ÿ":192,"Ā":193,"ā":194,"Ă":195,"ă":196,"Ą":197,"ą":198,"Ć":199,"ć":200,"Ĉ":201,"ĉ":202,"Ċ":203,"ċ":204,"Č":205,"č":206,"Ď":207,"ď":208,"Đ":209,"đ":210,"Ē":211,"ē":212,"Ĕ":213,"ĕ":214,"Ė":215,"ė":216,"Ę":217,"ę":218,"Ě":219,"ě":220,"Ĝ":221,"ĝ":222,"Ğ":223,"ğ":224,"Ġ":225,"ġ":226,"Ģ":227,"ģ":228,"Ĥ":229,"ĥ":230,"Ħ":231,"ħ":232,"Ĩ":233,"ĩ":234,"Ī":235,"ī":236,"Ĭ":237,"ĭ":238,"Į":239,"į":240,"İ":241,"ı":242,"Ĳ":243,"ĳ":244,"Ĵ":245,"ĵ":246,"Ķ":247,"ķ":248,"ĸ":249,"Ĺ":250,"ĺ":251,"Ļ":252,"ļ":253,"Ľ":254,"ľ":255,"Ŀ":256,"ŀ":257,"Ł":258,"ł":259,"Ń":260,"he":261,"Ġt":262,"Ġa":263,"Ġs":264,"Ġw":265,"nd":266,"Ġthe":267,"ed":268,"Ġand":269,"Ġto":270,"Ġb":271,"in":272,"Ġh":273,"Ġwa":274,"re":275,"ou":276,"Ġf":277,"it":278,"ĠT":279,"Ġl":280,"Ġc":281,"Ġd":282,"er":283,"Ġhe":284,"Ġm":285,"Ġp":286,"Ġwas":287,"om":288,"Ġo":289,"ay":290,"ĠThe":291,"ar":292,"is":293,"ing":294,"il":295,"Ġg":296,"id":297,"ĠS":298,"at":299,"en":300,"Ġn":301,"Ġsa":302,"Ġha":303,"an":304,"im":305,"or":306,"on":307,"Ġit":308,"Ġth":309,"ĠH":310,"ll":311,"le":312,"Ġ\"":313,"Ġher":314,"ot":315,"et":316,"ĠShe":317,"ir":318,"ĠHe":319,"ĠThey":320,"es":321,"Ġin":322,"ver":323,"ut":324,"ow":325,"ck":326,"Ġe":327,"ĠL":328,"Ġu":329,"ld":330,"Ġy":331,"oo":332,"Ġsaid":333,"ig":334,"ily":335,"Ġr":336,"Ġbe":337,"ĠI":338,"am":339,"Ġst":340,"ce":341,"ke":342,"Ġshe":343,"ve":344,"pp":345,"ith":346,"Ġwith":347,"On":348,"Ġon":349,"Ġyou":350,"Ġof":351,"ked":352,"ri":353,"ĠLily":354,"Ġso":355,"nt":356,"Ġhis":357,"Ġpl":358,"ad":359,"very":360,"ĠB":361,"Ġday":362,"Ġthat":363,"Ġup":364,"Ġplay":365,"Ġhad":366,"st":367,"Ġthey":368,"Ġwe":369,"Ġmom":370,"Ġfor":371,"ĠM":372,"el":373,"un":374,"ould":375,"'s":376,"my":377,"Ġli":378,"ch":379,"ent":380,"Ġhapp":381,"Ġwant":382,"itt":383,"Ġsh":384,"out":385,"her":386,"Ġdo":387,"ly":388,"Ġnot":389,"ome":390,"se":391,"Ġvery":392,"ound":393,"end":394,"all":395,"Ġwh":396,"ime":397,"ittle":398,"Ġk":399,"Ġtime":400,"Ġlittle":401,"al":402,"Ġthere":403,"Ġne":404,"ht":405,"Ġre":406,"ĠA":407,"Ġhappy":408,"Ġsm":409,"ĠIt":410,"ĠĠ":411,"Ġbig":412,"Ġis":413,"Ġbut":414,"ack":415,"Ġan":416,"Ġsaw":417,"riend":418,".\"":419,"Ġfriend":420,"ry":421,"Ġas":422,"ra":423,"One":424,"ide":425,"ake":426,"'t":427,"!\"":428,"ug":429,"Ġloo":430,"ved":431,"ter":432,"Ġwere":433,"ĠTim":434,"ore":435,"Once":436,"Ġlo":437,"ĠOne":438,"ec":439,"Ġhim":440,"Ġtoo":441,"Ġgo":442,"ĠJ":443,"Ġbo":444,"Ġse":445,"irl":446,"Ġare":447,"Ġj":448,"ard":449,"Ġwanted":450,"ill":451,"Ġgirl":452,"Ġupon":453,"Ġthem":454,"Ġout":455,"Ġat":456,"ur":457,"ind":458,"Ġtheir":459,"fu":460,"Ġsp":461,"way":462,"Ġsmil":463,"Ġdid":464,"Ġcould":465,"ĠTom":466,"hen":467,"ĠBen":468,"Ġhave":469,"ain":470,"art":471,"Ġex":472,"hed":473,"rom":474,"Ġwent":475,"Ġar":476,"ic":477,"Ġcan":478,"ĠW":479,"lp":480,"ful":481,"ood":482,"?\"":483,"hing":484,"Ġfriends":485,"Ġnam":486,"ĠBut":487,"ight":488,"Ġall":489,"Ġhelp":490,"Ġkn":491,"um":492,"one":493,"ark":494,"Ġback":495,"Ġsay":496,"You":497,"Ġfun":498,"Ġcl":499,"are":500,"Ġno":501,"Ġle":502,"op":503,"ĠTimmy":504,"Ġsmiled":505,"Ġsc":506,"Ġnamed":507,"Ġal":508,"oug":509,"Ġloved":510,"side":511,"elt":512,"Ġman":513,"Ġasked":514,"ick":515,"Ġtoy":516,"Ġlike":517,"Ġfe":518,"Ġfelt":519,"Ġlooked":520,"Ġsome":521,"Ġaround":522,"Ġsee":523,"Ġme":524,"ame":525,"omet":526,"Ġro":527,"Ġbr":528,"ure":529,"Ġbir":530,"get":531,"ice":532,"Ġboy":533,"Ġwould":534,"Ġstart":535,"ong":536,"Ã¢":537,"âĤ":538,"âĤ¬":539,"ss":540,"Ġbird":541,"Ġsomet":542,"Ġfa":543,"dd":544,"ings":545,"Ġag":546,"Ġwor":547,"Ġwhat":548,"ade":549,"Ġmake":550,"king":551,"ĠMom":552,",\"":553,"ie":554,"own":555,"Ġtre":556,"Ġran":557,"gether":558,"ĠYou":559,"Ġaway":560,"ag":561,"ared":562,"Ġsays":563,"Ġstarted":564,"oud":565,"if":566,"Ġmade":567,"Ġcar":568,"Ġsomething":569,"Ġtogether":570,"ited":571,"ther":572,"Ġpark":573,"Ġco":574,"Ġsad":575,"Ġother":576,"Ġnew":577,"Ġexc":578,"ĠE":579,"Ġput":580,"Ġfrom":581,"Ġpr":582,"ell":583,"Ġla":584,"Ġhug":585,"ble":586,"Ġmu":587,"ook":588,"ach":589,"Ġagain":590,"Ġhome":591,"Ġwhen":592,"ĠF":593,"Ġgood":594,"hat":595,"ep":596,"Ġwho":597,"est":598,"ried":599,"Ġfound":600,"Ġfl":601,"Ġthen":602,"Ġch":603,"Ġdec":604,"pped":605,"Ġwal":606,"as":607,"Ġget":608,"qu":609,"ĠD":610,"Ġplaying":611,"ought":612,"pl":613,"ally":614,"Ġsw":615,"ĠSu":616,"ous":617,"nn":618,"Ġthings":619,"Ġexcited":620,"Ġliked":621,"Ġgot":622,"uck":623,"ro":624,"ided":625,"Ġdecided":626,"Ġbl":627,"ave":628,"Ġcame":629,"Ġevery":630,"ara":631,"Ġyour":632,"ĠSam":633,"ax":634,"Ġv":635,"Ġscared":636,"ust":637,"Ġone":638,"Ġdog":639,"Ġdown":640,"ouse":641,"ny":642,"Ġfind":643,"Ġcare":644,"Ġbec":645,"ist":646,"Ġthan":647,"Ġfeel":648,"ap":649,"nna":650,"Ġdad":651,"Ġab":652,"Ġmy":653,"Ġlook":654,"Ġke":655,"our":656,"Ġwill":657,"arn":658,"Ġgr":659,"nder":660,"Ġgra":661,"ways":662,"ess":663,"Ġdidn":664,"ĠMax":665,"Ġpo":666,"fe":667,"Ġalways":668,"Ġtook":669,"Ġabout":670,"ant":671,"bb":672,"Ġlot":673,"Ġmommy":674,"Ġtoys":675,"Ġkne":676,"ers":677,"ise":678,"ĠSo":679,"Ġbu":680,"ĠSara":681,"ite":682,"Ġoutside":683,"Ġtree":684,"Ġthought":685,"Ġball":686,"Ġmore":687,"eci":688,"ened":689,"ched":690,"Ġta":691,"Ġold":692,"ĠAnna":693,"Ġho":694,"Ġlearn":695,"ret":696,"Ġint":697,"ged":698,"ĠWhen":699,"Ġpu":700,"Ġknow":701,"Ġlaug":702,"Ġtake":703,"ecial":704,"Ġspecial":705,"Ġsor":706,"Ġcat":707,"dden":708,"Ġknew":709,"ive":710,"ĠHer":711,"ia":712,"Ġpe":713,"Ġany":714,"ddenly":715,"Ġtr":716,"fter":717,"Ġhow":718,"ĠJo":719,"au":720,"ma":721,"Ġshow":722,"ink":723,"Ġsorry":724,"Ġtw":725,"Ġmuch":726,"ish":727,"Ġrun":728,"and":729,"Ġhand":730,"ĠEvery":731,"Ġsl":732,"ĠJack":733,"ven":734,"Ġhouse":735,"Ġor":736,"Ġop":737,"Ġsk":738,"Ġmo":739,"Ġclo":740,"Ġsun":741,"Ġinto":742,"Ġtried":743,"Ġinside":744,"ate":745,"Ġtold":746,"Ġwater":747,"Ġthis":748,"Ġen":749,"ank":750,"Ġif":751,"Ġproud":752,"ump":753,"Ġqu":754,"Ġover":755,"here":756,"Ġcouldn":757,"dy":758,"Ġgave":759,"Ġheard":760,"Ġnever":761,"by":762,"Ġeach":763,"ace":764,"Ġroom":765,"ty":766,"Ġexpl":767,"Ġeat":768,"ĠSuddenly":769,"ĠWe":770,"other":771,"ause":772,"Ġpick":773,"ion":774,"Ġpret":775,"Ġplayed":776,"ge":777,"etter":778,"ĠThen":779,"Ġjust":780,"ak":781,"Ġhugged":782,"Ġgre":783,"Ġoff":784,"Ġcom":785,"Ġwat":786,"oth":787,"ĠMia":788,"Ġbox":789,"Ġnice":790,"ĠFrom":791,"ue":792,"'m":793,"Ġstr":794,"Ġbecause":795,"Ġneed":796,"ĠHis":797,"ile":798,"Ġmany":799,"ĠAnd":800,"Ġfo":801,"uc":802,"Ġjo":803,"Ġbear":804,"Ġsmall":805,"iz":806,"ving":807,"Ġlong":808,"ine":809,"gry":810,"sed":811,"imal":812,"ort":813,"Ġanimal":814,"Ġsn":815,"ough":816,"Ġtry":817,"Ġunt":818,"ild":819,"sel":820,"urt":821,"Ġuntil":822,"ĠC":823,"Ġkind":824,"Ġlearned":825,"Ġim":826,"ĠÃ¢":827,"Ġlove":828,"Ġbetter":829,"ft":830,"Ġflow":831,"Ġcall":832,"Ġdon":833,"Ġend":834,"Ġad":835,"Ġbest":836,"vent":837,"Yes":838,"ars":839,"urp":840,"ady":841,"em":842,"ream":843,"aut":844,"urn":845,"Ġcle":846,"ves":847,"Åĵ":848,"arden":849,"Ġgarden":850,"Ġfast":851,"Ġcu":852,"Ġcareful":853,"ber":854,"lly":855,"Ġbeaut":856,"Ġeven":857,"pt":858,"Ġbra":859,"ies":860,"Ġthanked":861,"Ġfi":862,"Ġche":863,"Ġlaughed":864,"Ġsky":865,"Ġby":866,"Ġjump":867,"Ġgl":868,"ase":869,"Ġte":870,"Ġloud":871,"self":872,"Th":873,"iny":874,"Ġway":875,"wn":876,"Ġbeauti":877,"Ġcome":878,"lew":879,"Ġlist":880,"Ġwo":881,"Ġbeautiful":882,"Ġhard":883,"Ġlots":884,"Ġra":885,"Ġstill":886,"Ġfam":887,"Ġanimals":888,"Ġhurt":889,"Ġunder":890,"ect":891,"Ġstay":892,"ning":893,"Ġlet":894,"ct":895,"ĠP":896,"Ġboth":897,"It":898,"sh":899,"hes":900,"be":901,"Ġsafe":902,"ool":903,"ree":904,"Ġcol":905,"Ġtwo":906,"Ġbad":907,"Ġbook":908,"Ġimp":909,"ople":910,"Ġrem":911,"ane":912,"ĠAs":913,"Ġlived":914,"kay":915,"ock":916,"ucy":917,"Ġwalked":918,"ast":919,"Ġsu":920,"urpr":921,"Ġbrave":922,"Ġshould":923,"Ġits":924,"ĠLucy":925,"ob":926,"ished":927,"Ġangry":928,"Ġsurpr":929,"Ġfamily":930,"ress":931,"igh":932,"Ġpeople":933,"Ġflew":934,"Ġcalled":935,"No":936,"Ġred":937,"ĠAfter":938,"Ġstor":939,"ĠJoh":940,"ip":941,"Ġsoon":942,"Ġfin":943,"Let":944,"led":945,"Ġkept":946,"Ġfore":947,"fore":948,"Ġdan":949,"Ġshare":950,"Ġfly":951,"xt":952,"ised":953,"dded":954,"Ġpic":955,"âĤ¬â":956,"Ġdoor":957,"Ġgoing":958,"Ġpretty":959,"ĠMommy":960,"ĠG":961,"Ġkeep":962,"Ġnow":963,"ĠDad":964,"Ġrock":965,"Ġclean":966,"Ġdra":967,"ary":968,"Ġadvent":969,"ummy":970,"Ġnoise":971,"Ġopened":972,"Ġshiny":973,"age":974,"Ġexplore":975,"Ġwind":976,"Ġdoll":977,"Ġcry":978,"Ġcon":979,"Ġide":980,"Ġbefore":981,"ied":982,"illy":983,"Ġreal":984,"Ġsto":985,"so":986,"What":987,"Ġground":988,"Ġalso":989,"les":990,"Ġturn":991,"Ħ¢":992,"âĤ¬âĦ¢":993,"Ġey":994,"Ġfar":995,"Ġidea":996,"Ġfr":997,"ĠSp":998,"Ġnodded":999,"Ġcolor":1000,"Ġwar":1001,"Ġfeeling":1002,"ĠJohn":1003,"Ġun":1004,"Ġpicked":1005,"oy":1006,"imb":1007,"th":1008,"Ġnext":1009,"Ġwalking":1010,"thing":1011,"ture":1012,"Ġclimb":1013,"Ġhas":1014,"Ġma":1015,"Ġthr":1016,"Ġwhile":1017,"eet":1018,"Ġbed":1019,"Ġadventure":1020,"Ġsmile":1021,"ĠBob":1022,"kes":1023,"That":1024,"aybe":1025,"iced":1026,"ger":1027,"Thank":1028,"ious":1029,"Ġbeing":1030,"Ġdif":1031,"Ġwr":1032,"Ġclos":1033,"Ġfood":1034,"joy":1035,"ted":1036,"Ġgive":1037,"Ġpicture":1038,"Ġthink":1039,"Ġlooking":1040,"ĠN":1041,"Ġdel":1042,"ff":1043,"ac":1044,"Ġtruck":1045,"Ġwait":1046,"Ġeyes":1047,"ught":1048,"Ġtow":1049,"ting":1050,"Ġrepl":1051,"Ġbro":1052,"Ġstopped":1053,"Ġlisten":1054,"Ġafter":1055,"Ġbre":1056,"Ġown":1057,"Ġvo":1058,"Ġwalk":1059,"ember":1060,"Ġwonder":1061,"Ġgreat":1062,"ĠSpot":1063,"ĠR":1064,"Ġhands":1065,"Ġshout":1066,"Ġhead":1067,"Ġenjoy":1068,"Ġimport":1069,"Ġflowers":1070,"Ġever":1071,"ĠSue":1072,"Ġnoticed":1073,"Ġblue":1074,"Ġforest":1075,"bbit":1076,"ized":1077,"Ġapp":1078,"irst":1079,"Ġnear":1080,"Ġquick":1081,"Ġdis":1082,"Ġde":1083,"able":1084,"Ġimportant":1085,"Ġremember":1086,"Ġfish":1087,"llow":1088,"Ġsound":1089,"oon":1090,"Ġslide":1091,"Ġus":1092,"maz":1093,"Ġreplied":1094,"Ġamaz":1095,"Ġac":1096,"lease":1097,"Ġwork":1098,"Ġwatch":1099,"Ġrain":1100,"Ġshowed":1101,"Ġrabbit":1102,"Ġokay":1103,"gan":1104,"Ġtal":1105,"bye":1106,"Lily":1107,"fere":1108,"bbed":1109,"Ġask":1110,"Ġru":1111,"Ġdiffere":1112,"Ġmean":1113,"ĠSarah":1114,"Ġright":1115,"Ġtou":1116,"Ġye":1117,"day":1118,"Ġwatched":1119,"Ġbright":1120,"Ġfollow":1121,"Ġeveryone":1122,"Ġstrong":1123,"We":1124,"Ġsqu":1125,"Ġstick":1126,"Ġuse":1127,"Ġbeen":1128,"Ġmor":1129,"Ġvoice":1130,"Ġtra":1131,"ered":1132,"Ġquickly":1133,"ath":1134,"Ġour":1135,"Ġwhere":1136,"Ġyell":1137,"Ġdifferent":1138,"Ġchild":1139,"Ġcuri":1140,"Ġboat":1141,"ng":1142,"Ġsure":1143,"ĠJane":1144,"Ġbecame":1145,"Ġgoodbye":1146,"Ġface":1147,"Ġplace":1148,"ange":1149,"Ġhop":1150,"Ġhigh":1151,"ĠTh":1152,"Ġam":1153,"Look":1154,"aught":1155,"Ġcloser":1156,"Ġstore":1157,"Ġwarm":1158,"Ġdoes":1159,"Ġcr":1160,"Ġdress":1161,"unny":1162,"Ġcurious":1163,"Ġmag":1164,"ila":1165,"Ġcook":1166,"Ġbel":1167,"Ġforg":1168,"Ġtell":1169,"Ġfav":1170,"ndma":1171,"ass":1172,"ount":1173,"co":1174,"Ġthree":1175,"ĠJoe":1176,"leep":1177,"Ġnight":1178,"Ġopen":1179,"Ġcake":1180,"more":1181,"Ġhere":1182,"Ġanymore":1183,"Ġblock":1184,"Ġfirst":1185,"itc":1186,"ull":1187,"Ġpull":1188,"iss":1189,"ached":1190,"ired":1191,"Ġbutter":1192,"Ġz":1193,"imes":1194,"orn":1195,"Ġsweet":1196,"Ġpain":1197,"Ġkid":1198,"Ġgrabbed":1199,"Can":1200,"isy":1201,"ĠIn":1202,"Ġonly":1203,"Ġmon":1204,"Ġlea":1205,"Ġfell":1206,"Ġba":1207,"Ġcont":1208,"ĠEveryone":1209,"Ġbirds":1210,"Ġjumped":1211,"Ġglad":1212,"Ġbit":1213,"Ġsand":1214,"itchen":1215,"Ġkitchen":1216,"Mom":1217,"ĠThat":1218,"Ġhelped":1219,"Ġsees":1220,"Ġfire":1221,"Ġper":1222,"Ġflo":1223,"Ġstop":1224,"Ġhappened":1225,"Ġsing":1226,"Ġgrass":1227,"Ġbunny":1228,"Ġshouted":1229,"Ġstory":1230,"ĠLet":1231,"Ġtri":1232,"nts":1233,"Ġdr":1234,"air":1235,"ĠDo":1236,"Ġreached":1237,"ppy":1238,"Ġbeh":1239,"ey":1240,"Ġrealized":1241,"Ġyummy":1242,"Ġbrother":1243,"Ġlady":1244,"Ġmum":1245,"Ġhaving":1246,"Ġprin":1247,"ins":1248,"Ġfavor":1249,"ĠLila":1250,"'re":1251,"Ġmess":1252,"Ġfavorite":1253,"Ġdraw":1254,"Ġcre":1255,"Ġrest":1256,"Ġthrough":1257,"Ġgame":1258,"Ġhat":1259,"Ġate":1260,"Ġless":1261,"Ġunderst":1262,"akes":1263,"Ġsoft":1264,"Ġpare":1265,"zy":1266,"Ġthing":1267,"Ġreally":1268,"ather":1269,"Ġready":1270,"Ġbegan":1271,"where":1272,"Ġpretend":1273,"ĠCan":1274,"Ġworld":1275,"Ġlooks":1276,"ken":1277,"Ġhimself":1278,"Ġmagic":1279,"fully":1280,"Ġpap":1281,"Ġdone":1282,"Ġbutterf":1283,"Ġmaking":1284,"Ġcut":1285,"Ġcoming":1286,"Ġduck":1287,"ater":1288,"Ġpond":1289,"Ġkids":1290,"Ġwaved":1291,"Ġwhy":1292,"Ġprom":1293,"Ġtired":1294,"Ġfro":1295,"Ġfix":1296,"ster":1297,"Ġmouse":1298,"Ġworry":1299,"olly":1300,"Ġpart":1301,"Ġcars":1302,"Ġste":1303,"Ġdelic":1304,"Ġname":1305,"Ġflower":1306,"ign":1307,"ĠTommy":1308,"ĠFin":1309,"Ġfill":1310,"Wow":1311,"aisy":1312,"Ġtouch":1313,"eddy":1314,"Ġfunny":1315,"Ġcatch":1316,"bo":1317,"Ġused":1318,"Ġseen":1319,"Ġhair":1320,"Ġtast":1321,"ient":1322,"Ġtop":1323,"Ġparents":1324,"rel":1325,"Ġanother":1326,"ĠSally":1327,"Ġhold":1328,"Ġhopped":1329,"Ġcried":1330,"iver":1331,"oney":1332,"mer":1333,"Ġdoing":1334,"Ġcool":1335,"Ġblocks":1336,"\".":1337,"Ġsurprise":1338,"Tom":1339,"Ġlight":1340,"hy":1341,"Ġgreen":1342,"Ġthank":1343,"Ġlesson":1344,"ation":1345,"Ġread":1346,"Ġfloor":1347,"Ġdin":1348,"Ġgi":1349,"Ġwood":1350,"Ġdri":1351,"Don":1352,"ards":1353,"Ġfull":1354,"Ġtrees":1355,"Ġrunning":1356,"Ġwindow":1357,"Ġworked":1358,"Ġyears":1359,"Ġcra":1360,"Ġ-":1361,"Ġdro":1362,"Ġdark":1363,"Ġbehind":1364,"Ġlikes":1365,"Ġsmell":1366,"Ġspot":1367,"Ġwished":1368,"Ġpaper":1369,"ued":1370,"Ġyellow":1371,"andy":1372,"Ġbow":1373,"ren":1374,"Ġswim":1375,"Ġhappily":1376,"Ġbag":1377,"Ġsat":1378,"ul":1379,"Ġsho":1380,"Ġsleep":1381,"us":1382,"aring":1383,"Ġsurprised":1384,"ĠDaisy":1385,"ely":1386,"Ġfrog":1387,"Ġbutterfly":1388,"ike":1389,"Ġswing":1390,"Ġset":1391,"Ġcarefully":1392,"ĠEm":1393,"Ġslow":1394,"Ġremembered":1395,"Ġlost":1396,"Ġcold":1397,"ĠBenny":1398,"Ġheld":1399,"uff":1400,"ello":1401,"Hello":1402,"Ġhole":1403,"Ġice":1404,"Ġlaugh":1405,"rew":1406,"Ġneeded":1407,"ĠAt":1408,"Ġbuy":1409,"Ġperf":1410,"Ġleft":1411,"ĠK":1412,"ons":1413,"Ġmove":1414,"reed":1415,"cess":1416,"Ġanything":1417,"Ġdream":1418,"Ġtall":1419,"Ġenjoyed":1420,"Ġwrong":1421,"Ġarri":1422,"Ġhear":1423,"ĠNow":1424,"Ġfair":1425,"Ġair":1426,"Ġfollowed":1427,"ĠFinally":1428,"Ġbooks":1429,"ross":1430,"Ġel":1431,"Ġchildren":1432,"Ġbus":1433,"Ġhun":1434,"Ġdelicious":1435,"Ġtable":1436,"Ġfinished":1437,"Ġcontin":1438,"Ġfriendly":1439,"Ġdir":1440,"Ġhot":1441,"Ġsnow":1442,"Ġherself":1443,"ĠTo":1444,"ĠGra":1445,"ds":1446,"lf":1447,"Ġhill":1448,"ens":1449,"Ġunderstand":1450,"Ġplease":1451,"Ġclose":1452,"ĠBilly":1453,"ined":1454,"Ġhid":1455,"ĠJim":1456,"sp":1457,"Ġarrived":1458,"Ġcast":1459,"Ġelse":1460,"Ġarm":1461,"Ġbaby":1462,"Ġwonderful":1463,"Ġmight":1464,"Ġgent":1465,"Ġtight":1466,"Ġforgot":1467,"ĠAmy":1468,"ield":1469,"Ġbug":1470,"Ġcolors":1471,"Ġrel":1472,"Ġbuild":1473,"Ġbroken":1474,"Ġable":1475,"Ġgone":1476,"av":1477,"ner":1478,"Ġyes":1479,"atter":1480,"Ġsong":1481,"ich":1482,"Ġwall":1483,"Ġsquir":1484,"Ġfilled":1485,"Ġagreed":1486,"Ġsomeone":1487,"Ġgu":1488,"Ġcontinued":1489,"room":1490,"ĠThere":1491,"Ġcreat":1492,"asure":1493,"'ll":1494,"Ġcount":1495,"ĠJen":1496,"Ġwants":1497,"Ġsquirrel":1498,"Ġpink":1499,"Ġleaves":1500,"ask":1501,"ĠThis":1502,"Ġenough":1503,"ĠMolly":1504,"Ġlion":1505,"ama":1506,"ee":1507,"OK":1508,"Ġmorning":1509,"Ġvis":1510,"Ġmoment":1511,"Ġfinally":1512,"Ġgetting":1513,"Ġstayed":1514,"Ġcookies":1515,"Ġbreak":1516,"shed":1517,"app":1518,"Ġpoin":1519,"ance":1520,"Ġbeach":1521,"ĠMaybe":1522,"Ġfew":1523,"Ġscary":1524,"Ġfight":1525,"Ġsometimes":1526,"row":1527,"ash":1528,"ries":1529,"ced":1530,"red":1531,"ĠWhat":1532,"Ġturned":1533,"Ġhungry":1534,"Ġfall":1535,"Ġdinner":1536,"gon":1537,"Ġmother":1538,"Ġgrandma":1539,"Ġju":1540,"Ġwet":1541,"Ġamazing":1542,"apped":1543,"Ġtrying":1544,"Ġcream":1545,"Ġdaddy":1546,"Ġperfect":1547,"Ġpi":1548,"Ġmakes":1549,"Ġcastle":1550,"Ġothers":1551,"Ġclimbed":1552,"key":1553,"oup":1554,"Ġpictures":1555,"icy":1556,"Ġcomp":1557,"amp":1558,"Ġtalk":1559,"Ġmet":1560,"Ġmus":1561,"ere":1562,"Ġwhite":1563,"oom":1564,"Ġlistened":1565,"Ġsmiles":1566,"man":1567,"Ġfur":1568,"Ġballoon":1569,"Ġclot":1570,"oring":1571,"Ġalone":1572,"Ġclothes":1573,"Ġpol":1574,"lc":1575,"Ġtail":1576,"Ġjoy":1577,"ated":1578,"rot":1579,"Oh":1580,"Ġpuppy":1581,"Ġspl":1582,"ence":1583,"Ġmar":1584,"Ġwasn":1585,"Ġbrought":1586,"Ġdeep":1587,"Ġeverything":1588,"Ġpet":1589,"Ġsear":1590,"Ġstrange":1591,"ister":1592,"ctor":1593,"Ġspark":1594,"The":1595,"der":1596,"Ġsit":1597,"Ġwoods":1598,"Ġgrow":1599,"Ġpulled":1600,"ling":1601,"Ġsail":1602,"ott":1603,"Ġwon":1604,"Ġplan":1605,"Ġride":1606,"eter":1607,"Ġasks":1608,"Ġfox":1609,"Ġpie":1610,"Ġdanger":1611,"Ġtreat":1612,"uffy":1613,"Ġroll":1614,"Ġvisit":1615,"os":1616,"Ġleave":1617,"med":1618,"Ġpat":1619,"ĠJill":1620,"ucky":1621,"This":1622,"Ġmusic":1623,"Ġamazed":1624,"Ġwaited":1625,"ĠSoon":1626,"Ġteddy":1627,"Ġhide":1628,"me":1629,"But":1630,"ang":1631,"ever":1632,"Ġtowards":1633,"ower":1634,"Ġfield":1635,"Ġland":1636,"Ġpre":1637,"Ġflying":1638,"zz":1639,"ĠAll":1640,"Ġpen":1641,"Ġsilly":1642,"Ġshared":1643,"Ġruns":1644,"ained":1645,"Ġowner":1646,"Ġcloud":1647,"ape":1648,"Ġliving":1649,"ugg":1650,"Ġqui":1651,"ames":1652,"Ġjob":1653,"Ġpromised":1654,"ĠDaddy":1655,"Okay":1656,"Ġbelie":1657,"igg":1658,"Ġmoral":1659,"Ġside":1660,"gs":1661,"orm":1662,"ol":1663,"Ġlake":1664,"Ġthinks":1665,"cket":1666,"Maybe":1667,"ope":1668,"Ġpaint":1669,"Ġsec":1670,"thy":1671,"Ġsister":1672,"ually":1673,"Ġparty":1674,"Ġquiet":1675,"ises":1676,"Ġmust":1677,"cle":1678,"Ġrace":1679,"avy":1680,"Ġmoney":1681,"Ġwear":1682,"sw":1683,"Ġworried":1684,"ased":1685,"Ġansw":1686,"unch":1687,"Ġslowly":1688,"Ġpot":1689,"eces":1690,"ĠMary":1691,"Ġcolorful":1692,"Ġfaster":1693,"Ġgrate":1694,"Ġow":1695,"Ġdance":1696,"Ġpieces":1697,"Ġbran":1698,"Ġbott":1699,"Ġwelc":1700,"Ġbroke":1701,"Ġcup":1702,"ix":1703,"Ġgrateful":1704,"Ġgif":1705,"Ġsuch":1706,"Ġbigger":1707,"ze":1708,"Ġtrain":1709,"ph":1710,"fort":1711,"Ġsnack":1712,"Mommy":1713,"Ġcho":1714,"ĠFl":1715,"Ġreach":1716,"Ġblank":1717,"ĠMr":1718,"Ġmonster":1719,"Ġpro":1720,"Ġplant":1721,"Ġjoin":1722,"Ġriver":1723,"Ġblack":1724,"less":1725,"Ġwin":1726,"Ġcandy":1727,"ire":1728,"Ġblanket":1729,"Ġscream":1730,"uit":1731,"Ġtreasure":1732,"ear":1733,"Ġmagical":1734,"Ġve":1735,"Ġprincess":1736,"Ġele":1737,"Ġsmart":1738,"Ġstu":1739,"ĠMama":1740,"Ġbike":1741,"Ġdangerous":1742,"ĠJust":1743,"Ġsign":1744,"Ġdragon":1745,"Ġacross":1746,"Ġmonkey":1747,"Ġbar":1748,"Ġeverywhere":1749,"Ġmost":1750,"Ġhelping":1751,"Ġnap":1752,"Ġfarmer":1753,"outh":1754,"Ġem":1755,"Ġmouth":1756,"Why":1757,"set":1758,"Ġdisapp":1759,"Ġpa":1760,"Ġwords":1761,"Ġje":1762,"ipped":1763,"Sure":1764,"Ġstre":1765,"ored":1766,"Ġtower":1767,"ming":1768,"eared":1769,"Hi":1770,"Ġthrew":1771,"Ġstepped":1772,"Ġheavy":1773,"Ġdolls":1774,"Ġpass":1775,"Ġbite":1776,"de":1777,"Ġbowl":1778,"Ġdirty":1779,"Ġtwins":1780,"Ġsame":1781,"Ġcrying":1782,"Ġbee":1783,"Ġspr":1784,"Ġdoctor":1785,"ident":1786,"Ġacc":1787,"Ġbelieve":1788,"Ġwouldn":1789,"Ġbath":1790,"Ġheal":1791,"chool":1792,"ĠGrandma":1793,"Ġhig":1794,"bble":1795,"Ġclosed":1796,"Ġcarrot":1797,"Ġheart":1798,"Ġstuck":1799,"cked":1800,"Ġcour":1801,"Ġfruit":1802,"Ġbuck":1803,"Ġmin":1804,"Ġatt":1805,"Ġteac":1806,"Ġschool":1807,"Ġbrown":1808,"Ġhoped":1809,"asket":1810,"iting":1811,"Ġsuddenly":1812,"Ġbasket":1813,"Ġfeels":1814,"Ġmix":1815,"Ġchair":1816,"Ġeating":1817,"Ġtown":1818,"ĠEmma":1819,"Ġcourse":1820,"Ġcray":1821,"Ġclapped":1822,"Ġcoll":1823,"Ġgentle":1824,"Ġfairy":1825,"pping":1826,"Ġbutt":1827,"Ġpack":1828,"ventually":1829,"Ġstand":1830,"ier":1831,"Ġdrove":1832,"ors":1833,"ĠJimmy":1834,"Ġpushed":1835,"br":1836,"Ben":1837,"issed":1838,"Ġwelcome":1839,"ts":1840,"Ġswings":1841,"Ġwithout":1842,"ĠInside":1843,"Ġhigher":1844,"Ġtoday":1845,"Ġneigh":1846,"Ġpocket":1847,"orrow":1848,"Ġhit":1849,"Ġteacher":1850,"Ġneighb":1851,"Ġpers":1852,"ord":1853,"Ġsmo":1854,"Ġgames":1855,"ourn":1856,"Ġpiece":1857,"ract":1858,"Ġcheered":1859,"Ġwings":1860,"Ġforget":1861,"Ġben":1862,"Ġexplained":1863,"Ġjourn":1864,"Ġyard":1865,"Ġlonger":1866,"Ġfree":1867,"ible":1868,"Ġcorn":1869,"Ġaccident":1870,"ead":1871,"ho":1872,"Ġdry":1873,"Ġalong":1874,"umb":1875,"ĠMum":1876,"ment":1877,"ĠTheir":1878,"cy":1879,"Ġnoises":1880,"itting":1881,"Ġneck":1882,"Ġsang":1883,"Ġinst":1884,"Ġlate":1885,"Ġhappen":1886,"Ġthrow":1887,"Anna":1888,"Ġhugs":1889,"Ġyoung":1890,"Ġturns":1891,"Ġstories":1892,"vel":1893,"Ġshoes":1894,"phant":1895,"Ġlon":1896,"Ġmiss":1897,"Ġadventures":1898,"Ġsinging":1899,"ĠOn":1900,"Ġtrou":1901,"Ġwell":1902,"Ġsea":1903,"Ġlunch":1904,"Ġapple":1905,"Ġupset":1906,"Ġlonely":1907,"Ġkey":1908,"ches":1909,"ĠO":1910,"Ġbelong":1911,"bby":1912,"oun":1913,"Ġdist":1914,"Ġsecret":1915,"Ġstreet":1916,"Ġplac":1917,"Ġelephant":1918,"Ġtom":1919,"Ġwish":1920,"Ġfence":1921,"Ġmine":1922,"ountain":1923,"Ġmat":1924,"ek":1925,"Ġshap":1926,"Ġshook":1927,"Ġexploring":1928,"Ġmoved":1929,"Ġpurp":1930,"Ġyear":1931,"aughty":1932,"Ġnearby":1933,"Ġnaughty":1934,"Ġstar":1935,"Ġsoup":1936,"Ġshop":1937,"Ġwise":1938,"Ġstars":1939,"Ġowl":1940,"Ġbring":1941,"fused":1942,"Ġjar":1943,"bow":1944,"ocked":1945,"ĠFluffy":1946,"Ġinv":1947,"Ġexp":1948,"Ġwhe":1949,"yard":1950,"Ġcaught":1951,"Do":1952,"ward":1953,"Ġbackyard":1954,"Ġseemed":1955,"ĠTw":1956,"ail":1957,"Ġes":1958,"Ġrelie":1959,"Ġdropped":1960,"Ġph":1961,"Ġrocks":1962,"aughter":1963,"llo":1964,"Ġ3":1965,"Ġdrink":1966,"Ġbucket":1967,"Ġdes":1968,"adow":1969,"ces":1970,"Ġpurple":1971,"Ġswam":1972,"Ġfarm":1973,"Ġresp":1974,"ĠThank":1975,"Ġtaking":1976,"Ġmail":1977,"Ġorange":1978,"Ġthough":1979,"ions":1980,"Ġshapes":1981,"sy":1982,"ĠSammy":1983,"Ġpast":1984,"col":1985,"Ġcow":1986,"Ġwoke":1987,"Ġbench":1988,"Ġsounds":1989,"Ġaf":1990,"ung":1991,"ity":1992,"Ġwondered":1993,"Ġbusy":1994,"Ġfit":1995,"Ġtiny":1996,"Ġob":1997,"ĠLater":1998,"Ġnose":1999,"Ġsitting":2000,"Ġnest":2001,"Ġrainbow":2002,"ese":2003,"Ġdaughter":2004,"Ġtakes":2005,"Ġmark":2006,"Ġmad":2007,"fish":2008,"Ġcou":2009,"Ġkite":2010,"to":2011,"read":2012,"Ġholding":2013,"Ġnothing":2014,"Ġcomes":2015,"Ġjuice":2016,"Ġarms":2017,"thday":2018,"Ġpig":2019,"og":2020,"Ġcoat":2021,"ining":2022,"Ġcir":2023,"ĠWith":2024,"Ġbranch":2025,"raid":2026,"Ġrelieved":2027,"pper":2028,"ose":2029,"Ġafraid":2030,"cing":2031,"idge":2032,"Ġdriver":2033,"Ġmil":2034,"Ġforever":2035,"vered":2036,"Ġspoon":2037,"ĠEll":2038,"Sara":2039,"Ġcute":2040,"Ġcarry":2041,"Ġgift":2042,"Ġsick":2043,"Ġboun":2044,"ale":2045,"Ġlift":2046,"sting":2047,"Ġpeace":2048,"Ġpromise":2049,"Of":2050,"ours":2051,"Ġhuge":2052,"Ġact":2053,"Ġtouched":2054,"Ġpatient":2055,"unt":2056,"Ġking":2057,"Ġround":2058,"cer":2059,"sc":2060,"Ġhello":2061,"ĠCome":2062,"Ġbirthday":2063,"Ġfing":2064,"Ġletter":2065,"Ġgrab":2066,"Ġintere":2067,"Ġexciting":2068,"let":2069,"Ġsunny":2070,"Ġcheese":2071,"Tim":2072,"ĠTweet":2073,"eth":2074,"Ġonto":2075,"Ġbush":2076,"Ġlaughing":2077,"Ġdays":2078,"board":2079,"Ġjourney":2080,"Ġgigg":2081,"Ġband":2082,"Ġcreature":2083,"ĠAl":2084,"Ġdisco":2085,"ĠWh":2086,"ittens":2087,"Ġbread":2088,"Hey":2089,"arp":2090,"Ġret":2091,"ped":2092,"Ġimag":2093,"shine":2094,"Ġlife":2095,"Ġkick":2096,"gged":2097,"Ġhope":2098,"Ġpower":2099,"Ġcraw":2100,"ĠJenny":2101,"Ġshell":2102,"Ġcozy":2103,"Ġswimming":2104,"Ġinc":2105,"Ġbottle":2106,"Ġmist":2107,"Ġsharp":2108,"Ġwra":2109,"Ġsuc":2110,"Ġcomfort":2111,"gg":2112,"ness":2113,"Ġinstead":2114,"Ġwhist":2115,"Ġmilk":2116,"Ġwatching":2117,"Ġreturn":2118,"Ġear":2119,"ĠEmily":2120,"Ġspin":2121,"alm":2122,"Ġaccidentally":2123,"Ġeas":2124,"Ġsunshine":2125,"ten":2126,"Ġcave":2127,"pa":2128,"Ġspo":2129,"Ġputs":2130,"Ġlucky":2131,"Ġtalked":2132,"Ġhoney":2133,"Ġpudd":2134,"Ġpointed":2135,"Ġgives":2136,"Ġcollect":2137,"Ġgather":2138,"itch":2139,"Ġroad":2140,"Ġent":2141,"Ġsmiling":2142,"Ġbought":2143,"Ġanyone":2144,"Ġhor":2145,"Ġsearched":2146,"Ġlater":2147,"ĠCh":2148,"Ġce":2149,"Ġfan":2150,"Ġsandw":2151,"ball":2152,"round":2153,"itten":2154,"Ġapples":2155,"els":2156,"blem":2157,"irt":2158,"Ġproblem":2159,"Ġmeet":2160,"ize":2161,"Ġmach":2162,"Ġwom":2163,"Ġloves":2164,"Ġinteresting":2165,"ÅĵI":2166,"Good":2167,"Ġwoman":2168,"Ġplane":2169,"Ġkiss":2170,"Ġpres":2171,"Ġhealthy":2172,"eb":2173,"Ġpile":2174,"Ġtasty":2175,"Ġducks":2176,"Ġvill":2177,"Ġwide":2178,"ove":2179,"ont":2180,"amed":2181,"ub":2182,"aur":2183,"Ġadm":2184,"Ġeag":2185,"Ġspid":2186,"Ġclever":2187,"Ġcrayons":2188,"Ġprot":2189,"Ġmatter":2190,"Ġtrouble":2191,"erly":2192,"ndpa":2193,"Ġzoom":2194,"Ġclouds":2195,"owed":2196,"Ġstorm":2197,"Ġperson":2198,"Ġpath":2199,"cks":2200,"Ġpill":2201,"Ġfeather":2202,"Ġrope":2203,"Ġpop":2204,"Ġshining":2205,"Ġprotect":2206,"Ġsmelled":2207,"Ġfront":2208,"Ġhon":2209,"Ġbutton":2210,"ĠHow":2211,"Ġpract":2212,"Ġspotted":2213,"Ġscreamed":2214,"Ġzoo":2215,"Ġminut":2216,"Ġpresent":2217,"Come":2218,"Ġap":2219,"Ġmud":2220,"Ġval":2221,"Ġrespect":2222,"Ġsaf":2223,"ĠSomet":2224,"Ġdanced":2225,"Ġcheer":2226,"Ġorgan":2227,"Ġpar":2228,"Ġquest":2229,"ond":2230,"Ġappeared":2231,"ĠJake":2232,"Ġwhich":2233,"Ġpuzz":2234,"Ġseat":2235,"Ġteach":2236,"Ġmyster":2237,"Ġsnowman":2238,"isa":2239,"Ġsnake":2240,"Ġthin":2241,"ert":2242,"Ġwild":2243,"Ġasleep":2244,"Ġlovely":2245,"Ġsur":2246,"Ġanswer":2247,"epend":2248,"ĠTogether":2249,"Ġwearing":2250,"ĠMittens":2251,"Ġgently":2252,"Ġneighbor":2253,"oose":2254,"Ġbark":2255,"Ġhorse":2256,"Ġgiant":2257,"ĠSt":2258,"Ġplaces":2259,"Ġgoes":2260,"Ġwhole":2261,"ĠRe":2262,"Ġsearch":2263,"ĠAnn":2264,"Ġsplas":2265,"up":2266,"Ġcorner":2267,"Ġimpress":2268,"ular":2269,"Ġdirt":2270,"Ġmed":2271,"Ġshr":2272,"een":2273,"Ġtries":2274,"Ġtrip":2275,"Ġconfused":2276,"Ġlive":2277,"Ġmind":2278,"Ġdi":2279,"ato":2280,"Ġrolled":2281,"Ġcard":2282,"Ġslid":2283,"Ġtasted":2284,"nic":2285,"cean":2286,"Ġash":2287,"Ġocean":2288,"Ġsupp":2289,"Ġforgive":2290,"Ġpicnic":2291,"ĠGo":2292,"ĠLe":2293,"Ġca":2294,"Ġrude":2295,"Ġmachine":2296,"Ġspent":2297,"Ġdrive":2298,"Ġteeth":2299,"Ġser":2300,"ssed":2301,"itty":2302,"Jo":2303,"Ġphone":2304,"Ġoven":2305,"Ġpan":2306,"Ġpour":2307,"Ġlast":2308,"la":2309,"Ġcalm":2310,"Ġpretended":2311,"Ġdelight":2312,"ĠLisa":2313,"Ġcookie":2314,"Ġfurry":2315,"Ġspider":2316,"izz":2317,"Ġfeet":2318,"Ġfaces":2319,"unk":2320,"Ġlay":2321,"Ġworm":2322,"Ġring":2323,"Ġrec":2324,"umber":2325,"Ġhelpful":2326,"Ġlad":2327,"ĠBe":2328,"Ġeventually":2329,"Ġwip":2330,"Ġchick":2331,"Ġwave":2332,"Ġmountain":2333,"Ġsal":2334,"Ġban":2335,"Ġemb":2336,"Ġtalking":2337,"ones":2338,"Ġrob":2339,"Ġfold":2340,"Ġshy":2341,"Ġcart":2342,"Ġtomorrow":2343,"Ġsel":2344,"Ġchocol":2345,"Ġtid":2346,"Ġspread":2347,"Ġvillage":2348,"ĠPeter":2349,"arge":2350,"ife":2351,"Ġremind":2352,"Ġign":2353,"Ġbubble":2354,"Ġtun":2355,"Ġcoin":2356,"Ġfoot":2357,"Ġcouch":2358,"Ġwrite":2359,"Ġpush":2360,"Ġladder":2361,"Ġbuilding":2362,"Ġfighting":2363,"Ġsmooth":2364,"ĠSometimes":2365,"Ġtreats":2366,"Ġwore":2367,"Ġchased":2368,"Ġtool":2369,"ighed":2370,"Ġblew":2371,"Ġstret":2372,"lex":2373,"arra":2374,"Ġbugs":2375,"per":2376,"My":2377,"Ġembarra":2378,"Ġhiding":2379,"Ġpool":2380,"Ġcross":2381,"Ġ'":2382,"Ġwaiting":2383,"oph":2384,"Ġknee":2385,"Ġrobot":2386,"Ġneckl":2387,"Ġstep":2388,"Ġpuddle":2389,"mo":2390,"Ġfinish":2391,"Ġshelf":2392,"Ġbell":2393,"Ġcoo":2394,"not":2395,"als":2396,"Ġsongs":2397,"Ġstir":2398,"ator":2399,"Ġwhenever":2400,"Ġselfish":2401,"Ġant":2402,"Ġmaybe":2403,"Ġcannot":2404,"Ġstring":2405,"Ġstra":2406,"Ġchocolate":2407,"ĠEverywhere":2408,"ult":2409,"Ġsol":2410,"Ġtaste":2411,"Ġspe":2412,"Ġrep":2413,"ĠTeddy":2414,"Ġhum":2415,"Ġple":2416,"Ġlarge":2417,"Ġpaw":2418,"Ġnet":2419,"box":2420,"Ġsack":2421,"Ġleaf":2422,"Ġscar":2423,"Ġfixed":2424,"lebr":2425,"Ġbarked":2426,"Ġtidy":2427,"umpy":2428,"Ġbanan":2429,"Ġwash":2430,"Ġspray":2431,"Ġstone":2432,"Ġcelebr":2433,"old":2434,"ĠSus":2435,"Ġgen":2436,"Ġcloth":2437,"Please":2438,"ĠBu":2439,"Ġcrab":2440,"Ġpeaceful":2441,"Ġcolour":2442,"St":2443,"nny":2444,"ungle":2445,"ĠPlease":2446,"Ġhel":2447,"ush":2448,"ird":2449,"oin":2450,"Ġmissed":2451,"Ġdeter":2452,"Ġjungle":2453,"iger":2454,"arm":2455,"Ġlanded":2456,"Ġdeterm":2457,"Ġforward":2458,"Ġembarrassed":2459,"ĠSome":2460,"Ġnecklace":2461,"Ġhonest":2462,"Ġjumping":2463,"airs":2464,"elly":2465,"Ġbat":2466,"Ġdecor":2467,"dge":2468,"Ġtrust":2469,"Ġhears":2470,"Ġmoon":2471,"orry":2472,"Ġsticks":2473,"ĠTV":2474,"Ġshirt":2475,"Ġcreative":2476,"Ġsharing":2477,"Joh":2478,"aking":2479,"Ġtea":2480,"most":2481,"Ġknocked":2482,"Ġcarrots":2483,"Ġdisappoin":2484,"Ġsuccess":2485,"ĠDon":2486,"Ġmeadow":2487,"ying":2488,"ĠEven":2489,"getable":2490,"Ġwhis":2491,"Ġstood":2492,"Ġgener":2493,"Ġvegetable":2494,"ĠWhile":2495,"Ġbal":2496,"Ġmeant":2497,"Ġlegs":2498,"Ġtightly":2499,"ĠLittle":2500,"Ġbreath":2501,"Ġplate":2502,"Ġalmost":2503,"Ġashamed":2504,"ned":2505,"Ġemp":2506,"Ġsour":2507,"Ġgray":2508,"dle":2509,"Ġgrew":2510,"Ġtells":2511,"Ġempty":2512,"Ġpillow":2513,"ĠZ":2514,"ground":2515,"ony":2516,"Ġgas":2517,"Ġsplash":2518,"Ġwhistle":2519,"ĠMummy":2520,"ian":2521,"Ġunderstood":2522,"Ġsheep":2523,"Ġber":2524,"ĠJohnny":2525,"Ġcarried":2526,"den":2527,"Ġyelled":2528,"ĠWhy":2529,"Ġlem":2530,"ustr":2531,"arl":2532,"Ġnods":2533,"vous":2534,"Ġsave":2535,"Ġpolice":2536,"Ġdisappointed":2537,"Ġsnacks":2538,"Ġhours":2539,"Ġnut":2540,"ital":2541,"Ġjew":2542,"Ġthese":2543,"ĠAlice":2544,"hin":2545,"ork":2546,"Ġhosp":2547,"ets":2548,"ĠBo":2549,"Ġsparkly":2550,"Ġgold":2551,"Where":2552,"erp":2553,"Ġhospital":2554,"Ġkitten":2555,"Sam":2556,"Ġship":2557,"Ġpay":2558,"ina":2559,"Ġbored":2560,"urse":2561,"Ġline":2562,"Ġgenerous":2563,"Ġfrustr":2564,"Ġtest":2565,"Ġhidden":2566,"Ġtaught":2567,"John":2568,"Ġstanding":2569,"Ġrad":2570,"Ġscarf":2571,"ĠLeo":2572,"iff":2573,"Ġchew":2574,"Ġreturned":2575,"Ġminutes":2576,"Ġpizz":2577,"Ġknowing":2578,"Ġgroup":2579,"Ġhur":2580,"Ġplants":2581,"Ġeasy":2582,"Ġblow":2583,"Ġbedroom":2584,"Ġpolite":2585,"Ġmysterious":2586,"Ġwaves":2587,"Ġglass":2588,"Ġsighed":2589,"ĠRex":2590,"Ġshore":2591,"Ġpri":2592,"Ġseed":2593,"Ġwolf":2594,"Ġseek":2595,"Ġdetermined":2596,"kin":2597,"Stop":2598,"Ġpuzzle":2599,"Ġpowerful":2600,"Ġthankful":2601,"fl":2602,"Ġclass":2603,"Ġner":2604,"Ġpir":2605,"Ġsandwich":2606,"Ġfig":2607,"ĠBr":2608,"Ġsleepy":2609,"Ġprince":2610,"Ġpassed":2611,"Ġdrew":2612,"'d":2613,"ĠBl":2614,"Ġfinger":2615,"Ġjelly":2616,"Ġpizza":2617,"Ġnervous":2618,"Ġfrustrated":2619,"Ġspicy":2620,"Ġgun":2621,"Ġspoil":2622,"Ġmatch":2623,"Ġfancy":2624,"Ġmessy":2625,"osaur":2626,"work":2627,"Ġgate":2628,"Ġbridge":2629,"Ġlock":2630,"ĠMark":2631,"Ġkissed":2632,"Ġtick":2633,"aul":2634,"Ġcloset":2635,"Ġfear":2636,"Ġreg":2637,"af":2638,"Ġfeed":2639,"Ġmot":2640,"Ġsold":2641,"Ġwis":2642,"ĠSusie":2643,"Ġgathered":2644,"Ġav":2645,"Ġexcite":2646,"Ġpoor":2647,"Ġcirc":2648,"ote":2649,"Ġhang":2650,"Ġcaterp":2651,"Ġcaterpill":2652,"Ġesc":2653,"Ġflag":2654,"oop":2655,"Ġpin":2656,"Ġgrumpy":2657,"Ġvan":2658,"iddle":2659,"ella":2660,"Ġdinosaur":2661,"Ġyourself":2662,"ano":2663,"issors":2664,"uce":2665,"Ġanswered":2666,"Ġcries":2667,"Are":2668,"Ġoften":2669,"itter":2670,"Ġtwirl":2671,"selves":2672,"Ġchest":2673,"sist":2674,"Ġscissors":2675,"Ġhopping":2676,"Ġtears":2677,"pack":2678,"gly":2679,"Sorry":2680,"mb":2681,"Ġmummy":2682,"Ġugly":2683,"Ġburn":2684,"Ġcand":2685,"ensive":2686,"Ġdeer":2687,"Ġdrop":2688,"illed":2689,"Ġfil":2690,"Ġexcitement":2691,"era":2692,"izzy":2693,"Ġcaterpillar":2694,"Ġlit":2695,"Ġworking":2696,"Ġmiddle":2697,"Ġexpensive":2698,"Ġscr":2699,"Ġsaved":2700,"Ġtaken":2701,"Ġok":2702,"Ġtrue":2703,"Ġwagged":2704,"Ġones":2705,"Ġpleased":2706,"Ġcrown":2707,"Ġspend":2708,"Ġboring":2709,"Ġpicks":2710,"Ġleg":2711,"que":2712,"oof":2713,"ugar":2714,"Ġvase":2715,"Ġtent":2716,"Ġasking":2717,"body":2718,"ual":2719,"Ġbrush":2720,"Ġtie":2721,"ates":2722,"Ġvegetables":2723,"ecially":2724,"Ġgiggled":2725,"Ġboss":2726,"ete":2727,"Who":2728,"Ġmistake":2729,"Ġcage":2730,"ser":2731,"Ġgets":2732,"light":2733,"Ġrocket":2734,"There":2735,"Ġcap":2736,"Ġmir":2737,"Ġcomfortable":2738,"Ġsugar":2739,"Ġeld":2740,"Ġstuff":2741,"Ġpacked":2742,"Ġdancing":2743,"pecially":2744,"Ġespecially":2745,"ĠToday":2746,"Ġwander":2747,"Ġclown":2748,"Ġmedic":2749,"Ġnumber":2750,"Ġpress":2751,"Ġsight":2752,"ĠDan":2753,"Ġknight":2754,"ggs":2755,"ots":2756,"Ġfruits":2757,"iness":2758,"ĠEventually":2759,"Ġeggs":2760,"Ġlying":2761,"Ġdrum":2762,"Ġpus":2763,"ĠBobby":2764,"Ġfake":2765,"Ġdest":2766,"ror":2767,"Ġmedicine":2768,"Ġwalks":2769,"Ġdistance":2770,"aged":2771,"Ġglue":2772,"Ġsplashed":2773,"Ġsweetie":2774,"Ġbake":2775,"Ġflut":2776,"Ġbone":2777,"ĠBlue":2778,"ĠNo":2779,"Ġdrawing":2780,"Ġmoving":2781,"Ġdisappeared":2782,"ĠU":2783,"Ġweek":2784,"ĠOK":2785,"Ġlead":2786,"Ġsmelly":2787,"Ġclap":2788,"Ġbecome":2789,"Ġlemon":2790,"Ġchange":2791,"ĠKitty":2792,"Ġpray":2793,"Ġfeathers":2794,"ha":2795,"Ġmoms":2796,"Ġlose":2797,"ĠIf":2798,"Ġmov":2799,"Ġlicked":2800,"Ġcalling":2801,"Ġtwist":2802,"Ġdogs":2803,"Ġbathroom":2804,"Ġplayground":2805,"ory":2806,"yal":2807,"Ġfis":2808,"Ġlazy":2809,"Ġroar":2810,"Ġelderly":2811,"Ġweak":2812,"Ġincred":2813,"Ġcri":2814,"Ġgar":2815,"?\".":2816,"Now":2817,"Ġbody":2818,"Ġhorn":2819,"Ġexam":2820,"Ġcrack":2821,"Ġquestions":2822,"Ġadd":2823,"Ġwrote":2824,"Ġyog":2825,"Ġyours":2826,"Ġnoisy":2827,"Ġfather":2828,"Ġmirror":2829,"uggest":2830,"Ġmic":2831,"Ġnod":2832,"Ġsuggest":2833,"ĠFred":2834,"ating":2835,"elp":2836,"ĠPete":2837,"eez":2838,"Ġfluffy":2839,"Ġskipped":2840,"Ġed":2841,"Ġwheel":2842,"Ġeager":2843,"Ġloyal":2844,"Ġlamp":2845,"Ġdish":2846,"Ġext":2847,"Ġclear":2848,"Ġfamous":2849,"land":2850,"ĠEnd":2851,"Ġdig":2852,"Ġstones":2853,"Ġruined":2854,"ination":2855,"Ġrich":2856,"Ġrare":2857,"Ġord":2858,"Ġtape":2859,"ĠMandy":2860,"Ġsell":2861,"Ġdrank":2862,"Ġcontent":2863,"Ġfigure":2864,"Ġqueen":2865,"ĠEllie":2866,"Ġmarch":2867,"Ġincredible":2868,"Ġglow":2869,"Ġmap":2870,"Ġshows":2871,"Ġrid":2872,"ti":2873,"Ġcheck":2874,"Ġjuicy":2875,"Ġsoap":2876,"Ġcovered":2877,"Ġind":2878,"Ġballs":2879,"Ġsailed":2880,"Ġrelax":2881,"Ġaw":2882,"Ġshoot":2883,"illi":2884,"hip":2885,"Ġteam":2886,"ately":2887,"Ġmeasure":2888,"Ġdecide":2889,"Ġrealised":2890,"umbled":2891,"Ġdiscovered":2892,"Ġcoins":2893,"Ġneeds":2894,"Ġborrow":2895,"Ġswan":2896,"Ġstraw":2897,"fic":2898,"Ġadventur":2899,"cept":2900,"Help":2901,"Ġcleaned":2902,"Ġbranches":2903,"Ġtowel":2904,"Ġboys":2905,"Ġextra":2906,"Ġham":2907,"asing":2908,"Be":2909,"imp":2910,"ĠElla":2911,"Well":2912,"Ġboard":2913,"Ġchicken":2914,"Ġbarn":2915,"Ġmod":2916,"Ġtiger":2917,"Ġmotor":2918,"Ġtag":2919,"Ġadventurous":2920,"Ġjoke":2921,"Ġdiffic":2922,"Ġoffered":2923,"Ġfine":2924,"keep":2925,"Ġbalance":2926,"Ġlifted":2927,"ĠBrown":2928,"ique":2929,"Ġbubbles":2930,"Ġcolourful":2931,"ĠMar":2932,"Ġfrown":2933,"Ġturt":2934,"Ġeye":2935,"Ġthick":2936,"ĠRose":2937,"Ġdifficult":2938,"Ġbottom":2939,"Ġtrack":2940,"Ġtoug":2941,"alous":2942,"Ġorganized":2943,"Ġcover":2944,"Ġhappening":2945,"Ġunique":2946,"rag":2947,"Ġjealous":2948,"Ġdolp":2949,"Ġhose":2950,"port":2951,"Ġknife":2952,"ĠBella":2953,"Ġweird":2954,"Ġisland":2955,"ĠBobo":2956,"cil":2957,"Ġgarage":2958,"Ġfright":2959,"Ġmanaged":2960,"imed":2961,"Ġhurts":2962,"Ġpencil":2963,"Ġword":2964,"ject":2965,"Ġcrawled":2966,"Ġcost":2967,"Ġlearning":2968,"Ġarg":2969,"Me":2970,"Ġcircle":2971,"ĠMrs":2972,"Ġsaying":2973,"Ġkindness":2974,"ured":2975,"Ġberries":2976,"Ġonce":2977,"Ġtough":2978,"olog":2979,"Ġmighty":2980,"Ġballoons":2981,"Ġpointing":2982,"Ġchase":2983,"Ġbald":2984,"Ġfavour":2985,"ready":2986,"Ġwand":2987,"ddy":2988,"Ġter":2989,"lies":2990,"keeper":2991,"Ġshake":2992,"iv":2993,"Ġjewel":2994,"Ġlouder":2995,"ipper":2996,"Ġadded":2997,"ages":2998,"Ġbatter":2999,"Ġsil":3000,"Ġhunt":3001,"Ġguit":3002,"Ġharder":3003,"Ġguess":3004,"Ġapolog":3005,"Ġunus":3006,"Ġedge":3007,"head":3008,"Ġalready":3009,"Ġfour":3010,"Ġang":3011,"ĠTweety":3012,"Ġspun":3013,"Ġfavourite":3014,"Ġfool":3015,"Ġnorm":3016,"Ġwhale":3017,"ipp":3018,"Ġunusual":3019,"Ġlibr":3020,"Ġvalu":3021,"rage":3022,"alk":3023,"Ġenjoying":3024,"Ġdizzy":3025,"aw":3026,"Ġhats":3027,"Ġpump":3028,"Ġbelonged":3029,"Ġgrace":3030,"Ġwrapped":3031,"Ġcheerful":3032,"Ġsmoke":3033,"uggled":3034,"Ġimpressed":3035,"Ġstrawber":3036,"ĠMike":3037,"Ġtrucks":3038,"Ġrecord":3039,"Ġgiving":3040,"Ġsword":3041,"Ġmarket":3042,"Ġgrown":3043,"Ġref":3044,"ĠGrandpa":3045,"Ġlaughs":3046,"Ġtrunk":3047,"Ġnormal":3048,"anged":3049,"ĠFr":3050,"Ġgrand":3051,"Ġhero":3052,"Ġears":3053,"Ġguitar":3054,"Ġloudly":3055,"ola":3056,"illiant":3057,"Ġharm":3058,"Ġturtle":3059,"Lila":3060,"Ġbanana":3061,"Here":3062,"Ġproudly":3063,"Ġboxes":3064,"Ġscare":3065,"ature":3066,"ilt":3067,"Ġbrilliant":3068,"Ġchoose":3069,"Ġbrothers":3070,"ery":3071,"Ġcircles":3072,"Ġwhisp":3073,"Ġterri":3074,"Ġbossy":3075,"Ġdreamed":3076,"Ġagainst":3077,"Ġescape":3078,"ym":3079,"Ġgoat":3080,"Ġinvited":3081,"Ġskin":3082,"Ġcab":3083,"Ġhelps":3084,"ĠDave":3085,"gy":3086,"cient":3087,"Ġcompet":3088,"Ġpil":3089,"ipe":3090,"Ġpainting":3091,"Ġmeans":3092,"Ġmelt":3093,"Ġfrightened":3094,"ĠSoph":3095,"Ġaccept":3096,"fast":3097,"Ġpee":3098,"Ġflash":3099,"Ġsafely":3100,"Ġdepend":3101,"Ġbuttons":3102,"Ġslipped":3103,"Ġdesign":3104,"Ġstubb":3105,"Ġbirdie":3106,"Ġjack":3107,"Ġwrap":3108,"Ġvaluable":3109,"Ġcabin":3110,"Ġcrayon":3111,"Ġwake":3112,"Ġstream":3113,"Ġwalls":3114,"Ġhappiness":3115,"ouses":3116,"Ġbreakfast":3117,"Ġlog":3118,"erry":3119,"Ġancient":3120,"edient":3121,"Ġstudy":3122,"Ġsuccessful":3123,"Ġclay":3124,"emo":3125,"orge":3126,"Ġknows":3127,"Ġfoolish":3128,"Ġtoast":3129,"Ġfalls":3130,"Ġfridge":3131,"ye":3132,"Ġlean":3133,"ĠNemo":3134,"Ġstubborn":3135,"Ġunl":3136,"ĠMy":3137,"Ġnicely":3138,"atch":3139,"Ġshape":3140,"apping":3141,"omed":3142,"Ġfier":3143,"Ġcudd":3144,"Ġrough":3145,"Ġdreams":3146,"Ġmovie":3147,"Ġspace":3148,"Ġhouses":3149,"Ġcity":3150,"Ġnosy":3151,"Ġbloom":3152,"Ġdelicate":3153,"ĠLola":3154,"Ġobedient":3155,"Ġfierce":3156,"Ġoffice":3157,"Ġtomato":3158,"Ġfat":3159,"Ġgrandpa":3160,"ado":3161,"az":3162,"laimed":3163,"Ġicy":3164,"Ġcompetit":3165,"Ġsuggested":3166,"Ġshark":3167,"Ġdead":3168,"Ġnotice":3169,"Ġwagon":3170,"pes":3171,"Ġexclaimed":3172,"Ġmem":3173,"Ġkinds":3174,"Ġmixed":3175,"Ġwiped":3176,"Ġcher":3177,"Ġuseful":3178,"ext":3179,"Ġpoured":3180,"Ġshells":3181,"uth":3182,"ÅĵLet":3183,"Ġstri":3184,"Ġlights":3185,"Ġlocked":3186,"Ġsounded":3187,"Ġtools":3188,"Ġthu":3189,"Ġstove":3190,"Ġexcitedly":3191,"Ġexplored":3192,"Ġaunt":3193,"wards":3194,"Ġegg":3195,"Ġfrag":3196,"eorge":3197,"Ġrose":3198,"!\".":3199,"Ġson":3200,"oppy":3201,"Ġshadow":3202,"Ġtimes":3203,"Ġcro":3204,"Ġenc":3205,"Ġbags":3206,"Ġfountain":3207,"ention":3208,"oot":3209,"Ġthemselves":3210,"Ġstumbled":3211,"Ġbushes":3212,"arry":3213,"Ġweal":3214,"ache":3215,"dom":3216,"Ġlow":3217,"Ġshowing":3218,"Ġspoiled":3219,"rell":3220,"Ġfingers":3221,"Ġperform":3222,"Ġlab":3223,"Ġabove":3224,"vice":3225,"Ġthoughtful":3226,"Ġresc":3227,"ĠDucky":3228,"Ġindepend":3229,"kn":3230,"Ġsmaller":3231,"Ġwitch":3232,"Ġdough":3233,"na":3234,"Ġfragile":3235,"Ġdependable":3236,"Ġraced":3237,"Ġjog":3238,"ray":3239,"arth":3240,"ĠWhenever":3241,"Ġplayful":3242,"inal":3243,"Ġseem":3244,"Ġhelm":3245,"Ġspinning":3246,"Ġeng":3247,"Ġtele":3248,"corn":3249,"Ġclock":3250,"Ġbrightly":3251,"ines":3252,"Ġprint":3253,"Ġrode":3254,"Ġstretch":3255,"Ġparrot":3256,"ormous":3257,"Ġdelighted":3258,"Ġbuilt":3259,"Ġadmired":3260,"Ġlaw":3261,"Ġenormous":3262,"ĠSn":3263,"Ġkicked":3264,"Ġroof":3265,"Ġcounted":3266,"Ġjam":3267,"Ġswe":3268,"Ġrat":3269,"Ġpractice":3270,"reen":3271,"Ġorig":3272,"Ġways":3273,"Ġchanged":3274,"Ġshone":3275,"Ġsunfl":3276,"Ġcop":3277,"Ġreminded":3278,"Ġtwig":3279,"Ġacorn":3280,"ither":3281,"Ġcam":3282,"ience":3283,"Ġsniff":3284,"Ġzip":3285,"eeze":3286,"Ġhammer":3287,"Ġindependent":3288,"ĠYour":3289,"Ġusing":3290,"ĠCl":3291,"Ġbitter":3292,"Ġhanded":3293,"Ġwhispered":3294,"Ġhoop":3295,"mbrell":3296,"known":3297,"Ġchose":3298,"Ġchir":3299,"anut":3300,"Ġloll":3301,"Ġjolly":3302,"Ġcone":3303,"Ġumbrell":3304,"Ġtunn":3305,"Ġsolve":3306,"Ġstronger":3307,"Ġbees":3308,"Ġserious":3309,"ipop":3310,"Ġoriginal":3311,"Ġtummy":3312,"Ġsteal":3313,"Ġbeak":3314,"Ġbrace":3315,"Ġterrible":3316,"Ġmis":3317,"ÅĵYes":3318,"ĠBill":3319,"Ġpopcorn":3320,"Ġfre":3321,"Ġlollipop":3322,"Ġpainted":3323,"Ġboats":3324,"Ġallowed":3325,"Ġhairy":3326,"ict":3327,"Ġmoder":3328,"iable":3329,"Ġsauce":3330,"Ġcleaning":3331,"ĠGeorge":3332,"Ġunknown":3333,"Ġleaving":3334,"Ġdust":3335,"Ġgasped":3336,"Ġfinding":3337,"Ġjoined":3338,"Ġguard":3339,"Ġsalad":3340,"Ġpotato":3341,"het":3342,"Ġbean":3343,"Ġpumpkin":3344,"iew":3345,"ĠToby":3346,"Ġpicking":3347,"Ġclum":3348,"inary":3349,"Ġdove":3350,"anger":3351,"Ġbump":3352,"Ġhalf":3353,"Ġsink":3354,"amond":3355,"Ġcostum":3356,"uring":3357,"Ġyet":3358,"robe":3359,"Ġmetal":3360,"Ġtank":3361,"Ġbounce":3362,"Ġreliable":3363,"Ġpost":3364,"Ġtor":3365,"Ġview":3366,"Ġdoesn":3367,"Ġthose":3368,"Ġforth":3369,"aghet":3370,"aghetti":3371,"Ġdiamond":3372,"Ġdolphin":3373,"Ġadvice":3374,"ĠOnce":3375,"com":3376,"Ġhay":3377,"Ġbarber":3378,"pid":3379,"Ġmodern":3380,"Ġstamp":3381,"Ġrubb":3382,"Ġthinking":3383,"Ġgem":3384,"Ġing":3385,"Ġholds":3386,"gu":3387,"ebra":3388,"Ġpirate":3389,"ugged":3390,"Ġmarble":3391,"Ġcreate":3392,"How":3393,"Ġregular":3394,"redient":3395,"Ġingredient":3396,"Ġclumsy":3397,"Ġsleeping":3398,"ĠKim":3399,"Ġsearching":3400,"Ġstairs":3401,"Ġwealthy":3402,"Ġyarn":3403,"See":3404,"Ġrushed":3405,"Ġstupid":3406,"Ġprep":3407,"ilty":3408,"Ġtelling":3409,"Ġspaghetti":3410,"Ġguilty":3411,"Ġcheap":3412,"ĠPe":3413,"Ġpeanut":3414,"Ġgoose":3415,"Ġchar":3416,"ÅĵWhat":3417,"cu":3418,"Ġrub":3419,"Ġmagn":3420,"ations":3421,"Ġflex":3422,"Ġcompass":3423,"Ġopens":3424,"Ġmask":3425,"Ġpatch":3426,"Ġstat":3427,"Ġarrow":3428,"Ġzebra":3429,"Ġengine":3430,"io":3431,"Ġthunder":3432,"Ġknock":3433,"Ġsquare":3434,"illa":3435,"eezed":3436,"irsty":3437,"Ġangel":3438,"Ġcur":3439,"ĠBear":3440,"Ġgraceful":3441,"Ġcamera":3442,"Ġumbrella":3443,"cod":3444,"Ġdriving":3445,"Ġbull":3446,"Ġcrazy":3447,"âĤ¬âĢ":3448,"ĠBa":3449,"Ġshiver":3450,"Ġwashed":3451,"Ġcarrying":3452,"Ġstage":3453,"isk":3454,"Ġpopular":3455,"Ġbeet":3456,"Ġdull":3457,"umbers":3458,"ĠPolly":3459,"ÅĵIt":3460,"Ġmissing":3461,"Ġsparkled":3462,"Ġfriendship":3463,"Ġtruth":3464,"shion":3465,"Ġmeal":3466,"ĠSophie":3467,"Go":3468,"Ġseeds":3469,"fa":3470,"Ġflexible":3471,"Ġimpressive":3472,"Ġsne":3473,"Ġtied":3474,"Ġpebble":3475,"time":3476,"Ġcareless":3477,"Ġlibrary":3478,"Ġimagined":3479,"Ġcomb":3480,"Ġfresh":3481,"Ġdeliver":3482,"Ġnature":3483,"Ġshel":3484,"Ġending":3485,"Ġpatter":3486,"Ġdestro":3487,"Ġjacket":3488,"Ġpersist":3489,"Ġreward":3490,"Ġhandle":3491,"ision":3492,"Ġrubbed":3493,"ĠRo":3494,"Ġingredients":3495,"Ġdreaming":3496,"Ġshocked":3497,"ĠAlex":3498,"ric":3499,"Ġprize":3500,"oomy":3501,"Ġsudden":3502,"Ġcrocod":3503,"Ġload":3504,"Ġenth":3505,"ief":3506,"ibb":3507,"Ġpige":3508,"Ġpattern":3509,"Ġcompassion":3510,"Ġenvel":3511,"ĠNext":3512,"Ġflashlight":3513,"Ġthirsty":3514,"Ġsadly":3515,"Ġencou":3516,"Re":3517,"Ġstranger":3518,"arsh":3519,"ince":3520,"Ġenthus":3521,"Ġwheels":3522,"Ġdesk":3523,"ÅĵLetÃ¢":3524,"ement":3525,"ĠJoey":3526,"Ġreading":3527,"Ġwire":3528,"Ġdiscover":3529,"Ġearly":3530,"Ġmailbox":3531,"Ġfork":3532,"Ġsuit":3533,"Ġnumbers":3534,"Ġtem":3535,"Ġpeeked":3536,"ĠAndy":3537,"Ġpenny":3538,"Ġbutterflies":3539,"awn":3540,"Ġcryst":3541,"Ġspilled":3542,"Ġbracelet":3543,"Ġtorn":3544,"Ġrug":3545,"Ġgum":3546,"Ġstops":3547,"loo":3548,"Ġrece":3549,"Ġenv":3550,"Ġcomput":3551,"Ġahead":3552,"Ġspring":3553,"bled":3554,"Ġorder":3555,"Ġtowers":3556,"comfort":3557,"Ġsorts":3558,"Ġobject":3559,"ellig":3560,"Ġwing":3561,"Ġbent":3562,"Ġcere":3563,"Ġanx":3564,"Ġsurf":3565,"Ġpengu":3566,"Ġearth":3567,"Ġintellig":3568,"Ġwarned":3569,"Ġwindows":3570,"Ġspoke":3571,"Ġpow":3572,"Ġpup":3573,"gest":3574,"Ġhumble":3575,"Ġuncomfort":3576,"Ġavo":3577,"Ġpant":3578,"Ġnote":3579,"Ġuncomfortable":3580,"Ġplaced":3581,"Yay":3582,"iches":3583,"Ġsunflower":3584,"Ġpale":3585,"Ġtravel":3586,"Ġsuper":3587,"Ġbadly":3588,"Ġolder":3589,"Ġslides":3590,"Ġanxious":3591,"ikes":3592,"Ġbiggest":3593,"Ġscale":3594,"Ġcompl":3595,"ĠcouldnÃ¢":3596,"Ġstack":3597,"Ġflute":3598,"Ġtrap":3599,"Ġstatue":3600,"Ġscoot":3601,"Ow":3602,"Ġcounting":3603,"Ġgrowing":3604,"Ġcooking":3605,"Ġcomplet":3606,"Ġliz":3607,"Ġtunnel":3608,"Ġbeetle":3609,"Ġcelebrate":3610,"host":3611,"Ġmel":3612,"They":3613,"Ġcupboard":3614,"Ġmush":3615,"Ġsofa":3616,"Ġnail":3617,"Ġharmless":3618,"Ġscatter":3619,"ĠPaul":3620,"Ġbeauty":3621,"Ġmole":3622,"Ġdeaf":3623,"Ġvalue":3624,"Ġnurse":3625,"Ġperm":3626,"ĠHere":3627,"Ġer":3628,"Ġshut":3629,"Ġpersistent":3630,"Ġjumps":3631,"Ġcrocodile":3632,"Ġhung":3633,"Ġghost":3634,"Ġgifted":3635,"ĠCharl":3636,"Ġrefused":3637,"Ġcharming":3638,"Ġtrick":3639,"ĠGive":3640,"Ġneat":3641,"Ġnames":3642,"ĠPat":3643,"Ġcourage":3644,"opus":3645,"Ġyawn":3646,"Ġflour":3647,"ctopus":3648,"Ġcrane":3649,"Ġcurt":3650,"Ġpretending":3651,"cream":3652,"Ġpony":3653,"Ġcereal":3654,"Ġbase":3655,"Ġsandwiches":3656,"ices":3657,"Ġraven":3658,"Ġsnuggled":3659,"Ġcurtain":3660,"Ġdestroy":3661,"Ġsupport":3662,"Ġtur":3663,"Ġordinary":3664,"Ġchasing":3665,"Ġuniver":3666,"ĠLook":3667,"aid":3668,"Ġquestion":3669,"Ġenvelope":3670,"aches":3671,"Ġdrawer":3672,"Ġtriang":3673,"Ġvi":3674,"Ġcamp":3675,"ĠUn":3676,"Ġsett":3677,"ud":3678,"Ġcomputer":3679,"Ġoctopus":3680,"Ġattract":3681,"Ġrules":3682,"Ġcrawl":3683,"Ġlively":3684,"Ġsend":3685,"Ġgloomy":3686,"Ġcartoon":3687,"Ġuncle":3688,"ips":3689,"Ġintelligent":3690,"He":3691,"Ġmay":3692,"Ġpiano":3693,"Tommy":3694,"Ġspeed":3695,"Ġpackage":3696,"Ġblueber":3697,"Ġshaking":3698,"Ġfu":3699,"Ġhelmet":3700,"Ġcrystal":3701,"Ġneedle":3702,"Ġmushroom":3703,"Ġturkey":3704,"oe":3705,"Ġcollar":3706,"Ġparade":3707,"Ġcreatures":3708,"stri":3709,"heart":3710,"ÅĵThat":3711,"Ġhurry":3712,"Ġtwirled":3713,"Ġphot":3714,"Ġlizard":3715,"enry":3716,"erable":3717,"aff":3718,"orant":3719,"ubby":3720,"Ġalert":3721,"und":3722,"Ġmiserable":3723,"Max":3724,"Ġthief":3725,"gust":3726,"Ġstation":3727,"Ġsoldier":3728,"Ġhunter":3729,"Ġpepper":3730,"ceed":3731,"Ġtask":3732,"illie":3733,"Ġanywhere":3734,"Ġdug":3735,"Ġdisgust":3736,"Ġbicy":3737,"Ġfireman":3738,"Ġener":3739,"cut":3740,"Ġcarp":3741,"ĠGrace":3742,"iest":3743,"ĠBefore":3744,"ses":3745,"Ġwishes":3746,"Ġseal":3747,"Ġresist":3748,"Ġled":3749,"Ġvide":3750,"Ġbeep":3751,"Ġignorant":3752,"Ġbandage":3753,"Ġstickers":3754,"coa":3755,"ĠBrownie":3756,"Ġscreen":3757,"Ġradio":3758,"Ġhelpless":3759,"Ġbounced":3760,"tter":3761,"Ġtrash":3762,"Give":3763,"Ġsecond":3764,"Ġleash":3765,"Ġrepe":3766,"Ġpracticed":3767,"Ġmuff":3768,"Ġshine":3769,"Ġchance":3770,"Ġletters":3771,"Ġattractive":3772,"Ġimpat":3773,"Ġmill":3774,"Ġstirred":3775,"Ġcricket":3776,"Ġjeep":3777,"Ġstretched":3778,"Ġnobody":3779,"urb":3780,"Ġthread":3781,"Ġpasta":3782,"Ġcube":3783,"Ġpand":3784,"Ġchubby":3785,"Ġtooth":3786,"ummer":3787,"Ġpigeon":3788,"Ġjet":3789,"Ġgir":3790,"ĠAnnie":3791,"Ġcompassionate":3792,"ccol":3793,"ĠSh":3794,"If":3795,"Ġclub":3796,"ccoli":3797,"Ġtrump":3798,"Ġdisturb":3799,"orable":3800,"Ġdecorate":3801,"ĠTweetie":3802,"Ġcocoa":3803,"Ġbrighter":3804,"Ġjug":3805,"Ġimpatient":3806,"Ġsteps":3807,"arian":3808,"Ġtire":3809,"Ġcompetitive":3810,"Ġfurther":3811,"Ġotter":3812,"Ġrespectful":3813,"Ġsucceed":3814,"Timmy":3815,"Ġtroubled":3816,"Ġpressed":3817,"olin":3818,"Ġitself":3819,"aked":3820,"Ġbet":3821,"Ġostri":3822,"noon":3823,"Ġcandle":3824,"Ġmug":3825,"Ġafternoon":3826,"ĠJerry":3827,"Ġattic":3828,"Ġrestless":3829,"Ġstarts":3830,"Ġpun":3831,"Ġtap":3832,"Ġsomewhere":3833,"ĠBet":3834,"ĠAre":3835,"Ġribb":3836,"aurant":3837,"stic":3838,"Ġdess":3839,"Ġquar":3840,"Ġcarpet":3841,"Ġanyway":3842,"Ġshouts":3843,"Ġshoe":3844,"Ġdisgusting":3845,"Ġadorable":3846,"Ġrestaurant":3847,"Ġskip":3848,"Ġleop":3849,"Ġfort":3850,"gn":3851,"Ġpants":3852,"Ġvine":3853,"ĠWhere":3854,"Ġtray":3855,"Ġnuts":3856,"Ġwaff":3857,"Ġcase":3858,"come":3859,"Ġgor":3860,"Ġfearful":3861,"Ġscrew":3862,"Ġenvious":3863,"Ġsweetheart":3864,"opter":3865,"Ġcards":3866,"Ġallig":3867,"ĠTr":3868,"icopter":3869,"iastic":3870,"Ġdistant":3871,"Ġbroccoli":3872,"Ġenthusiastic":3873,"enny":3874,"Ġhipp":3875,"Ġfilthy":3876,"Ġgiggle":3877,"Ġexper":3878,"ĠLee":3879,"Ġtrumpet":3880,"Ġcooked":3881,"Ġhelicopter":3882,"Ġmonkeys":3883,"ĠEverything":3884,"night":3885,"Ġreco":3886,"Ġpor":3887,"ĠWill":3888,"irit":3889,"Ġsandbox":3890,"aroo":3891,"angaroo":3892,"Ġhook":3893,"Ġharsh":3894,"ĠWould":3895,"ĠCharlie":3896,"Ġbri":3897,"ĠLilly":3898,"Ġadmire":3899,"Ġnowhere":3900,"Ġten":3901,"Ġbackpack":3902,"gging":3903,"Ġsoar":3904,"Ġsent":3905,"Ġbelt":3906,"Ġbatht":3907,"gie":3908,"Ġexplain":3909,"Ġscooter":3910,"Ġants":3911,"Ġmeas":3912,"opl":3913,"Ġpoem":3914,"eropl":3915,"Ġcountry":3916,"ĠSnow":3917,"cycle":3918,"Ġbathtub":3919,"Ġpipe":3920,"Ġaeropl":3921,"Ġbarking":3922,"Ġquite":3923,"Ġunpack":3924,"stairs":3925,"par":3926,"Ġcows":3927,"Ġspeak":3928,"Ġkangaroo":3929,"Ġlid":3930,"Ġsquash":3931,"ĠHenry":3932,"Ġleopard":3933,"Ġmama":3934,"Ġhappier":3935,"Ġspell":3936,"Ġrepair":3937,"ĠRed":3938,"Ġlistening":3939,"Ġbicycle":3940,"Ġsepar":3941,"imi":3942,"Ġsummer":3943,"ĠMaria":3944,"ĠSm":3945,"Ġstared":3946,"ĠPap":3947,"Ġgrabs":3948,"Ġmessage":3949,"Ġbreat":3950,"ĠdidnÃ¢":3951,"uct":3952,"Ġostrich":3953,"Ġfirework":3954,"Ġhuman":3955,"Ġloop":3956,"Ġgiven":3957,"Ġcomet":3958,"Ġmule":3959,"hood":3960,"ĠMillie":3961,"Ġsort":3962,"Ġimpro":3963,"Ġgorilla":3964,"Ġmodest":3965,"Ġpaid":3966,"Ġfinds":3967,"year":3968,"Ġyogurt":3969,"ĠBaby":3970,"Ġdessert":3971,"Ġmeat":3972,"Ġobser":3973,"Ġviolin":3974,"Ġur":3975,"Bye":3976,"Ġhedge":3977,"ipping":3978,"Ġspirit":3979,"ĠSandy":3980,"Ġpulls":3981,"Ġtripped":3982,"Ġjellyfish":3983,"Ġmelon":3984,"Ġsplit":3985,"ĠBunny":3986,"Ġpaws":3987,"ĠKate":3988,"Ġalligator":3989,"Ġfle":3990,"Ġrescue":3991,"Ġsize":3992,"Ġholes":3993,"ĠPapa":3994,"Ġprov":3995,"ucked":3996,"ĠJess":3997,"Ġroared":3998,"Ġfive":3999,"Ġforgave":4000,"Ġcats":4001,"Ġwheat":4002,"Ġpurse":4003,"Ġrecogn":4004,"Ġhippo":4005,"Ġpilot":4006,"Ġhall":4007,"Ġtax":4008,"Ġsheet":4009,"Ġpal":4010,"Ġcact":4011,"Ġinse":4012,"Ġpushing":4013,"ophone":4014,"Ġbikes":4015,"Ġorganize":4016,"ci":4017,"Ġswinging":4018,"Ġsle":4019,"Ġraft":4020,"ĠMimi":4021,"Ġsalt":4022,"Ġscold":4023,"ĠMag":4024,"Ġstarting":4025,"Ġshade":4026,"Ġbehave":4027,"Ġbin":4028,"ĠTed":4029,"Ġlightning":4030,"Ġoat":4031,"Ġrice":4032,"Ġhaircut":4033,"Ġbrus":4034,"Ġtriangle":4035,"eer":4036,"Ġbuzz":4037,"Ġenergy":4038,"ĠBuddy":4039,"iskers":4040,"ÅĵYou":4041,"Ġbur":4042,"Ġknot":4043,"Ġfrowned":4044,"bul":4045,"Ġlear":4046,"aled":4047,"Ġlearnt":4048,"Ġeither":4049,"Ġporch":4050,"Ġmath":4051,"Ġriding":4052,"Ġped":4053,"Ġlip":4054,"lcano":4055,"seum":4056,"Ġtrains":4057,"ebook":4058,"Ġended":4059,"Ġnotebook":4060,"Ġsticker":4061,"iling":4062,"inking":4063,"ĠDanny":4064,"Ġlend":4065,"ĠRos":4066,"Ġwallet":4067,"Ġluck":4068,"Ġevening":4069,"reci":4070,"Ġpanda":4071,"ĠWhiskers":4072,"Ġcactus":4073,"Ġjokes":4074,"Ġchalk":4075,"Ġbananas":4076,"Ġpapers":4077,"Ġrod":4078,"Ġmuseum":4079,"Ġsweater":4080,"Ġappreci":4081,"Ġlions":4082,"Ġpalace":4083,"Ġtaxi":4084,"Ġvolcano":4085,"ube":4086,"Ġshopkeeper":4087,"Ġchain":4088,"Ġstrawberry":4089,"Ġbears":4090,"Ġrolling":4091,"Ġboots":4092,"Ġeras":4093,"Ġhadn":4094,"astic":4095,"Ġneighbour":4096,"Ġbarrel":4097,"Ġshakes":4098,"ffe":4099,"Ġmicr":4100,"icer":4101,"ffee":4102,"ooped":4103,"Ġsilver":4104,"urch":4105,"Ġlaund":4106,"Ġalive":4107,"Ġsmells":4108,"Ġmild":4109,"ĠRu":4110,"play":4111,"Ġreind":4112,"Ġsock":4113,"Ġlaundry":4114,"Ġsteak":4115,"Ġavoc":4116,"Ġink":4117,"Ġpole":4118,"Ġstrugg":4119,"iron":4120,"Ġpushes":4121,"Ġputting":4122,"Ġvisited":4123,"Ġgoal":4124,"Ġsoftly":4125,"Ġmagnet":4126,"Ġjudge":4127,"ĠTony":4128,"edy":4129,"Ġtricks":4130,"Ġdrawings":4131,"Ġmicrophone":4132,"Ġclapping":4133,"Ġpad":4134,"Ġol":4135,"Ġhive":4136,"Ġshield":4137,"Ġtube":4138,"Ġleaned":4139,"Ġcolours":4140,"Ġsailor":4141,"Ġshovel":4142,"Ġairport":4143,"Ġzoomed":4144,"Ġfalling":4145,"Ġrag":4146,"Ġbelongs":4147,"Ġshelter":4148,"ĠBun":4149,"Ġunlock":4150,"Ġsprink":4151,"ĠInst":4152,"Ġchecked":4153,"ĠHarry":4154,"elery":4155,"Ġinsist":4156,"Ġpenguin":4157,"Ġquarrel":4158,"happy":4159,"Ġambul":4160,"Ġclimbing":4161,"Ġmarched":4162,"Ġgro":4163,"Ġdisplay":4164,"Ġreindeer":4165,"cast":4166,"hino":4167,"Ġsaus":4168,"ense":4169,"Ġaeroplane":4170,"Ġdive":4171,"Ġdishes":4172,"ophy":4173,"Ġpolish":4174,"Ġbarks":4175,"ges":4176,"Ġavail":4177,"ĠdonÃ¢":4178,"Ġfields":4179,"Ġgrapes":4180,"Mia":4181,"Ġsandcast":4182,"Ġambulance":4183,"Ġpeek":4184,"ĠOr":4185,"ait":4186,"Ġapologized":4187,"Ġyach":4188,"Ġsoil":4189,"Ġcoffee":4190,"Ġskill":4191,"sely":4192,"Ġcostume":4193,"Ġelev":4194,"Ġoy":4195,"Ġtrophy":4196,"Ġfeelings":4197,"Ġplanet":4198,"Ġhoping":4199,"anic":4200,"Ġfilm":4201,"Ġprun":4202,"Ġart":4203,"Ġrubber":4204,"Dad":4205,"ron":4206,"Ġunhappy":4207,"Ġdrops":4208,"Ġshrimp":4209,"nger":4210,"Ġmedal":4211,"Ġkitty":4212,"âĤ¬âĢľ":4213,"Ġthanks":4214,"Ġraining":4215,"Ġmen":4216,"chanic":4217,"Ġstom":4218,"Ġminute":4219,"Ġelevator":4220,"Ġcelery":4221,"Ġcord":4222,"Ġonion":4223,"Ġrhino":4224,"Ġavailable":4225,"ected":4226,"Ġeraser":4227,"Ġincl":4228,"Ġpage":4229,"Ġshort":4230,"Ġyacht":4231,"reeze":4232,"Ġshouldn":4233,"Ġfisher":4234,"Ġperfectly":4235,"Ġimagine":4236,"Ġwool":4237,"Ġmarry":4238,"Ġwinter":4239,"Ġbasketball":4240,"Ġmechanic":4241,"Ġdiary":4242,"nam":4243,"Ġbul":4244,"Ġherb":4245,"ĠKat":4246,"Ġflies":4247,"Ġcomplete":4248,"Ġrever":4249,"Ġappl":4250,"ĠAb":4251,"Ġclosely":4252,"aused":4253,"Ġcardboard":4254,"Ġinsect":4255,"Ġmagaz":4256,"Ha":4257,"Ġeagerly":4258,"Ġplayer":4259,"eath":4260,"Ġjournal":4261,"ĠSmith":4262,"Jim":4263,"Ġbaking":4264,"Ġvend":4265,"Ġquit":4266,"Ġfurn":4267,"Ġglove":4268,"iture":4269,"Ġdisag":4270,"ĠJames":4271,"Ġfurniture":4272,"Ġstuffed":4273,"Ġtub":4274,"Ġbreaks":4275,"Ġimagination":4276,"Ġbulb":4277,"Ġtreasures":4278,"Ġchurch":4279,"gen":4280,"ecause":4281,"Ġcounter":4282,"Ġwife":4283,"Ġheaded":4284,"any":4285,"Ġcooler":4286,"azz":4287,"Ġpair":4288,"Ġfreez":4289,"Ġfrogs":4290,"ĠMiss":4291,"Ġtut":4292,"quit":4293,"ĠJul":4294,"Ġskull":4295,"mand":4296,"ories":4297,"Ġpit":4298,"Ġknob":4299,"ween":4300,"Ġfactor":4301,"Ġswitch":4302,"Ġfootball":4303,"place":4304,"Ġoffer":4305,"ides":4306,"Ġsunset":4307,"Ġbetween":4308,"Ġlie":4309,"ĠInstead":4310,"ifl":4311,"ĠClara":4312,"aulifl":4313,"Ġcheek":4314,"Ġsym":4315,"Ġswung":4316,"Ġfactory":4317,"Ġcups":4318,"Ġmotorcycle":4319,"pe":4320,"right":4321,"Ġchirp":4322,"Ġmos":4323,"quito":4324,"Ġflame":4325,"Ġtwink":4326,"..":4327,"Ġshouting":4328,"nament":4329,"Ġpainter":4330,"Ġgolf":4331,"Ġpeach":4332,"Ġornament":4333,"kelet":4334,"Ġblowing":4335,"Ġhut":4336,"Ġsung":4337,"affe":4338,"Ġhotel":4339,"Jack":4340,"Ġseeing":4341,"Ġcaulifl":4342,"Ġfolder":4343,"Ġvendor":4344,"ccer":4345,"lass":4346,"Ġvideo":4347,"Ġmixer":4348,"Mama":4349,"izes":4350,"bol":4351,"Ġthrows":4352,"Ġpirates":4353,"Ġcreated":4354,"orses":4355,"Ġheads":4356,"Ġoil":4357,"Ġkay":4358,"Ġframe":4359,"Ġmosquito":4360,"ĠMaggie":4361,"angu":4362,"Mum":4363,"mm":4364,"ĠMay":4365,"Ġcushion":4366,"Ġsoccer":4367,"Ġfisherman":4368,"Ġcoal":4369,"zzy":4370,"Ġsymbol":4371,"Ġhorses":4372,"Ġcable":4373,"ceros":4374,"Ġpopped":4375,"Ġlangu":4376,"ab":4377,"Ġwipe":4378,"Ġpine":4379,"Ġattention":4380,"Ġskelet":4381,"Ġbattery":4382,"Molly":4383,"Ġpowder":4384,"Ġcauliflower":4385,"Ġstud":4386,"Ġlaser":4387,"ĠGod":4388,"render":4389,"Ġforgotten":4390,"Ġweather":4391,"rod":4392,"Ġlives":4393,"Ġmop":4394,"Ġcelebrated":4395,"Ġfishing":4396,"Ġax":4397,"ef":4398,"Ġrot":4399,"Ġsince":4400,"Ġtrail":4401,"ĠIÃ¢":4402,"elcome":4403,"Ġmaze":4404,"aws":4405,"Ġphoto":4406,"ites":4407,"Ġyoga":4408,"Ġsurround":4409,"Ġwaving":4410,"Ġslept":4411,"Ġsneak":4412,"Ġanch":4413,"Ġdear":4414,"unately":4415,"Ġgiraffe":4416,"Ġintrod":4417,"Ġrhinoceros":4418,"Ġpoke":4419,"Ġswamp":4420,"ple":4421,"Ġflea":4422,"Ġpoints":4423,"Ġitch":4424,"Ġpoint":4425,"Ġglowing":4426,"ĠitÃ¢":4427,"Ġfireplace":4428,"Ġbreeze":4429,"ney":4430,"lasses":4431,"Ġsub":4432,"Ġvet":4433,"Ġsunglasses":4434,"Your":4435,"Ġkingdom":4436,"Ġmemories":4437,"Ġtutor":4438,"Ġstreng":4439,"Ġtuna":4440,"Ġiron":4441,"Ġreve":4442,"ĠRosie":4443,"Ġvest":4444,"spap":4445,"Ġpetals":4446,"Ġfog":4447,"Ġmistakes":4448,"Ġaxe":4449,"ĠSte":4450,"Ġcomplain":4451,"Ġbaseball":4452,"Ġdancer":4453,"Ġchickens":4454,"Ġparent":4455,"Ġig":4456,"hero":4457,"Ġnewspap":4458,"Ġstrength":4459,"Ġgreedy":4460,"Ġceiling":4461,"ckey":4462,"Ġsquirrels":4463,"Ġhockey":4464,"Ġigloo":4465,"Ġsir":4466,"ĠTrue":4467,"Ġgrin":4468,"chie":4469,"Ġanchor":4470,"Ġskeleton":4471,"rosc":4472,"Ġsniffed":4473,"Ġgrocer":4474,"Ġsuperhero":4475,"Ġargue":4476,"Ġnapkin":4477,"Ġgolden":4478,"ues":4479,"Ġhanging":4480,"Ġtrave":4481,"Ġmusician":4482,"medi":4483,"Ġskirt":4484,"roscope":4485,"Ġstaff":4486,"Ġtemple":4487,"Ġunif":4488,"Ġagree":4489,"Ġsque":4490,"Ġbury":4491,"mediately":4492,"Ġtheater":4493,"Ġdiscu":4494,"Ġuniform":4495,"Ġeaten":4496,"Ġslipper":4497,"Ġwelcomed":4498,"Ġseas":4499,"Ġshoulder":4500,"Ġzipper":4501,"Ġquietly":4502,"Ġmeeting":4503,"ssible":4504,"Ġlime":4505,"Ġinvest":4506,"istol":4507,"Ġmicroscope":4508,"sing":4509,"Ġpinch":4510,"chair":4511,"Ġflapped":4512,"Ġslippery":4513,"Ġaccepted":4514,"Ġfought":4515,"Ġinvestig":4516,"erc":4517,"Ġpistol":4518,"Ġdoors":4519,"Ġminer":4520,"reek":4521,"Ġradish":4522,"Ġplastic":4523,"Ġthrowing":4524,"Ġcalls":4525,"Ġbouncing":4526,"tress":4527,"Ġmattress":4528,"men":4529,"Ġsurrender":4530,"Ġcob":4531,"aces":4532,"house":4533,"Ġpear":4534,"Ġcreek":4535,"Ġvroom":4536,"Ġkayak":4537,"tain":4538,"Ġmoves":4539,"Ġsticky":4540,"Qu":4541,"Ġlawy":4542,"Ġnovel":4543,"Wait":4544,"llie":4545,"alley":4546,"Ġcub":4547,"Ġavocado":4548,"Ġcared":4549,"Ġsuff":4550,"Ġfreezer":4551,"Ġlotion":4552,"aud":4553,"case":4554,"ison":4555,"ler":4556,"te":4557,"ĠFirst":4558,"was":4559,"Ġfauc":4560,"And":4561,"ĠTina":4562,"Ġarmchair":4563,"Ġwriting":4564,"inked":4565,"Ġreef":4566,"Ġmakeup":4567,"Ġmystery":4568,"Ġvalley":4569,"web":4570,"Ġtug":4571,"Ġinvestigate":4572,"Ġnews":4573,"Ġsailing":4574,"Ġcherries":4575,"Ġregret":4576,"Ġcrib":4577,"washer":4578,"imney":4579,"Ġexerc":4580,"Ġoyster":4581,"Ġfaucet":4582,"Ġagre":4583,"Ġsplashing":4584,"Ġticket":4585,"Ġcollected":4586,"Ġworth":4587,"Ġchimney":4588,"Ġtoil":4589,"Ġpresents":4590,"Ġdishwasher":4591,"Ġmagazine":4592,"Ġhappens":4593,"Ġsprayed":4594,"Ġwags":4595,"ÅĵItÃ¢":4596,"Ġprevent":4597,"Ġcobweb":4598,"Ġquack":4599,"Ġveil":4600,"Ġcastles":4601,"Ġentered":4602,"Ġtear":4603,"Ġshrugged":4604,"Ġhar":4605,"Ġpassport":4606,"Ġapplaud":4607,"Ġchess":4608,"Ġseparate":4609,"Ġscolded":4610,"Thanks":4611,"Ġweigh":4612,"Ġtoilet":4613,"Ġalarm":4614,"ives":4615,"ĠSee":4616,"Ġblankets":4617,"Ġrake":4618,"Ġignored":4619,"Ġtucked":4620,"Ġlawyer":4621,"Ġchoice":4622,"ived":4623,"Ġhopes":4624,"Ġattach":4625,"Ġcoats":4626,"sit":4627,"Ġcandles":4628,"Ġfollows":4629,"Ġkisses":4630,"Ġappro":4631,"Ġclassroom":4632,"ring":4633,"Ġpuddles":4634,"Ġeasily":4635,"Ġapart":4636,"ety":4637,"Ġdisappear":4638,"ĠFreddy":4639,"Ġbeef":4640,"Ġchairs":4641,"Ġburned":4642,"Ġbother":4643,"ĠSad":4644,"Ġletting":4645,"Ġstraight":4646,"eterin":4647,"eterinarian":4648,"Ġyield":4649,"Ġward":4650,"Ġdressed":4651,"Ġcane":4652,"Ġtrusted":4653,"ĠMe":4654,"Ġlanguage":4655,"Ġsizes":4656,"Ġveterinarian":4657,"Ġraz":4658,"Ġteleph":4659,"raged":4660,"Ġcaring":4661,"Ġplanes":4662,"Ġwardrobe":4663,"Ġjewelry":4664,"atched":4665,"Ġblinked":4666,"iday":4667,"Ġshower":4668,"Ġrise":4669,"Ġmissile":4670,"Ġkeeping":4671,"Ġlawn":4672,"Ġrequ":4673,"Ġstable":4674,"Ġcabinet":4675,"Ġcrossed":4676,"Ġoak":4677,"Ġble":4678,"ĠHowever":4679,"Ġbookshe":4680,"vision":4681,"Ġstro":4682,"Ġtelephone":4683,"Ġnewspaper":4684,"mend":4685,"Ġclaws":4686,"Ġrooms":4687,"Ġwhisper":4688,"Ġsigh":4689,"Ġpuzzles":4690,"Ġaut":4691,"Ġtrade":4692,"Ġincre":4693,"ival":4694,"Ġcell":4695,"Ġtornado":4696,"Ġscratch":4697,"una":4698,"anges":4699,"Ġbookcase":4700,"Ġinf":4701,"ampoo":4702,"ĠMilly":4703,"Ġblueberries":4704,"Ġsnap":4705,"Ġamazement":4706,"Ġperfu":4707,"ction":4708,"ommend":4709,"Ġsqueezed":4710,"Ġbookshelf":4711,"Ġrecommend":4712,"Ġopera":4713,"Ġsubway":4714,"Ġpra":4715,"ĠRuby":4716,"Ġgym":4717,"Ġdelay":4718,"Ġgrill":4719,"ĠHelp":4720,"Ġrazor":4721,"Ġblouse":4722,"Ġrequest":4723,"Ġcrawling":4724,"Ġpur":4725,"Ġpoked":4726,"âĤ¬.":4727,"Ġtelevision":4728,"Ġbill":4729,"Ġhol":4730,"ggy":4731,"Ġfollowing":4732,"omes":4733,"iction":4734,"Ġshampoo":4735,"Ġfile":4736,"Ġlicks":4737,"Ġspear":4738,"Ġsqueeze":4739,"Ġholiday":4740,"Because":4741,"Ġexperience":4742,"Ġlumber":4743,"Ġimprove":4744,"ĠIs":4745,"Ġmint":4746,"Ġperfume":4747,"Ġserve":4748,"Ġdemand":4749,"Ġsteam":4750,"Ġcliff":4751,"Ġringing":4752,"Ġcrow":4753,"fortunately":4754,"ictionary":4755,"ah":4756,"bbie":4757,"Ġribbon":4758,"Ġimmediately":4759,"Ġhelper":4760,"ĠFo":4761,"Ġmuffin":4762,"Ġfest":4763,"Ġgrowled":4764,"Ġisn":4765,"Ġbegged":4766,"Ġdictionary":4767,"Ġmatches":4768,"Ġshrink":4769,"Ġwaste":4770,"Ġblood":4771,"Ġbirdc":4772,"Ġprop":4773,"Ġideas":4774,"Ġwarmth":4775,"ĠSnowy":4776,"ib":4777,"Ġmustache":4778,"Ġsneeze":4779,"ores":4780,"Ġinvite":4781,"hic":4782,"ĠPeople":4783,"Ġgear":4784,"Ġbirdcage":4785,"Ġvehic":4786,"Ġfuel":4787,"ups":4788,"Ġalright":4789,"alend":4790,"ĠLuck":4791,"Ġrabbits":4792,"asis":4793,"Ġcalend":4794,"Ġweep":4795,"Ġyucky":4796,"Ġflutter":4797,"Ġinstr":4798,"ĠLuckily":4799,"Ġfallen":4800,"Ġmarried":4801,"Ġberry":4802,"lier":4803,"Ġrail":4804,"Ġrow":4805,"ĠEach":4806,"Ġpastry":4807,"Ġrefre":4808,"ucture":4809,"Did":4810,"Ġworms":4811,"Ġstructure":4812,"Ġlaught":4813,"Ġsurprises":4814,"Ġbravely":4815,"Ġbelow":4816,"Ġcalendar":4817,"Ġoasis":4818,"Ġwandered":4819,"Ġwigg":4820,"Ġkneel":4821,"ising":4822,"Ġdire":4823,"Ġunderstanding":4824,"Ġhurting":4825,"Ġlaughter":4826,"omeday":4827,"Ġdrain":4828,"Ġpages":4829,"Ġfloat":4830,"Ġhearts":4831,"Ok":4832,"Ġenter":4833,"ĠKatie":4834,"Ġairpl":4835,"inky":4836,"Ġitem":4837,"omob":4838,"ĠKing":4839,"Ġharb":4840,"Ġreaches":4841,"ĠLiz":4842,"Ġapron":4843,"Is":4844,"Ġsafety":4845,"ĠOllie":4846,"Ġcrash":4847,"Ġautomob":4848,"Ġbathe":4849,"Ġburied":4850,"Ġjunk":4851,"ÅĵNo":4852,"Ġbuckle":4853,"Ġadmir":4854,"Ġroot":4855,"Ġcaptain":4856,"Ġstrawberries":4857,"Ġmyself":4858,"achel":4859,"Ġrelaxed":4860,"Ġsandcastle":4861,"oral":4862,"Ġignore":4863,"Ġskills":4864,"Ġplates":4865,"Welcome":4866,"'ve":4867,"Ġwhip":4868,"ĠWho":4869,"Ġspade":4870,"Ġmoments":4871,"Ġreverse":4872,"htray":4873,"icing":4874,"Ġquiz":4875,"Ġashtray":4876,"ĠJoy":4877,"Ġfestival":4878,"Ġbeamed":4879,"'.":4880,"Ġsnapped":4881,"riger":4882,"ĠRachel":4883,"Ġsomeday":4884,"cakes":4885,"Ġrefriger":4886,"Ġraise":4887,"Ġreceived":4888,"Yuck":4889,"ĠCo":4890,"Ġrefrigerator":4891,"ĠEveryday":4892,"ari":4893,"Ġearlier":4894,"Ġtong":4895,"Ġlic":4896,"Ġweap":4897,"Ġvac":4898,"Ġteaching":4899,"Ġmass":4900,"Ġharbor":4901,"ĠBetsy":4902,"Ġmodel":4903,"ĠIts":4904,"Ġsparkling":4905,"Ġspots":4906,"aped":4907,"Ġinsisted":4908,"Ġsaving":4909,"Ġvanished":4910,"Ġsocks":4911,"Ġbumped":4912,"ĠBuzz":4913,"Ġthumb":4914,"anna":4915,"Ġdried":4916,"Ġsupply":4917,"ission":4918,"ĠSteve":4919,"Ġblackboard":4920,"igail":4921,"Ġprepare":4922,"Ġjail":4923,"Ġjewels":4924,"Ġspending":4925,"xy":4926,"Ġbalan":4927,"Ġscattered":4928,"Ġtoes":4929,"Ġscooped":4930,"Ġsettled":4931,"Ġpermission":4932,"Ġsparkle":4933,"Ġknown":4934,"ctly":4935,"Ġbreathe":4936,"Ġboot":4937,"Ġyawned":4938,"ĠĠĠ":4939,"ĠPenny":4940,"Ġres":4941,"amber":4942,"Ġachie":4943,"Ġdestroyed":4944,"ĠV":4945,"Ġbathrobe":4946,"ĠAbigail":4947,"Ġtease":4948,"Ġremain":4949,"Ġhardly":4950,"Ġencouraged":4951,"Ġreplace":4952,"Ġwaffle":4953,"antly":4954,"Ġpride":4955,"Ġlemonade":4956,"Ġdare":4957,"Ġhanger":4958,"ĠHave":4959,"Ġsits":4960,"Ġpulling":4961,"Ġdecorations":4962,"sters":4963,"ops":4964,"Ġremove":4965,"Ġcuddled":4966,"Ġhate":4967,"Ġdaisy":4968,"Ġlicense":4969,"avid":4970,"uch":4971,"Ġbeans":4972,"ĠPoppy":4973,"Ġsimp":4974,"Ġport":4975,"Ġrespons":4976,"Ġpraised":4977,"reat":4978,"Ġchirping":4979,"Ġhits":4980,"ents":4981,"Ġequ":4982,"asp":4983,"To":4984,"Ġfastest":4985,"Ġsuffer":4986,"xture":4987,"Ġbuzzing":4988,"Ġpatiently":4989,"Ġdresses":4990,"Ġmention":4991,"Ġbleed":4992,"sity":4993,"Ġrhy":4994,"Ġautomobile":4995,"nies":4996,"Ġwiz":4997,"Ġappreciate":4998,"Ġpoppy":4999,"Ġdestination":5000,"Ġtaller":5001,"Ġmall":5002,"osed":5003,"Ġhomes":5004,"Ġnation":5005,"ium":5006,"Ġdigg":5007,"Ġflav":5008,"Ġclimbs":5009,"Ġguy":5010,"Ġwashing":5011,"Ġpalm":5012,"Ġglo":5013,"Ġshot":5014,"Ġlabel":5015,"Ġbelieved":5016,"Ġdigging":5017,"Ġapproached":5018,"Ġhesit":5019,"fied":5020,"Ġnone":5021,"Ġtore":5022,"Mmm":5023,"Ġdeeper":5024,"Ġwine":5025,"Ġinfant":5026,"ude":5027,"Ġrestore":5028,"Ġscore":5029,"Ġhers":5030,"Ġmitten":5031,"Ġchamber":5032,"Ġsausage":5033,"rm":5034,"Ġstruggling":5035,"Ġheat":5036,"Ġdifferen":5037,"Ġtongue":5038,"Ġhills":5039,"Ġhurric":5040,"Ġpunish":5041,"Ġpillows":5042,"ĠFrank":5043,"Ġbillboard":5044,"Ġsneezed":5045,"ĠDavid":5046,"Ġsport":5047,"Ġwizard":5048,"Ġupstairs":5049,"Ġthrilled":5050,"Ġprovide":5051,"Ġbrain":5052,"Ġawe":5053,"Ġdiscuss":5054,"ĠMat":5055,"Ġpanic":5056,"Ġwarning":5057,"Ġtwisted":5058,"Ġglowed":5059,"Ġuniverse":5060,"Ġfiref":5061,"Ġtherm":5062,"Ġvacation":5063,"Ġworse":5064,"Ġcrunch":5065,"Jimmy":5066,"Ġpoison":5067,"Ġshed":5068,"Ġsolved":5069,"Ġparts":5070,"osity":5071,"bey":5072,"Ġevent":5073,"Ġsetting":5074,"allen":5075,"Ġtour":5076,"Mummy":5077,"Ġremained":5078,"ĠSpike":5079,"Ġairplane":5080,"Ġhurricane":5081,"Ġthermomet":5082,"Ġplays":5083,"Ġexamine":5084,"Ġsparkles":5085,"Ġshooting":5086,"Ġinvit":5087,"Ġneighborhood":5088,"Ġsty":5089,"Ġchores":5090,"Ġoranges":5091,"Ġfloated":5092,"Ġranch":5093,"Ġchallen":5094,"thm":5095,"Ġweeks":5096,"Ġleak":5097,"Ġuniversity":5098,"ging":5099,"shing":5100,"Ġpaints":5101,"Ġthermometer":5102,"Ġbites":5103,"Ġrepeat":5104,"Ġbang":5105,"adium":5106,"Ġfloating":5107,"Ġfixing":5108,"Ġmeasured":5109,"Ġstadium":5110,"Ġgrinned":5111,"!'":5112,"These":5113,"do":5114,"Ġduring":5115,"!\",":5116,"Ġsurrounded":5117,"Ġsupposed":5118,"aspoon":5119,"Ġconf":5120,"Ġrhythm":5121,"Ġmassage":5122,"Ġbrings":5123,"Ġpaused":5124,"Ġcherry":5125,"ĠCat":5126,"Ġgifts":5127,"Ġfut":5128,"Ġsprinkles":5129,"Ġfasc":5130,"Sp":5131,"Ġfuture":5132,"Ġmemory":5133,"ĠUnfortunately":5134,"ÅĵIÃ¢":5135,"Ġteaspoon":5136,"Ġgrey":5137,"rise":5138,"Ġcollection":5139,"Ġsigns":5140,"Ġmarbles":5141,"bbles":5142,"Ġjazz":5143,"Ġstomach":5144,"Would":5145,"emember":5146,"ĠGood":5147,"Ġgust":5148,"Ġwisdom":5149,"Ġactually":5150,"Ġflood":5151,"Ġdiscovery":5152,"Ġinclud":5153,"Ġsew":5154,"Ġvehicle":5155,"Ġtide":5156,"Ġlily":5157,"Ġgirls":5158,"Ġsunrise":5159,"ishing":5160,"ĠZoe":5161,"vet":5162,"ÅĵThatÃ¢":5163,"Ġmeowed":5164,"anny":5165,"ls":5166,"Ġelephants":5167,"Ġurge":5168,"Ġexercise":5169,"Ġmailman":5170,"Ġlugg":5171,"umble":5172,"Ġdecision":5173,"Ġrush":5174,"Ġchewed":5175,"ero":5176,"Ġweapon":5177,"Ġstrang":5178,"Ġobserve":5179,"Ġluggage":5180,"Ġunite":5181,"Ġcartoons":5182,"Ġsore":5183,"Ġfascin":5184,"Ġtomatoes":5185,"iers":5186,"Ġscur":5187,"ĠChr":5188,"Ġpossible":5189,"ĠRa":5190,"Ġtoe":5191,"allow":5192,"cles":5193,"Ġsunlight":5194,"ities":5195,"Ġfolded":5196,"Ġcurled":5197,"Ġchirped":5198,"Ġrust":5199,"Ġmelted":5200,"Ġspill":5201,"Ġcakes":5202,"ĠBeth":5203,"uing":5204,"Ġsip":5205,"Ġcollecting":5206,"Ġx":5207,"ĠQu":5208,"Ġgrape":5209,"son":5210,"ĠSomeone":5211,"Ġmineral":5212,"Sh":5213,"Ġdifference":5214,"Ġproblems":5215,"Ġbak":5216,"Ġtracks":5217,"Ġjogging":5218,"ĠRemy":5219,"Ġwherever":5220,"Ġmountains":5221,"ipment":5222,"Ġbes":5223,"eed":5224,"Ready":5225,"Ġsliding":5226,"ĠSpark":5227,"Ġmanage":5228,"Ġequipment":5229,"etch":5230,"Ġlaid":5231,"Not":5232,"Ġlick":5233,"Ġadmiring":5234,"Ġwatered":5235,"cious":5236,"Ġsatis":5237,"Ġcontain":5238,"Ġoper":5239,"Bob":5240,"Ġbricks":5241,"ĠJe":5242,"oved":5243,"Ġtwigs":5244,"rr":5245,"Ġpatterns":5246,"Ġkindly":5247,"Ġpetted":5248,"ĠFro":5249,"Ġskipping":5250,"Ġpotatoes":5251,"Ġseats":5252,"bers":5253,"Ġsoldiers":5254,"Ġgloves":5255,"Ġspaces":5256,"zag":5257,"joyed":5258,"Ġreceive":5259,"Ġkeeper":5260,"Ġcopper":5261,"Ġemer":5262,"Ġslice":5263,"ĠLuna":5264,"Ġlets":5265,"Ġgain":5266,"ĠSund":5267,"Ġcontinue":5268,"Ġordered":5269,"Ġstrangers":5270,"walk":5271,"ĠJan":5272,"Ġoverjoyed":5273,"ĠSunday":5274,"Ġwatches":5275,"Ġgotten":5276,"Ġpigs":5277,"omas":5278,"Ġzipped":5279,"ĠJam":5280,"mother":5281,"Ġlands":5282,"Ġwhistling":5283,"Ġgaz":5284,"Ġbeside":5285,"ÅĵThank":5286,"Ġsafari":5287,"Ġbeg":5288,"Ġprayed":5289,"Will":5290,"Ġpeered":5291,"Ġnetwork":5292,"bbled":5293,"Ġspit":5294,"Ġeff":5295,"Ġinvitation":5296,"Ġmarching":5297,"ĠMoral":5298,"Ġours":5299,"ases":5300,"Ġglitter":5301,"Ġwooden":5302,"ĠNot":5303,"Ġearthqu":5304,"Ġsidewalk":5305,"Ġeagle":5306,"igzag":5307,"Ġdoggy":5308,"Ġdrinks":5309,"Ġgrocery":5310,"irp":5311,"Ġweight":5312,"Ġnavy":5313,"Ġacorns":5314,"Ġattached":5315,"Al":5316,"Ġraised":5317,"Ġdisagreed":5318,"Ġweren":5319,"Yum":5320,"ĠLetÃ¢":5321,"loe":5322,"Ġbeat":5323,"Ġcompany":5324,"ĠJulie":5325,"Ġmister":5326,"Ġburning":5327,"fy":5328,"Ġonwards":5329,"hest":5330,"\",":5331,"Ġwre":5332,"Ġhappiest":5333,"ĠSuzy":5334,"Ġracing":5335,"Ġbrid":5336,"ĠSunny":5337,"Ġcrashed":5338,"Ġspoons":5339,"Ġfed":5340,"Ġcrunchy":5341,"ĠSharing":5342,"ĠUncle":5343,"Ġpeanuts":5344,"Ġwhistled":5345,"Ġprice":5346,"ĠSure":5347,"Jill":5348,"seek":5349,"ĠThomas":5350,"Ġmeow":5351,"Ġhurried":5352,"Ġhist":5353,"Ġofficer":5354,"ĠKay":5355,"Ouch":5356,"Ġbrick":5357,"ĠChloe":5358,"Ġaccom":5359,"Ġtremb":5360,"Ġrefreshed":5361,"Ġpies":5362,"Ġremem":5363,"Ġflap":5364,"Ġworks":5365,"Ġclearing":5366,"nie":5367,"Ġoperation":5368,"Ġprepared":5369,"Ġbowed":5370,"Ġscratched":5371,"Ġremembers":5372,"Ġhistory":5373,"Ġexa":5374,"aded":5375,"Ġlips":5376,"amb":5377,"Ġfireworks":5378,"Ġprune":5379,"ÅĵWe":5380,"Really":5381,"Ġescaped":5382,"Ġdinosaurs":5383,"Ġmenu":5384,"Ġbridges":5385,"Ġtalent":5386,"Ġplanted":5387,"ĠNut":5388,"Ġbuildings":5389,"ĠAd":5390,"Ġrevealed":5391,"Ġeasier":5392,"Ġbye":5393,"Ġturning":5394,"Ġcomfy":5395,"Ġscreams":5396,"Ġolive":5397,"Ġbrand":5398,"Ġhated":5399,"ĠPr":5400,"Ġchat":5401,"Ġselling":5402,"Ġsnowball":5403,"die":5404,"Ġrecognized":5405,"Ġwarn":5406,"Ġaccompl":5407,"ĠAm":5408,"Ġcrept":5409,"Ġprecious":5410,"Ġlandsc":5411,"ĠSadly":5412,"Ġstrip":5413,"Ġmuddy":5414,"ĠJosh":5415,"Ġpadd":5416,"Ġwid":5417,"ĠBy":5418,"Ġdrinking":5419,"Ġsings":5420,"xygen":5421,"Ġpupp":5422,"Ġbeds":5423,"ĠAn":5424,"ĠChirp":5425,"ecture":5426,"Ġsettle":5427,"Ġearthquake":5428,"Ġsimple":5429,"cc":5430,"Ġeffort":5431,"Ġreminder":5432,"Ġspaceship":5433,"Ġmeasuring":5434,"Ġslip":5435,"Ġperched":5436,"Ġlecture":5437,"Ġbones":5438,"Ġserved":5439,"Ġappear":5440,"Ġwonders":5441,"Ġshadows":5442,"Ġwaits":5443,"Ġvoices":5444,"ÅĵCan":5445,"Ġcuddle":5446,"Ġeveryday":5447,"Ġpedal":5448,"Billy":5449,"Ġpitch":5450,"Ġcomforted":5451,"Ġagreement":5452,"Ġresponsible":5453,"Ġcircus":5454,"Ġrained":5455,"Ġvel":5456,"Ġobey":5457,"ffic":5458,"Ġvict":5459,"Ġtip":5460,"Ġsoared":5461,"Ġallow":5462,"Ġanytime":5463,"Ġtrapped":5464,"Ġcal":5465,"Ġwhatever":5466,"Ġzigzag":5467,"Ġtastes":5468,"ĠJamie":5469,"Ġapologize":5470,"Ġlandscape":5471,"Ġcutting":5472,"Ġsucceeded":5473,"Ġshopping":5474,"Ġrang":5475,"Ġpets":5476,"Ġsecrets":5477,"ĠCla":5478,"Ġvillag":5479,"Ġvelvet":5480,"Ġprinter":5481,"Ġdisturbed":5482,"ĠPip":5483,"Ġwaist":5484,"Ġitems":5485,"Ġswims":5486,"Ġbun":5487,"ĠOl":5488,"Ġtraffic":5489,"Ġpracticing":5490,"Ġsteel":5491,"Ġbringing":5492,"Ġoats":5493,"Ġexactly":5494,"Ġsisters":5495,"Ġrested":5496,"Ġvisiting":5497,"Ġactiv":5498,"Ġcostumes":5499,"annah":5500,"Ġscoop":5501,"Ġanswers":5502,"ĠLu":5503,"izing":5504,"Ġolives":5505,"Daddy":5506,"ien":5507,"mble":5508,"ĠAnne":5509,"rs":5510,"Ġbrushed":5511,"Ġstyle":5512,"Ġmouths":5513,"Ġsoak":5514,"Ġcuriosity":5515,"ishes":5516,"ĠFor":5517,"Ġoutdo":5518,"neath":5519,"Ġbreaking":5520,"Ġfashion":5521,"Ġrele":5522,"ĠNina":5523,"Ġowned":5524,"Ġladyb":5525,"Ġencourage":5526,"ÅĵDon":5527,"ĠKe":5528,"Ġknelt":5529,"Ġfascinated":5530,"ĠBig":5531,"Ġleather":5532,"mare":5533,"Ġimage":5534,"iggy":5535,"Ġvillagers":5536,"oming":5537,"ĠRob":5538,"Ġnails":5539,"Ġbeneath":5540,"icorn":5541,"Ġunderground":5542,"Ġwaffles":5543,"ĠCoco":5544,"Ġunicorn":5545,"Ġsadness":5546,"ĠThese":5547,"enty":5548,"ĠLucky":5549,"ĠItÃ¢":5550,"ĠFloppy":5551,"terday":5552,"Ġunlocked":5553,"inda":5554,"Ġdied":5555,"Ġrecognize":5556,"Ġdownstairs":5557,"Ġcreation":5558,"Ġcatching":5559,"Ġgrandmother":5560,"Ġoxygen":5561,"isten":5562,"Ġmonsters":5563,"Ġtremble":5564,"Ġchef":5565,"Ġeats":5566,"ĠMad":5567,"ĠNutty":5568,"Ġpupil":5569,"ik":5570,"Spot":5571,"Ġwanting":5572,"Ġnightmare":5573,"Ġjogged":5574,"Ġcape":5575,"ĠGr":5576,"Ġstripes":5577,"Ġdoctors":5578,"ĠRabbit":5579,"ĠClaire":5580,"Ġsoaring":5581,"Ġblueberry":5582,"ley":5583,"ĠSomething":5584,"Ġstruggled":5585,"Ġlemons":5586,"ĠOw":5587,"Ġwondering":5588,"Ġbleeding":5589,"Ġpunished":5590,"Ġgained":5591,"She":5592,"Ġfamil":5593,"Ġfetch":5594,"Ġexamined":5595,"Ġnicer":5596,"ĠHop":5597,"Ġguessed":5598,"Ġplanned":5599,"Ġdrag":5600,"Ġcaut":5601,"Ġsitu":5602,"Ġmachines":5603,"Ġmission":5604,"ĠTiny":5605,"Ġstealing":5606,"Ġargued":5607,"Ġarea":5608,"Ġcomple":5609,"Ġpiles":5610,"Ġsi":5611,"Ġherbs":5612,"Ġfreeze":5613,"Ġintroduc":5614,"len":5615,"Ġstirring":5616,"ĠLul":5617,"Gra":5618,"Ġripped":5619,"Ġsix":5620,"Ġchallenge":5621,"Ġtugged":5622,"ĠBetty":5623,"Ġstudied":5624,"Ġfiremen":5625,"ĠTilly":5626,"Ġbend":5627,"Ġbare":5628,"Ġwagging":5629,"Ġzooming":5630,"Ġaccidents":5631,"Ġvictory":5632,"Ġsatisfied":5633,"Little":5634,"ĠCarl":5635,"Ġwreck":5636,"Ġinstruct":5637,"Ġproperly":5638,"Ġkeys":5639,"Ġwinning":5640,"Ġshivering":5641,"looking":5642,"Ġbunnies":5643,"Ġincrease":5644,"agull":5645,"ding":5646,"Ġgathering":5647,"Ġtune":5648,"Or":5649,"Ġmice":5650,"Ġexit":5651,"Ġfirefight":5652,"Ġoutdoors":5653,"Ġwinner":5654,"Ġtwirling":5655,"Ġslapped":5656,"Ġloaded":5657,"Ġteasing":5658,"Ġpeel":5659,"Ġdecorated":5660,"xu":5661,"Ġdeser":5662,"Ġsupplies":5663,"Ġyelling":5664,"Ġune":5665,"Ġneighbourhood":5666,"Ġseagull":5667,"Ġunderneath":5668,"Ġpermit":5669,"Ġsights":5670,"Ġtickets":5671,"Ġann":5672,"ĠChirpy":5673,"Ġpancakes":5674,"ĠHannah":5675,"ĠJessie":5676,"oh":5677,"Ġbegin":5678,"Ġburrow":5679,"Ġpearl":5680,"Ġrides":5681,"Ġsiren":5682,"Ġpeaches":5683,"ĠLulu":5684,"Ġmixing":5685,"ĠSl":5686,"ĠCar":5687,"Ġreleased":5688,"Ġdraws":5689,"Ġweighed":5690,"aky":5691,"Ġsneaked":5692,"ĠMatt":5693,"ica":5694,"ĠAunt":5695,"uxu":5696,"indy":5697,".'":5698,"Ġconfident":5699,"Ġrealize":5700,"Ġinstructions":5701,"ĠBubbles":5702,"ales":5703,"Ġspiders":5704,"ĠSusan":5705,"Ġintroduce":5706,"Ġluxu":5707,"Ġdam":5708,"Ġmuffins":5709,"Ġcontro":5710,"ĠletÃ¢":5711,"Ġpinched":5712,"Ġbudge":5713,"Ġsolut":5714,"ĠAdam":5715,"Ġzero":5716,"Ġcompetition":5717,"ĠAbby":5718,"Ġprinted":5719,"Ġstudying":5720,"Ġloving":5721,"ĠDid":5722,"ĠOut":5723,"Ġbeha":5724,"Ġinch":5725,"Ġpockets":5726,"Ġbaked":5727,"Ġstruck":5728,"ÅĵLook":5729,"Ġshoulders":5730,"Ġbunch":5731,"Ġopin":5732,"ĠLike":5733,"Ġlines":5734,"Ġfrosting":5735,"Ġrelease":5736,"Ġdecides":5737,"Goodbye":5738,"Ġgiggling":5739,"Happy":5740,"Ġbroom":5741,"Ġourselves":5742,"Ġweb":5743,"Ġpastel":5744,"Ġstamps":5745,"Ġtravell":5746,"Ġcones":5747,"nes":5748,"Ġemergen":5749,"ÅĵHello":5750,"Ġstair":5751,"Ġstitch":5752,"bbing":5753,"ĠStop":5754,"Ġprunes":5755,"Ġladybug":5756,"Ġsides":5757,"ena":5758,"oed":5759,"Ġgrant":5760,"Ġscurried":5761,"Ġstrings":5762,"âĤ¬âĢĿ":5763,"Ġtim":5764,"ais":5765,"Ġmarks":5766,"Ġruler":5767,"Ġpears":5768,"gers":5769,"ednes":5770,"ednesday":5771,"Ġrepeated":5772,"Ġdrift":5773,"Ex":5774,"Ġkeeps":5775,"Ġago":5776,"Ġclaps":5777,"Ġpoking":5778,"anta":5779,"ÅĵThis":5780,"Ye":5781,"ays":5782,"Ġcrowd":5783,"Ġruin":5784,"ĠBir":5785,"Ġprints":5786,"kins":5787,"Ġbrushes":5788,"Ġkicking":5789,"Ġstretching":5790,"Ġdemanded":5791,"Ġsting":5792,"Ġneighbors":5793,"ĠWednesday":5794,"Ġmentioned":5795,"ĠMart":5796,"ira":5797,"Ġmast":5798,"owers":5799,"Ġtouching":5800,"Ġtonight":5801,"Ġprotected":5802,"Ġwrites":5803,"Ġsweeties":5804,"ĠLou":5805,"xp":5806,"Ġgoodnight":5807,"ĠZoom":5808,"uesday":5809,"Ġyouth":5810,"Ġbuckets":5811,"Ġribbons":5812,"va":5813,"jam":5814,"uctantly":5815,"tiest":5816,"bies":5817,"ashed":5818,"Ġprettiest":5819,"ody":5820,"ĠSanta":5821,"Ġforgi":5822,"Ġvent":5823,"Ġparked":5824,"icky":5825,"Ġproject":5826,"Ġcamping":5827,"Ġsoaked":5828,"zie":5829,"Ġbarely":5830,"Ġhorns":5831,"Ġbouncy":5832,"ĠLinda":5833,"icked":5834,"ĠBoth":5835,"riage":5836,"ĠJu":5837,"hins":5838,"Ġdiscovering":5839,"ĠTuesday":5840,"ÅĵDonÃ¢":5841,"Ġeast":5842,"Ġtwinkling":5843,"Ġresult":5844,"Ġexpect":5845,"Ġsurface":5846,"Ġsorting":5847,"Ġdent":5848,"Ġstole":5849,"ÅĵWhy":5850,"Ġwest":5851,"Ġinterest":5852,"Ah":5853,"Ġvowed":5854,"Ġtexture":5855,"ĠMomo":5856,"Ġgazed":5857,"Ġpurred":5858,"Ġsteep":5859,"Ġguys":5860,"ĠAfterwards":5861,"Ġbabies":5862,"Ġshock":5863,"Ġbeard":5864,"Ġmovies":5865,"Ġcautious":5866,"xpected":5867,"ĠKayla":5868,"zen":5869,"ĠJeff":5870,"Ġpowers":5871,"Ġapplauded":5872,"Ġsilence":5873,"ĠHoppy":5874,"thank":5875,"Ġpebbles":5876,"Ġ1":5877,"Ġentire":5878,"Ġloose":5879,"Ġcontrol":5880,"Ġtickle":5881,"Ġguns":5882,"Ġurged":5883,"ĠLuke":5884,"Ġdragons":5885,"Ġacted":5886,"Ġdragged":5887,"Ġunexpected":5888,"Ġluxury":5889,"edding":5890,"Ġcatches":5891,"Uh":5892,"ason":5893,"ern":5894,"Ġmittens":5895,"Ġmuscles":5896,"Ġchewing":5897,"Ġrocking":5898,"Ġflat":5899,"Ġfab":5900,"Ġdolphins":5901,"Ġcompleted":5902,"Ġfabric":5903,"Ġcurtains":5904,"Ġemergency":5905,"Ġblink":5906,"Ġintroduced":5907,"une":5908,"Ġdirection":5909,"Ġchips":5910,"Ġhonk":5911,"Ġseason":5912,"Ġpatience":5913,"Ġstrike":5914,"Ġimportance":5915,"ĠLizzy":5916,"eezing":5917,"Ġreluctantly":5918,"Ġbank":5919,"Ġeight":5920,"Ġslim":5921,"usted":5922,"Ġfigured":5923,"Ġhighest":5924,"Ġshivered":5925,"ĠHa":5926,"Ġfrozen":5927,"Ġlibrarian":5928,"Ġsolution":5929,"Ġcontest":5930,"Ġrocked":5931,"Ġachieve":5932,"Ġscreaming":5933,"Ġchases":5934,"Ġreplac":5935,"Ġpouring":5936,"ĠJenna":5937,"Ġshelves":5938,"Ġwound":5939,"Ġtheirs":5940,"Ġcrumb":5941,"Ġrubbing":5942,"esome":5943,"Ġti":5944,"Ġhugging":5945,"Ġdrives":5946,"Ġstaring":5947,"Ġsorted":5948,"Remember":5949,"Ġsnail":5950,"Ġroaring":5951,"ÅĵOh":5952,"ledge":5953,"Ġinclude":5954,"Ġplanets":5955,"Somet":5956,"Ġmater":5957,"Ġmateri":5958,"Ġsafer":5959,"Ġpoliceman":5960,"fit":5961,"Ġcurly":5962,"Ġsituation":5963,"Ġfoods":5964,"Ġgreet":5965,"Ġawesome":5966,"ĠcanÃ¢":5967,"Ġusual":5968,"vin":5969,"Ġsighs":5970,"Ġknowledge":5971,"itely":5972,"irts":5973,"ĠYes":5974,"Ġpassing":5975,"Ġshined":5976,"Ġflags":5977,"Ġexha":5978,"Ġdared":5979,"Ġbalancing":5980,"Ġplenty":5981,"ĠSuzie":5982,"ĠyouÃ¢":5983,"Ġtru":5984,"Ġmatched":5985,"Ġtowels":5986,"Ġlied":5987,"ults":5988,"Ġhomework":5989,"Ġoutfit":5990,"though":5991,"Ġslimy":5992,"Ġbravery":5993,"ĠDolly":5994,"Ġpretends":5995,"Ġtruly":5996,"ĠJac":5997,"avi":5998,"Ġzookeeper":5999,"Ġcheering":6000,"Ġheel":6001,"Ġwedding":6002,"Ġgoals":6003,"Ġrainbows":6004,"jamas":6005,"Ġsausages":6006,"Just":6007,"ĠCindy":6008,"cuse":6009,"Ġthreat":6010,"Today":6011,"Ġaccomplish":6012,"Ġpatted":6013,"Ġcaused":6014,"Ġpaintings":6015,"Ġreaching":6016,"ĠSlow":6017,"Ġresting":6018,"ĠAlways":6019,"ĠPinky":6020,"Ġradishes":6021,"Ġarguing":6022,"ĠQuack":6023,"Ġpacking":6024,"Excuse":6025,"...":6026,"bert":6027,"Ġgrowling":6028,"Ġspraying":6029,"Ġblooming":6030,"Ġwaiter":6031,"Ġexhausted":6032,"iar":6033,"Ġge":6034,"Ġstruggle":6035,"izzie":6036,"Ġsweets":6037,"Ġsticking":6038,"Ġpout":6039,"ences":6040,"Ġmarkers":6041,"Ġmotion":6042,"Ġworker":6043,"Ġkneeled":6044,"Ġpaddled":6045,"Ġgrowl":6046,"Ġsled":6047,"immer":6048,"Ġsuitc":6049,"Ġmane":6050,"When":6051,"Ġsway":6052,"Ġstartled":6053,"ĠEx":6054,"Ġsnugg":6055,"Ġcubes":6056,"Ġrescued":6057,"Ġboo":6058,"Ġspike":6059,"Ġwritten":6060,"Ġdusty":6061,"Ġtraveled":6062,"Ġinviting":6063,"hello":6064,"ĠJon":6065,"Ġexpected":6066,"ĠJacob":6067,"Ġbead":6068,"Ġslap":6069,"Ġcuts":6070,"Ġcent":6071,"Ġbottles":6072,"Ġmatching":6073,"ĠTara":6074,"Ġguest":6075,"Ġsinger":6076,"Ġflavor":6077,"ĠMon":6078,"Ġreveal":6079,"Ġlearns":6080,"Ġheav":6081,"lee":6082,"Ġprincesses":6083,"Ġcreating":6084,"Ġregretted":6085,"Ġfart":6086,"Ġbloomed":6087,"Yeah":6088,"Ġtrembling":6089,"Ġreplaced":6090,"Ġfir":6091,"Ġarrive":6092,"Ġmarriage":6093,"ĠMick":6094,"ĠJulia":6095,"pite":6096,"you":6097,"Ġrecorded":6098,"aisies":6099,"ĠLizzie":6100,"Ġpencils":6101,"Ġincluded":6102,"Ġlap":6103,"Ġchuck":6104,"Ġobserved":6105,"Ġdisagree":6106,"njoy":6107,"ĠLena":6108,"ĠJessica":6109,"Ġdaisies":6110,"Ġpots":6111,"Ġactivities":6112,"Ġprayer":6113,"Ġfirm":6114,"Ġtimer":6115,"ĠPipp":6116,"Ġpajamas":6117,"Ġroads":6118,"ĠMil":6119,"Ġwires":6120,"Ch":6121,"Ġremoved":6122,"Ġdarkness":6123,"Ġworries":6124,"Ġuses":6125,"Ġventured":6126,"Ġcountryside":6127,"Ġorganizing":6128,"Ġstare":6129,"Ġcompletely":6130,"Ġworkers":6131,"Ġopening":6132,"Ġfairies":6133,"Ġrelief":6134,"Ġwasted":6135,"angled":6136,"Ġleap":6137,"Ġreply":6138,"Ġowners":6139,"ĠMo":6140,"Ġstorekeeper":6141,"Ġcott":6142,"Ġbelly":6143,"vers":6144,"Ġranger":6145,"Ġfault":6146,"ĠJohnson":6147,"ĠFox":6148,"Ġpartic":6149,"Ġunf":6150,"Ġquacked":6151,"Ġpolishing":6152,"Ġleader":6153,"Ġstern":6154,"ora":6155,"iding":6156,"ĠFriend":6157,"Ġbecoming":6158,"Ġflames":6159,"Ġlamb":6160,"Ġkites":6161,"ctions":6162,"Ġagrees":6163,"ĠSlowly":6164,"Ġpoems":6165,"Ġpenguins":6166,"ĠwasnÃ¢":6167,"ĠMel":6168,"Ġfaced":6169,"ĠChrist":6170,"Sometimes":6171,"Ġeverybody":6172,"Ġseesaw":6173,"ĠY":6174,"Ġfolding":6175,"Ġmelting":6176,"Ġscales":6177,"Ġsquealed":6178,"Ġthro":6179,"Ġhealed":6180,"Ġvanish":6181,"Ġhelmets":6182,"ĠJones":6183,"Ġwink":6184,"Ġlogs":6185,"ords":6186,"Ġcrabs":6187,"Ġthroat":6188,"hell":6189,"ĠLeave":6190,"Ġusually":6191,"Ġopinion":6192,"Ġcrumbs":6193,"Ġtractor":6194,"Ro":6195,"Ġripe":6196,"Ġdipped":6197,"opes":6198,"lings":6199,"ĠFollow":6200,"Ġscra":6201,"ĠTwo":6202,"Ġseems":6203,"Ġast":6204,"Ġlollipops":6205,"Ġtwinkle":6206,"Ġcash":6207,"Ġrisk":6208,"Ġteaches":6209,"ĠBye":6210,"Ġcomm":6211,"Ġgroceries":6212,"ĠMira":6213,"Ġden":6214,"Ġknights":6215,"ivery":6216,"asm":6217,"Ġprovided":6218,"Ġdentist":6219,"Ġpolished":6220,"Ġvalued":6221,"Ġstaying":6222,"ids":6223,"elle":6224,"Ġpeeking":6225,"aze":6226,"Ġsnakes":6227,"Ġscru":6228,"Ġinterested":6229,"ĠWatch":6230,"Ġblows":6231,"Ġrubs":6232,"Ġcautiously":6233,"ĠPut":6234,"Ġcracked":6235,"Ġrings":6236,"Ġunited":6237,"araway":6238,"Ġfaraway":6239,"Ġdesert":6240,"ĠSorry":6241,"Ġwinked":6242,"Ġmisses":6243,"Ġprotecting":6244,"Ġfreed":6245,"Ġmarked":6246,"ĠBird":6247,"Ġyounger":6248,"Ġwrist":6249,"Ġcloses":6250,"Ġwandering":6251,"mas":6252,"Ġbalanced":6253,"Ġchuckled":6254,"ĠMany":6255,"Ġfuzzy":6256,"ĠLarry":6257,"Ġforehead":6258,"Ġlistens":6259,"Ġpastries":6260,"Ġsingle":6261,"Ġsigned":6262,"go":6263,"ĠNan":6264,"Ġrobb":6265,"Ġbeads":6266,"Ġparticular":6267,"Ġroses":6268,"boo":6269,"ĠJune":6270,"Ġboom":6271,"ĠDoggy":6272,"Ġactions":6273,"ĠLau":6274,"Ġdirections":6275,"Ġhowever":6276,"ÅĵMommy":6277,"Ġcopy":6278,"igi":6279,"Ġcough":6280,"Ġsplashes":6281,"rance":6282,"Ġcrackers":6283,"ĠBess":6284,"Ġbaker":6285,"Ġnaps":6286,"Ġcous":6287,"ĠSophia":6288,"hile":6289,"ppers":6290,"Ġroots":6291,"Ġfilling":6292,"ĠWithout":6293,"Ġyesterday":6294,"Ġsnowballs":6295,"ĠPrin":6296,"ÅĵWhatÃ¢":6297,"Ġrestored":6298,"ĠEl":6299,"Ġfluttered":6300,"Ġdelivery":6301,"Ġrolls":6302,"ĠHappy":6303,"abel":6304,"arling":6305,"Ġstem":6306,"Ġconn":6307,"Ġswooped":6308,"dies":6309,"Ġgaze":6310,"Ġsuitcase":6311,"Ġwiggled":6312,"Ġtipt":6313,"ĠAbbie":6314,"Ġsomebody":6315,"Ġsweat":6316,"ĠChristmas":6317,"Bad":6318,"Ġbumpy":6319,"Ġitchy":6320,"bbly":6321,"Ġrefle":6322,"Ġswirl":6323,"Ġslam":6324,"Ëľ":6325,"Ġphotos":6326,"âĤ¬Ëľ":6327,"ĠEverybody":6328,"oline":6329,"Ġstroll":6330,"Then":6331,"Ġtwin":6332,"Ġpastels":6333,"Ġcelebration":6334,"Ġtrips":6335,"Ġpedals":6336,"ĠGigi":6337,"Ġbacked":6338,"Ġtallest":6339,"ĠKeep":6340,"Ġawake":6341,"ĠNothing":6342,"Ġfroze":6343,"Ġcause":6344,"Ġcashier":6345,"ddled":6346,"ĠMickey":6347,"Ġnect":6348,"Ġremote":6349,"Ġlined":6350,"Ġdarker":6351,"Ġdetermination":6352,"Ġnectar":6353,"ility":6354,"ĠLaura":6355,"Ġspeaking":6356,"Ġsecure":6357,"ormed":6358,"ĠSparky":6359,"Ġknees":6360,"Ġwow":6361,"Ġpiggy":6362,"anes":6363,"Ġcomplaining":6364,"ĠSque":6365,"Ġbars":6366,"ĠBeing":6367,"Ġrecording":6368,"Ġsneaky":6369,"Ġsilent":6370,"Ġvideos":6371,"ĠPandy":6372,"Run":6373,"oys":6374,"Ġhealth":6375,"Ġaccomplishment":6376,"Ġliqu":6377,"Ġpleasure":6378,"Ġacting":6379,"?\",":6380,"ĠExc":6381,"Ġentrance":6382,"Ġty":6383,"atches":6384,"Ġwears":6385,"Ġrockets":6386,"Ġdelivered":6387,"Ġmiles":6388,"Ġglee":6389,"Ġinsp":6390,"Ġhi":6391,"esmer":6392,"Ġcoloured":6393,"ĠNick":6394,"Ġopp":6395,"ĠEnjoy":6396,"Ġtricked":6397,"Ġmesmer":6398,"ĠPam":6399,"sequ":6400,"boat":6401,"ĠEmmy":6402,"Ġcheeks":6403,"yond":6404,"Ġaff":6405,"Ġbeyond":6406,"ĠJazz":6407,"Ġafterwards":6408,"Ġnoon":6409,"Ġsib":6410,"Ġconsequ":6411,"Ġhissed":6412,"Ġstays":6413,"Ġinsects":6414,"Ġglasses":6415,"ky":6416,"Ġbowls":6417,"umm":6418,"Ġjoking":6419,"ĠExcited":6420,"Ġsobbed":6421,"Ġtickled":6422,"Ġfarther":6423,"Ġcolored":6424,"Ġburst":6425,"affes":6426,"ĠJay":6427,"Ġscaring":6428,"ĠDays":6429,"Ġstolen":6430,"ĠStella":6431,"Fine":6432,"Ġattack":6433,"ĠBuzzy":6434,"Ġsense":6435,"Ġsandcastles":6436,"Ġtricky":6437,"Grandma":6438,"Ġrule":6439,"Ġmasks":6440,"Ġcovers":6441,"iki":6442,"ĠMa":6443,"Ġdeal":6444,"Ġgiraffes":6445,"Ġinstrum":6446,"ÅĵCome":6447,"Ġcalmed":6448,"Ġhandful":6449,"?'":6450,"arter":6451,"Ġtalented":6452,"ĠSqu":6453,"Ġpause":6454,"Ġtangled":6455,"Ġindeed":6456,"aren":6457,"Ġadding":6458,"Ġsmarter":6459,"Ġscarves":6460,"Ġcandies":6461,"ths":6462,"Ġlung":6463,"Ġshirts":6464,"Ġachieved":6465,"Ġchoices":6466,"Ġconsequences":6467,"Ġliquid":6468,"ossible":6469,"Ġyourselves":6470,"ĠPrincess":6471,"rious":6472,"weet":6473,"Ġbehavi":6474,"Ġleading":6475,"Ġbumps":6476,"Ġreads":6477,"Ġbatteries":6478,"igers":6479,"choo":6480,"Ġhesitated":6481,"Ġimpossible":6482,"Ġbadge":6483,"ept":6484,"Ġmi":6485,"ĠEls":6486,"Ġpaddle":6487,"Ġmixture":6488,"ĠRobert":6489,"ĠGet":6490,"ĠMaya":6491,"Ġexplorers":6492,"Ġdarling":6493,"iled":6494,"Ġmagnets":6495,"ouch":6496,"Ġclowns":6497,"Ġkicks":6498,"Ġrecommended":6499,"Shh":6500,"ĠChris":6501,"ĠSnugg":6502,"Ġweeping":6503,"Ġgracefully":6504,"ĠMilo":6505,"ners":6506,"Ġexperien":6507,"ĠTess":6508,"ĠBee":6509,"Ġseashell":6510,"Ġseeker":6511,"Ġbakery":6512,"Ġfirefighters":6513,"ĠMikey":6514,"anging":6515,"ĠOlive":6516,"ĠZip":6517,"Ġsalty":6518,"vest":6519,"brush":6520,"Ġimproved":6521,"ĠRy":6522,"Ġswept":6523,"rig":6524,"atul":6525,"coat":6526,"Ġdeserve":6527,"Ġstroked":6528,"ĠRobby":6529,"Ġflapping":6530,"Ġwipes":6531,"Ġbeginning":6532,"Ġcomplained":6533,"Ġmushrooms":6534,"Whe":6535,"urry":6536,"Those":6537,"ĠPl":6538,"Ġhider":6539,"obody":6540,"itches":6541,"ĠPo":6542,"Ġsteer":6543,"Ġknocks":6544,"Ġcust":6545,"Ġthorn":6546,"Ġseven":6547,"Ġcans":6548,"Ġteased":6549,"ĠSnuggles":6550,"Ġobjects":6551,"Ġparties":6552,"ÅĵDo":6553,"ĠMartha":6554,"Ġtravelled":6555,"Ġthird":6556,"ĠCu":6557,"Ġhearing":6558,"ĠGranny":6559,"Ġbasement":6560,"Ġtigers":6561,"Ġcupcakes":6562,"iles":6563,"Ġhoriz":6564,"Ġclick":6565,"ÅĵYouÃ¢":6566,"Ġfever":6567,"ĠDr":6568,"Ġsnuck":6569,"Ġheading":6570,"tle":6571,"Ġseconds":6572,"Ġdots":6573,"ĠRock":6574,"Ġraincoat":6575,"ĠAbi":6576,"Ġsiblings":6577,"Ġhorizon":6578,"elia":6579,"no":6580,"Ġsmiley":6581,"Ġperformance":6582,"Ġcustom":6583,"Ġartist":6584,"Ġhallway":6585,"Ġbeam":6586,"Ġmarker":6587,"Ġsnatched":6588,"Ġlighter":6589,"ĠThanks":6590,"Ġyells":6591,"Ġjackets":6592,"Ġdrums":6593,"Ġfluttering":6594,"indr":6595,"ÅĵHi":6596,"ĠRyan":6597,"step":6598,"ĠSc":6599,"pare":6600,"ans":6601,"Ġruining":6602,"Ġgems":6603,"Next":6604,"Ġbedtime":6605,"igning":6606,"ĠWater":6607,"ĠwouldnÃ¢":6608,"Ġraindr":6609,"Ġwee":6610,"Ġneither":6611,"ĠChe":6612,"Ġconcer":6613,"Ġbuying":6614,"ĠAlong":6615,"rigued":6616,"Ġpuppies":6617,"Ġlett":6618,"Ġpaying":6619,"Ġscrubbed":6620,"Ġcelebrating":6621,"Ġfamilies":6622,"Ġdollhouse":6623,"Ġannoy":6624,"ÅĵWow":6625,"Ġcreamy":6626,"Ġlettuce":6627,"band":6628,"Ġamong":6629,"umbling":6630,"Ġpeacefully":6631,"Ġrivers":6632,"Ġscratches":6633,"Ġwrapping":6634,"river":6635,"Ġwidened":6636,"Ġdrifted":6637,"Ġrumble":6638,"Ġtasks":6639,"atur":6640,"ivity":6641,"ades":6642,"Ġtreehouse":6643,"Ġhides":6644,"Ġwins":6645,"ĠFinn":6646,"Ġrepa":6647,"Ġbehaved":6648,"cers":6649,"Ġrusty":6650,"alph":6651,"Ġplayers":6652,"ĠwonÃ¢":6653,"Ġlun":6654,"ĠKaren":6655,"uzz":6656,"Ġcuddly":6657,"immering":6658,"ael":6659,"fall":6660,"Ġuns":6661,"Ġfact":6662,"ounce":6663,"Ġarrows":6664,"Ġrewarded":6665,"Ġwilling":6666,"Ġlower":6667,"ĠJacky":6668,"Lucy":6669,"Ġneedles":6670,"Ġsource":6671,"Ġcreativity":6672,"Ġshrinking":6673,"ĠRover":6674,"Ġcor":6675,"Ġlosing":6676,"Ġtemper":6677,"Ġech":6678,"ĠMabel":6679,"Ġrepaired":6680,"Ġpassen":6681,"Ġfears":6682,"iece":6683,"Ġgrandpare":6684,"Ġincluding":6685,"ĠBinky":6686,"Ġchoo":6687,"Ġtiptoed":6688,"itched":6689,"Ġcreations":6690,"Ġtapped":6691,"ĠGoodbye":6692,"Ġgrassy":6693,"Ġchefs":6694,"ongr":6695,"Ġdef":6696,"ĠJanie":6697,"ĠSim":6698,"ded":6699,"Le":6700,"Ġminerals":6701,"Ġseparated":6702,"Ġsprinkled":6703,"jo":6704,"Ġrising":6705,"Ġimagining":6706,"Ġgranted":6707,"ichael":6708,"Ġchop":6709,"Ġaud":6710,"Ġgross":6711,"Ġtempt":6712,"Ġaren":6713,"ĠDuring":6714,"ĠRobbie":6715,"ĠKiki":6716,"Ġswimsuit":6717,"ongratul":6718,"Great":6719,"Ġtiss":6720,"ĠRemember":6721,"Ġpans":6722,"Ġlimes":6723,"ĠSadie":6724,"cus":6725,"hog":6726,"Ġstomped":6727,"Ġscrewd":6728,"Ġcoup":6729,"Ġgrabbing":6730,"ĠNobody":6731,"Ġpouted":6732,"Ġbackwards":6733,"Ġspong":6734,"itude":6735,"Ġdecorating":6736,"ÅĵMy":6737,"Ġdamage":6738,"ishy":6739,"Ġhesitant":6740,"Ġearn":6741,"Ġprinting":6742,"Ġpeppers":6743,"Ġstung":6744,"Have":6745,"Ġsquares":6746,"Ġunpacked":6747,"ments":6748,"cl":6749,"Ġtramp":6750,"Time":6751,"ntil":6752,"Ġslower":6753,"Ġcowb":6754,"Ġdiving":6755,"Ġplanning":6756,"Ġbeloved":6757,"Ġonions":6758,"pr":6759,"Ġmaterials":6760,"ĠJudy":6761,"Ġheavier":6762,"ĠQ":6763,"Ġchip":6764,"Ġgrowls":6765,"Ġraindrops":6766,"ĠCra":6767,"Ġwrink":6768,"Ġmer":6769,"ĠUntil":6770,"ĠMarie":6771,"Ġpointy":6772,"ĠSqueaky":6773,"Ġsnowmen":6774,"ĠBluey":6775,"cope":6776,"Ġsurroundings":6777,"Ġpromises":6778,"ĠFlop":6779,"Ġavoid":6780,"Ġscrewdriver":6781,"ĠSince":6782,"Ġrecipe":6783,"Ġaudience":6784,"Ġsailboat":6785,"Ġcousin":6786,"Meow":6787,"Ġrustling":6788,"Ġforgiven":6789,"Ġneighbours":6790,"Yummy":6791,"Ġblocking":6792,"Ġhus":6793,"Ġcenter":6794,"kend":6795,"ĠMichael":6796,"Ġslices":6797,"Ġgobbled":6798,"Ġwiping":6799,"Sammy":6800,"Ġweekend":6801,"Ġtemperature":6802,"eds":6803,"Ġtouc":6804,"Ġhedgehog":6805,"Ġtrampoline":6806,"ĠEarth":6807,"ueen":6808,"Ġrefu":6809,"Ġarr":6810,"Ġhelpers":6811,"Ġwobbled":6812,"ably":6813,"Ġrip":6814,"Ġwindy":6815,"yes":6816,"Ġcouple":6817,"Ġstool":6818,"Ġdiscussed":6819,"sty":6820,"Ġdesigned":6821,"Ġornaments":6822,"Ġdreamt":6823,"Oops":6824,"itted":6825,"Ġnoses":6826,"Ġcorners":6827,"ne":6828,"ĠMaddie":6829,"ĠTodd":6830,"ĠSimon":6831,"child":6832,"Ġpecked":6833,"Ġslammed":6834,"int":6835,"unched":6836,"Ġswans":6837,"Ġafford":6838,"iley":6839,"ĠGina":6840,"Rex":6841,"Ew":6842,"Ġfeast":6843,"Ġsports":6844,"Ġhitting":6845,"oey":6846,"Ġage":6847,"Roar":6848,"Ġstreets":6849,"Ġwag":6850,"Ġtissue":6851,"ĠFar":6852,"Ġdads":6853,"Ġache":6854,"Ġaside":6855,"ĠJackie":6856,"ccoon":6857,"Ġraccoon":6858,"Ġsponge":6859,"Ġstain":6860,"Ġrequested":6861,"ĠBack":6862,"Ġmeals":6863,"Ġcuriously":6864,"Ġforks":6865,"Jenny":6866,"Ġsunflowers":6867,"Ġreflection":6868,"Ġsnowfl":6869,"Ġwarnings":6870,"Ġtails":6871,"arrow":6872,"ĠRalph":6873,"ĠZoey":6874,"Ġdances":6875,"Ġprett":6876,"Ġplans":6877,"Ġbows":6878,"ido":6879,"Ġvanilla":6880,"cky":6881,"Ġshaped":6882,"Ġfamiliar":6883,"ĠQueen":6884,"Ġsparks":6885,"Ġdet":6886,"ĠAlthough":6887,"Ġgri":6888,"Ġleaning":6889,"Ġdollars":6890,"Jane":6891,"ĠThose":6892,"Ġcoloring":6893,"Ġremembering":6894,"Ġadult":6895,"Ġbreathed":6896,"Ġintrigued":6897,"Ġgreeted":6898,"Ġsale":6899,"Ġscrews":6900,"Ġgrandchild":6901,"ition":6902,"Ġduckling":6903,"Ġforgets":6904,"Ġspreading":6905,"osen":6906,"Ġgasp":6907,"Ġchosen":6908,"ĠZara":6909,"Ġastron":6910,"Ġthrown":6911,"Ġshops":6912,"Ġprettier":6913,"Ġtwice":6914,"Ġpraying":6915,"ĠHoot":6916,"Ġtunnels":6917,"ĠAsh":6918,"Ġhour":6919,"aker":6920,"Ġpotion":6921,"--":6922,"Ġenthusi":6923,"Ġtouches":6924,"Ġastronaut":6925,"Ġswords":6926,"Ġenthusiasm":6927,"Ġhusband":6928,"arac":6929,"Ġsailors":6930,"ertain":6931,"ĠOur":6932,"Ġgardener":6933,"otten":6934,"Ġmoo":6935,"endy":6936,"Ġhops":6937,"Ġzipping":6938,"Ġspikes":6939,"Ġsuperheroes":6940,"Ġcorre":6941,"Ġreason":6942,"Ġmagician":6943,"Ġwishing":6944,"Ġdaring":6945,"Ġspoonful":6946,"Ġgrandparents":6947,"ĠFu":6948,"mallow":6949,"Ġleast":6950,"Ġmarsh":6951,"shions":6952,"Ġskunk":6953,"ĠAmelia":6954,"Ġreass":6955,"Ġchanging":6956,"ĠFriends":6957,"Ġdod":6958,"ĠFido":6959,"Ġborrowed":6960,"Ġtodd":6961,"Ġscamp":6962,"Ġcounts":6963,"Ġpens":6964,"Ġflight":6965,"Ġforgetting":6966,"Ġrotten":6967,"Alice":6968,"Ġbodies":6969,"Ġencourag":6970,"Ġflavors":6971,"Ġ10":6972,"Ġguests":6973,"Woof":6974,"Ġhopeful":6975,"ently":6976,"Ġneare":6977,"ĠStar":6978,"Ġwoof":6979,"ounced":6980,"ĠMeg":6981,"Ġsnuggle":6982,"Ġmesmerized":6983,"Ġsending":6984,"fly":6985,"Ġheroes":6986,"Ġcharac":6987,"Ġcharacter":6988,"Ġmuscle":6989,"stick":6990,"Ġbuzzed":6991,"ĠSun":6992,"Ġseaw":6993,"Ġneatly":6994,"Ġgrows":6995,"wk":6996,"oni":6997,"Ġwraps":6998,"ĠListen":6999,"Ġsteady":7000,"Ġposs":7001,"Whee":7002,"Ġnibb":7003,"Ġfeeding":7004,"ĠLi":7005,"Ġmarshmallow":7006,"Ġhandsome":7007,"Our":7008,"Ġcond":7009,"Ġmints":7010,"irrel":7011,"llen":7012,"Ġdelivering":7013,"the":7014,"Ġnine":7015,"Ġoh":7016,"antha":7017,"Ġdived":7018,"bba":7019,"Ġpolitely":7020,"Ġzebras":7021,"ĠQuick":7022,"Ġonward":7023,"Ġalien":7024,"Ġsuffering":7025,"Ġnapkins":7026,"Ġwarmer":7027,"ĠDe":7028,"Boo":7029,"Amy":7030,"years":7031,"Ġsneezing":7032,"Ġbaths":7033,"Ġhonked":7034,"ĠFrog":7035,"Ġplain":7036,"Ġdefe":7037,"Ġplucked":7038,"Ġcrashing":7039,"Ġmatters":7040,"Ġembarrass":7041,"ĠUnder":7042,"ĠWendy":7043,"Ġposter":7044,"ection":7045,"ĠthatÃ¢":7046,"meal":7047,"Ġlifts":7048,"Sally":7049,"Ġrefreshing":7050,"ÅĵMom":7051,"Ġunsure":7052,"Ġseaweed":7053,"ĠBirthday":7054,"Ġlungs":7055,"ĠSof":7056,"Ġstudents":7057,"Ġincreased":7058,"Ġcrew":7059,"Ġjoining":7060,"Ġstands":7061,"ĠAli":7062,"Some":7063,"Sue":7064,"Ġtoddler":7065,"Ġoatmeal":7066,"Ġscen":7067,"allowed":7068,"Ġproper":7069,"Ġpreparing":7070,"Ġswallowed":7071,"Ġdip":7072,"ĠDes":7073,"Ġglued":7074,"Ġthud":7075,"ÅĵBut":7076,"Ġexpress":7077,"Ġfocu":7078,"ĠFrosty":7079,"ĠLia":7080,"Ġwhispers":7081,"Ġrespond":7082,"ĠBessie":7083,"Ġwatering":7084,"aster":7085,"Ġamount":7086,"Ġdie":7087,"Ġropes":7088,"Ġperformed":7089,"Ġtoaster":7090,"ĠBaa":7091,"ĠRuth":7092,"Ġstarfish":7093,"Ġleads":7094,"Ġtrembled":7095,"Ġpresses":7096,"Ġwobbly":7097,"Ġtriangles":7098,"Ġhawk":7099,"Ġlessons":7100,"ĠFarmer":7101,"Ġcushions":7102,"Ġbiting":7103,"Ġpostman":7104,"ĠHolly":7105,"ĠThatÃ¢":7106,"Ġgeese":7107,"while":7108,"Ġcau":7109,"ĠMomma":7110,"ÅĵWell":7111,"Ġdancers":7112,"Ġpops":7113,"Ġpuff":7114,"Ġtalks":7115,"Ġsniffs":7116,"Ġresisted":7117,"Ġscraped":7118,"Ġfocused":7119,"Ġmerry":7120,"ĠLove":7121,"Ġbully":7122,"Ġadults":7123,"Ġpanicked":7124,"Ġconfl":7125,"Ġrushing":7126,"Ġnecklaces":7127,"ĠMouse":7128,"Ġfreedom":7129,"vant":7130,"Ġflas":7131,"Ġpuppet":7132,"Ġsofter":7133,"Ġslips":7134,"ĠPatch":7135,"Ġwaddled":7136,"Ġfirmly":7137,"ĠSquirrel":7138,"Ġtrot":7139,"iona":7140,"ados":7141,"Ġjoyful":7142,"Ġfirefly":7143,"Ġencouraging":7144,"Ġtested":7145,"Ġwrigg":7146,"Ġdropping":7147,"ÅĵWhere":7148,"Ġdrawers":7149,"Ġfrowning":7150,"Ġtables":7151,"onna":7152,"Ġwaterfall":7153,"Ġworn":7154,"Ġwiggle":7155,"Bun":7156,"ĠDavey":7157,"Ġev":7158,"ippy":7159,"ĠMean":7160,"Ġblast":7161,"ĠSamantha":7162,"ĠBubba":7163,"Ġnervously":7164,"Ġfaded":7165,"rey":7166,"Ġlifting":7167,"bird":7168,"ĠOnly":7169,"Ġscampered":7170,"ĠMaddy":7171,"Ġrout":7172,"Ġdrivers":7173,"Ġhumans":7174,"lets":7175,"Ġspat":7176,"Ġexplo":7177,"cake":7178,"Ġappreciation":7179,"Ġpours":7180,"ĠMegan":7181,"Ġfirefighter":7182,"Ġrobber":7183,"Ġdrawn":7184,"Ġsqueak":7185,"Ġthoughts":7186,"Ġpennies":7187,"Ġrespected":7188,"ĠStay":7189,"Ġquarreling":7190,"Ġpigeons":7191,"Ġthroughout":7192,"Ġtwinkled":7193,"Ġleapt":7194,"retty":7195,"ĠFlopsy":7196,"Ġocc":7197,"ĠHoney":7198,"ĠRay":7199,"Ġstacked":7200,"ĠTuna":7201,"Fo":7202,"Ġdresser":7203,"ĠFuzzy":7204,"Joe":7205,"ĠFe":7206,"Ġscient":7207,"Ġfits":7208,"rrr":7209,"Ġcoc":7210,"but":7211,"Ġmaster":7212,"Ġscientist":7213,"ears":7214,"roken":7215,"ĠMeanwhile":7216,"Every":7217,"ĠMina":7218,"Ġbravest":7219,"Ġavocados":7220,"ĠKaty":7221,"Mary":7222,"Ġovercome":7223,"Ġstrongest":7224,"Ġmonths":7225,"ushed":7226,"Ġelf":7227,"Ġpolar":7228,"ĠSofia":7229,"Ġplaytime":7230,"Ġsan":7231,"Ġnotes":7232,"Listen":7233,"Ġgonna":7234,"fire":7235,"Ġnur":7236,"ĠTake":7237,"Ġcertain":7238,"ĠSpl":7239,"Ġmanag":7240,"ĠFreddie":7241,"Ġwept":7242,"Ġnood":7243,"ĠAng":7244,"Ġmunch":7245,"Ġspins":7246,"Ġscored":7247,"Ġcolder":7248,"Ġechoed":7249,"bage":7250,"Ġcosy":7251,"Ġconvers":7252,"Ġwakes":7253,"ĠUp":7254,"Ġgarbage":7255,"Ġplayroom":7256,"Ġdesigns":7257,"Ġperforming":7258,"ĠEva":7259,"eezes":7260,"Mine":7261,"Ġpeck":7262,"Ġprob":7263,"ĠFiona":7264,"Ġsank":7265,"Ġflown":7266,"Ġtricycle":7267,"Ġsweetest":7268,"Ġprove":7269,"ĠOwl":7270,"Ġforgiving":7271,"Ġprobably":7272,"Ġmarshmallows":7273,"ca":7274,"Ġgest":7275,"Ġbehaving":7276,"cher":7277,"rying":7278,"iment":7279,"Ġpumpkins":7280,"Ġexplorer":7281,"Ġguide":7282,"oke":7283,"please":7284,"Ġsqueezing":7285,"Ġrobots":7286,"ĠFire":7287,"Ġtossed":7288,"ÅĵIf":7289,"Ġblinking":7290,"bbling":7291,"Ġcausing":7292,"ĠPh":7293,"Ġbells":7294,"undred":7295,"...\"":7296,"Very":7297,"broken":7298,"Ġshown":7299,"Ġcobwebs":7300,"ÅĵOkay":7301,"urprise":7302,"hew":7303,"Ġsquishy":7304,"ĠDespite":7305,"ĠJojo":7306,"Like":7307,"Ġspices":7308,"Ġhaird":7309,"Ġpassengers":7310,"Ġcongratul":7311,"Ġcraft":7312,"Ġties":7313,"fus":7314,"Ġtighter":7315,"Ġhealing":7316,"Ġmate":7317,"Ġangels":7318,"?!\"":7319,"Cl":7320,"Ġyielded":7321,"ading":7322,"Ġreversed":7323,"ilda":7324,"Ġpound":7325,"Ġsadd":7326,"ĠMae":7327,"Ġaimed":7328,"Ġnapping":7329,"ĠCurious":7330,"ĠLouise":7331,"Ġgiggles":7332,"upt":7333,"Ġnearly":7334,"Ġpays":7335,"Ġoffic":7336,"Ġunw":7337,"Ġdistract":7338,"Ġ2":7339,"Ġkittens":7340,"ĠStill":7341,"Ġinstruments":7342,"Ġwider":7343,"ĠBirdy":7344,"Follow":7345,"ammy":7346,"Ġreun":7347,"mates":7348,"Ġsewing":7349,"alloween":7350,"Ġtil":7351,"aying":7352,"Ġnuzz":7353,"ĠIm":7354,"Ġdoorway":7355,"Ġconflict":7356,"ĠBecause":7357,"Ġclues":7358,"Ġappreciated":7359,"Ġinj":7360,"Ġpaintbrush":7361,"Ġbrushing":7362,"found":7363,"Ġcoug":7364,"Ġshoo":7365,"Ġgrandd":7366,"Ġaction":7367,"Lisa":7368,"Watch":7369,"Ġyum":7370,"ĠWell":7371,"Ġease":7372,"Ġloading":7373,"Ġbru":7374,"Ġpassports":7375,"Ġcottage":7376,"onies":7377,"Alright":7378,"ĠHalloween":7379,"Ġpaths":7380,"Ġheartbroken":7381,"Ġais":7382,"Ġblocked":7383,"Ġmerma":7384,"ĠRocky":7385,"Ġlaying":7386,"Ġslipping":7387,"ino":7388,"Ġsweep":7389,"Ġresults":7390,"Ġanger":7391,"ĠPen":7392,"Ġbelts":7393,"Ġrepeating":7394,"Ġpins":7395,"Ġfigures":7396,"Ġbits":7397,"Johnny":7398,"Ġevil":7399,"Ġsoaking":7400,"antastic":7401,"idey":7402,"Ġmailed":7403,"Ġwithin":7404,"asty":7405,"ĠStart":7406,"Ġtwisty":7407,"isc":7408,"Ġtwisting":7409,"ĠPippin":7410,"ĠHope":7411,"Ġsuffered":7412,"dding":7413,"ĠMaisy":7414,"ĠAlly":7415,"Ġtuck":7416,"Ġconnected":7417,"Ġpuzzled":7418,"âĤ¬,":7419,"Ġshovels":7420,"Ġbuses":7421,"Ġaccomplished":7422,"Ġdamaged":7423,"Ġnoodles":7424,"Ġund":7425,"Ġcrossing":7426,"Ġhundred":7427,"ighting":7428,"Ġbreathing":7429,"Ġsever":7430,"Ġlicking":7431,"Ġbehavior":7432,"Ġroars":7433,"Ġseveral":7434,"Ġtying":7435,"Ġshrug":7436,"Ġresponsib":7437,"Ġbracelets":7438,"Ġsurfing":7439,"Ġsurrendered":7440,"ĠPippa":7441,"Ġrisks":7442,"Ġfinishing":7443,"Ġdespite":7444,"Ġfleas":7445,"Ġtoward":7446,"ÅĵPlease":7447,"Ġencount":7448,"ĠSpidey":7449,"Ġlending":7450,"Ġstreamers":7451,"Ġhairdress":7452,"Ġhumming":7453,"Ġdefin":7454,"ĠGreen":7455,"byes":7456,"lves":7457,"Ġsupported":7458,"Ġshady":7459,"Ġoysters":7460,"ĠTime":7461,"Ġcleaner":7462,"Ġquieter":7463,"Ġawoke":7464,"Vroom":7465,"Ġluckily":7466,"Ġgoodbyes":7467,"Ġwhose":7468,"ÅĵOf":7469,"Ġignoring":7470,"Ġstitches":7471,"Ġrainy":7472,"Ġrather":7473,"Ġtablet":7474,"isions":7475,"Ġponies":7476,"Take":7477,"ĠFlo":7478,"Ġedges":7479,"Ġcuddles":7480,"ĠJonny":7481,"erk":7482,"Ġfantastic":7483,"ĠEliz":7484,"unity":7485,"ecca":7486,"eling":7487,"Ġslither":7488,"Ġcloudy":7489,"Ġfrowns":7490,"ĠDani":7491,"Surprise":7492,"Ġhanding":7493,"ening":7494,"Ġfinal":7495,"Ġsnowflakes":7496,"ĠBecky":7497,"ppies":7498,"Ġsped":7499,"ĠWally":7500,"Ġdrown":7501,"Ġelbow":7502,"Ġhairdresser":7503,"Ġcotton":7504,"Ġthorns":7505,"ĠWil":7506,"Ġdefinitely":7507,"Ġcoral":7508,"Ġrains":7509,"Ġfocus":7510,"ĠPretty":7511,"ĠAuntie":7512,"Ġgesture":7513,"Ġkings":7514,"Ġsmallest":7515,"Ġsurv":7516,"Ġbattle":7517,"In":7518,"Ġsy":7519,"Ġreminding":7520,"Ġwisely":7521,"ÅĵNow":7522,"crow":7523,"Ġcorrectly":7524,"Ġvines":7525,"Ġdecisions":7526,"Ġdriveway":7527,"Ġsou":7528,"ĠAny":7529,"onnie":7530,"ĠJaney":7531,"athy":7532,"Ġpeeled":7533,"Ġnewfound":7534,"ĠX":7535,"Ġsqueaked":7536,"whe":7537,"ĠLuc":7538,"Ġchopped":7539,"Ġsharks":7540,"Ġprick":7541,"Ġstudent":7542,"Ġsnort":7543,"Ġwarri":7544,"ĠKelly":7545,"Ġgrandson":7546,"Ġsymbols":7547,"Ġweeds":7548,"aby":7549,"ĠMother":7550,"Ġsimply":7551,"Ġfishes":7552,"ĠRain":7553,"ĠKevin":7554,"rie":7555,"cent":7556,"ĠFroggy":7557,"Ġbandages":7558,"Ġgranddaughter":7559,"Ġwobble":7560,"onse":7561,"Ġresponse":7562,"Ġnasty":7563,"Ġexcept":7564,"Ġexercises":7565,"we":7566,"Ġstopping":7567,"steps":7568,"Ġtar":7569,"Ġoccas":7570,"elie":7571,"Ġafar":7572,"Ġbanged":7573,"Ġdarl":7574,"Ġni":7575,"Ġinspired":7576,"Ġdarlings":7577,"father":7578,"Ġtravels":7579,"abby":7580,"Ġtipped":7581,"Ġdisturbing":7582,"Ġfills":7583,"Ġmasterp":7584,"Ġlent":7585,"Ġflipped":7586,"ÅĵHey":7587,"Ġfootsteps":7588,"ĠPepper":7589,"worm":7590,"Ġpedaled":7591,"line":7592,"Ġbirdhouse":7593,"Ġwindowsill":7594,"Ġpurr":7595,"Ġspits":7596,"Ġtravelling":7597,"aa":7598,"ĠWelcome":7599,"Ġships":7600,"Ġconvin":7601,"Ġpresented":7602,"Ġscarecrow":7603,"ĠJax":7604,"sol":7605,"Ġaddress":7606,"Ġpunishment":7607,"Ġplanting":7608,"Ġapologised":7609,"mered":7610,"Ġchocolates":7611,"Ġantic":7612,"ĠExcitedly":7613,"ddie":7614,"Ġforests":7615,"Ġsurfboard":7616,"ms":7617,"Ġcongratulated":7618,"ĠBounce":7619,"ĠDory":7620,"Ġarranged":7621,"Ġbelieving":7622,"Ġreassured":7623,"Ġtrotted":7624,"ĠAr":7625,"ĠElle":7626,"Ġreunited":7627,"Em":7628,"Ġnodding":7629,"Ġencouragement":7630,"Ġcheers":7631,"Ġlies":7632,"ĠJoan":7633,"Ġimages":7634,"ĠFeeling":7635,"Ġpoppies":7636,"ĠPu":7637,"Ġreapp":7638,"Ġcampfire":7639,"Ġsuits":7640,"Ġbusiness":7641,"Ġclerk":7642,"Ġtarget":7643,"ooky":7644,"Ġmarve":7645,"Ġsails":7646,"Ġmagnif":7647,"issa":7648,"perate":7649,"ĠSplash":7650,"Ġofficers":7651,"Ġterrified":7652,"Ġbackpacks":7653,"manda":7654,"Ġgrip":7655,"Ġcovering":7656,"utter":7657,"Ġyel":7658,"Ġknots":7659,"Ġactivity":7660,"ĠBow":7661,"Beep":7662,"inkle":7663,"Ġyelped":7664,"Ġsurprising":7665,"Ġwrinkled":7666,"Ġsmelling":7667,"Ġexpert":7668,"ĠOther":7669,"Ġmood":7670,"Ġmasterpiece":7671,"Ġdep":7672,"ĠFighting":7673,"otte":7674,"ĠSnowman":7675,"Ġchanges":7676,"Ġconcert":7677,"Ġchilly":7678,"ĠStan":7679,"Quick":7680,"Ġspills":7681,"Ġspeeding":7682,"Ġtesting":7683,"Ġtasting":7684,"Ġbraver":7685,"Ġpleaded":7686,"Ġsniffing":7687,"ĠOkay":7688,"Ġcomforting":7689,"Ġdelayed":7690,"Ġgears":7691,"ĠPhil":7692,"Ġcalmly":7693,"ĠStartled":7694,"ats":7695,"acle":7696,"acles":7697,"asha":7698,"Ġlabels":7699,"Ġmermaid":7700,"Ġsuggestion":7701,"ider":7702,"ĠElly":7703,"ĠDog":7704,"ĠAmanda":7705,"Ġaware":7706,"Ġdiscussing":7707,"Ġstumble":7708,"ĠTry":7709,"Ġjars":7710,"Ġspies":7711,"Ġbelongings":7712,"Ġmischie":7713,"ĠQuackers":7714,"Ġworrying":7715,"Ġmagazines":7716,"Ġbothering":7717,"flies":7718,"Ġcrowns":7719,"Ġartwork":7720,"Ġalthough":7721,"Ġunderstands":7722,"Ġdisplayed":7723,"Ġmischievous":7724,"ĠDuck":7725,"ails":7726,"Ġpuck":7727,"Ġadmiration":7728,"Ġefforts":7729,"ĠAna":7730,"Ġburying":7731,"Ġheight":7732,"Ġfoxes":7733,"screen":7734,"emma":7735,"Ġhoo":7736,"Ġunfortunately":7737,"Mandy":7738,"pen":7739,"Ġsav":7740,"Ġrefuse":7741,"Ġseller":7742,"ĠJean":7743,"Ġbaskets":7744,"ĠBri":7745,"Ġtoolbox":7746,"rier":7747,"ighing":7748,"Ġbuddy":7749,"Ġbitten":7750,"ĠOutside":7751,"Ġexperienced":7752,"ĠDaniel":7753,"Ġdecl":7754,"ĠCharlotte":7755,"Ġbless":7756,"inted":7757,"Ġque":7758,"ĠSpe":7759,"Teddy":7760,"vroom":7761,"Ġdragonfly":7762,"Ġvehicles":7763,"wise":7764,"bell":7765,"Ġpackages":7766,"what":7767,"Ġdisc":7768,"Ġsolving":7769,"Ġdump":7770,"ibbit":7771,"ugging":7772,"Ġpandas":7773,"Ġannoyed":7774,"Ġtumbled":7775,"Ġmomma":7776,"Ġmemb":7777,"ipes":7778,"ĠRoger":7779,"ĠNancy":7780,"aturday":7781,"Ġmembers":7782,"Ġseashells":7783,"ĠSnowball":7784,"ÅĵThe":7785,"Ġfires":7786,"Ġwarmly":7787,"ĠSaturday":7788,"Ġposit":7789,"Ġwealth":7790,"Ġnibbled":7791,"Jen":7792,"Ġsunscreen":7793,"aint":7794,"Ġpeas":7795,"Ġtreated":7796,"Ġtroubles":7797,"ĠFrankie":7798,"Ġsquaw":7799,"Ġrotting":7800,"ĠHelen":7801,"Ġscent":7802,"Ġmaterial":7803,"ÅĵSure":7804,"ĠLina":7805,"ĠFort":7806,"Ġconqu":7807,"Ġstomp":7808,"Ġgazing":7809,"ĠTy":7810,"Ġcoach":7811,"Ġinsisting":7812,"Ġuntied":7813,"ĠPatty":7814,"Ġdiso":7815,"Ġprayers":7816,"Ġenviron":7817,"Ġparted":7818,"Joey":7819,"Ġconversation":7820,"Mag":7821,"Ġcollap":7822,"ĠElsa":7823,"Ġencountered":7824,"All":7825,"Ġjoins":7826,"Ġloops":7827,"aver":7828,"Ġraces":7829,"Ġsewed":7830,"Ġsill":7831,"Ġteachers":7832,"Ġenvironment":7833,"Ġscurrying":7834,"owing":7835,"attered":7836,"Ġwhispering":7837,"Ġjoked":7838,"Ġargum":7839,"Ġpurpose":7840,"Ġtilted":7841,"ĠAnnab":7842,"ĠSasha":7843,"Ġstored":7844,"Ġorders":7845,"Ġloses":7846,"Dear":7847,"Ġexch":7848,"Ġhoops":7849,"Ġgenie":7850,"Ġcowboy":7851,"ĠFortunately":7852,"ĠTammy":7853,"ppa":7854,"Ġsheets":7855,"Ġspooky":7856,"Ġtweet":7857,"Ġtoss":7858,"order":7859,"Ġpermitted":7860,"airy":7861,"ĠAva":7862,"Get":7863,"Goodnight":7864,"Ġaim":7865,"ongo":7866,"ĠGus":7867,"Sarah":7868,"Ġdiamonds":7869,"Ġscram":7870,"Ġtype":7871,"iscuit":7872,"ĠEddie":7873,"Ġpupils":7874,"Ġanticip":7875,"ana":7876,"Ġglittering":7877,"Ġtrans":7878,"Ġqueens":7879,"Ġturtles":7880,"illiam":7881,"Ġbeaming":7882,"Ġnearest":7883,"Ġends":7884,"Ġtubes":7885,"Ġmaker":7886,"Ġservant":7887,"ÅĵSee":7888,"Ġdonkey":7889,"Ġvisitors":7890,"ĠRudy":7891,"Ġfilms":7892,"ĠSw":7893,"Ġspells":7894,"Ġopport":7895,"Ġgap":7896,"igger":7897,"ĠEric":7898,"Ġuntie":7899,"ĠWoo":7900,"Ġcleared":7901,"Ġfins":7902,"Ġstroke":7903,"ĠSe":7904,"Ġrin":7905,"ĠStitch":7906,"Ġtapping":7907,"Ġoppos":7908,"Ġwasting":7909,"Ġcustomers":7910,"Ġnurses":7911,"usty":7912,"Ġpriz":7913,"Ġswo":7914,"Ġshall":7915,"Ġhunters":7916,"Ġger":7917,"ĠLy":7918,"Ġconvinced":7919,"aven":7920,"Ġwounds":7921,"Ġswollen":7922,"ĠHold":7923,"ĠSeeing":7924,"Ġgoats":7925,"Ġsweaty":7926,"Ġdressing":7927,"Ġslowed":7928,"ĠSpeedy":7929,"ĠGrand":7930,"Ġdeclared":7931,"ĠPoor":7932,"Ġdot":7933,"Ġexamining":7934,"orter":7935,"elope":7936,"Ġopposite":7937,"Ġcharacters":7938,"ilities":7939,"Ġfailed":7940,"Tw":7941,"ĠSk":7942,"Ġtidied":7943,"Ġtransf":7944,"Ġgrandfather":7945,"Ġwarrior":7946,"ĠElsie":7947,"Ġforgiveness":7948,"ĠFinny":7949,"Ġsternly":7950,"Ġgoodies":7951,"ĠTerry":7952,"Ġguessing":7953,"Ġlipstick":7954,"ĠMin":7955,"Ġpeep":7956,"Ġyoungest":7957,"Ġscratching":7958,"Leave":7959,"Ġseagulls":7960,"mies":7961,"rest":7962,"Ġinchworm":7963,"Ġbeeped":7964,"empt":7965,"Ġmeowing":7966,"Wh":7967,"ĠLion":7968,"Ġrescuing":7969,"ĠWilliam":7970,"So":7971,"Ġthanking":7972,"Ġquestioned":7973,"Ġattempt":7974,"Ġscrambled":7975,"ĠYouÃ¢":7976,"Ġgrat":7977,"Ġdripping":7978,"Ġbou":7979,"ĠSpring":7980,"Ġtires":7981,"Ġbouqu":7982,"Bo":7983,"Ġactive":7984,"Ġstall":7985,"Ġform":7986,"ĠBongo":7987,"Ġanticipation":7988,"rily":7989,"Ġpicnics":7990,"Ġnibble":7991,"acy":7992,"Ġaisle":7993,"Ġblond":7994,"Ġfloors":7995,"Ġresponded":7996,"Ġresponsibility":7997,"Ġshin":7998,"Ġsmashed":7999,"Ġattacked":8000,"Ġmatey":8001,"Ġforce":8002,"ivia":8003,"Ġexplains":8004,"ĠIzzy":8005,"Ġknocking":8006,"Ġemerged":8007,"Fl":8008,"Ġobeyed":8009,"ĠTaking":8010,"Ġinter":8011,"Ġdiscoveries":8012,"Ġgratitude":8013,"Ġting":8014,"Ġjud":8015,"Ġvibr":8016,"cie":8017,"Ġrely":8018,"Stay":8019,"Ġrays":8020,"Ġzooms":8021,"Ġdecoration":8022,"Ġmanners":8023,"Ġcharge":8024,"Ġclassmates":8025,"Any":8026,"Ġsprout":8027,"Ġsens":8028,"Ġsnug":8029,"Ġvisits":8030,"Ġsigning":8031,"An":8032,"ĠJason":8033,"Ġspy":8034,"ÅĵWho":8035,"Ġaeroplanes":8036,"Ġsoot":8037,"ĠgirlÃ¢":8038,"Ġtwists":8039,"Ġsurvive":8040,"ebecca":8041,"Ġvegg":8042,"Ġinstantly":8043,"Always":8044,"munk":8045,"anda":8046,"ippers":8047,"Ġloc":8048,"ĠPeppa":8049,"Ġwiggly":8050,"ĠAmber":8051,"Ġseals":8052,"ĠBeh":8053,"Ġself":8054,"Ġbreaths":8055,"ĠTessa":8056,"Ġunwra":8057,"Ġramp":8058,"Ġrumbling":8059,"roll":8060,"yl":8061,"ĠLa":8062,"act":8063,"sm":8064,"Ġbuckled":8065,"Ġbrightest":8066,"Ġhen":8067,"Ġshrunk":8068,"Ġmunched":8069,"Ġbond":8070,"Ġbeeh":8071,"Ġincreasing":8072,"Ġshimmering":8073,"athan":8074,"Ġpurrs":8075,"Ġmanager":8076,"ĠRebecca":8077,"idence":8078,"ĠWin":8079,"Ġdoorbell":8080,"Ġflaps":8081,"Ġearned":8082,"ĠPenelope":8083,"Ġchatter":8084,"gain":8085,"ooking":8086,"ching":8087,"Ġmovements":8088,"Ġlowered":8089,"udged":8090,"Ġswaying":8091,"iens":8092,"ĠBobbie":8093,"ĠCrabby":8094,"ittered":8095,"Ġaliens":8096,"Ġhonking":8097,"Ġcracks":8098,"ĠZoomy":8099,"Ġargument":8100,"ssss":8101,"Ġchipmunk":8102,"Ġdisobey":8103,"ĠChick":8104,"inger":8105,"Ġwhoever":8106,"Ġwinding":8107,"ĠNana":8108,"romise":8109,"Ġannounced":8110,"ummies":8111,"Ġprevented":8112,"its":8113,"Ġbeaver":8114,"ÅĵGood":8115,"ĠOlivia":8116,"Ġrowed":8117,"ĠBrian":8118,"Ġswitched":8119,"Ġbathing":8120,"lied":8121,"Ġamu":8122,"Mr":8123,"ĠAnt":8124,"ĠSparkle":8125,"Ġmosquitoes":8126,"Ġtaped":8127,"storm":8128,"ĠMatilda":8129,"Ġposes":8130,"oscope":8131,"Ġoffering":8132,"Ġswap":8133,"ĠFel":8134,"Ġnuzzled":8135,"ĠGary":8136,"Ġcons":8137,"Ġprickly":8138,"aret":8139,"flowers":8140,"Ġswayed":8141,"Ġsteth":8142,"Ġflips":8143,"uel":8144,"Ġdestroying":8145,"Ġlapt":8146,"ĠRicky":8147,"Ġdesigning":8148,"Ġminds":8149,"da":8150,"Ġcares":8151,"bee":8152,"Ġbadger":8153,"ĠRobo":8154,"ĠBehind":8155,"LetÃ¢":8156,"Ġjobs":8157,"Ġdodged":8158,"Ġglimmering":8159,"Ġrats":8160,"Ġcrawls":8161,"ĠAshley":8162,"ddles":8163,"ĠEver":8164,"ĠJilly":8165,"Ġwhistles":8166,"Ġsmelt":8167,"Bang":8168,"Ġcrops":8169,"rink":8170,"ĠSir":8171,"Ġbeautifully":8172,"Ġobserving":8173,"Ġdangers":8174,"Ġbeating":8175,"Ġshines":8176,"Ġexploded":8177,"Ġknives":8178,"Ġmillion":8179,"Ġscolds":8180,"Ġcheckout":8181,"Ġscooters":8182,"Ġstamped":8183,"Ġsnaps":8184,"angle":8185,"ĠReady":8186,"Ġcustomer":8187,"ĠSweet":8188,"Ġgenerosity":8189,"lo":8190,"lph":8191}