#version: 0.2
i n
Ġ a
Ġ t
r e
o n
h e
t i
e n
Ġ o
e r
Ġ s
a l
Ġ c
Ġ p
Ġt he
e d
i s
o r
Ġ in
a t
e s
Ġa n
Ġ w
Ġo f
i t
a n
ti on
Ġ d
Ġ f
Ġ m
Ġ b
r o
i c
Ġan d
a r
en t
in g
a s
Ġ re
Ġt o
o m
l e
Ġ e
a tion
u s
e c
v e
o s
i d
a c
u l
Ġ (
Ġ n
Ġ T
l y
Ġ h
u r
Ġt h
it h
a ti
Ġw ith
l o
c e
Ġb e
Ġf or
Ġ is
i m
u n
t er
i l
h o
Ġ g
Ġ A
Ġ l
o t
r a
Ġc on
u t
Ġ C
Ġo r
m ent
ĠT he
o l
Ġ I
Ġs t
e l
Ġa s
e t
i g
Ġp ro
Ġ -
e re
a b
Ġ v
Ġ 1
ent s
i r
i f
u m
at e
t s
Ġ on
Ġ S
a g
i b
v er
Ġ P
d i
u c
re s
Ġc om
Ġp ati
s t
a m
Ġth at
Ġ r
at ed
o p
it y
ti c
in e
ic al
Ġe x
s e
u p
a y
he r
o d
es s
t h
i on
Ġa re
Ġa l
Ġ 2
Ġa t
Ġ #
Ġd e
Ġpati ents
o c
q u
ro m
Ġ us
u d
t ed
Ġa d
Ġw as
e m
u re
r i
Ġd is
Ġ H
a d
Ġ D
f ec
Ġin c
Ġa c
Ġ M
a in
Ġ he
en d
er s
Ġre s
Ġn ot
an t
Ġb y
u g
as e
Ġw ere
ti ve
re at
ĠI n
a re
Ġcom p
ation s
is t
Ġ E
en ce
Ġ im
) .
lo w
Ġp re
Ġc h
p or
o re
ul d
Ġ F
Ġs ho
0 0
u b
Ġ R
p ec
or m
Ġf rom
Ġ N
Ġ un
v id
i a
es t
Ġ B
Ġh a
ig h
Ġs e
Ġn e
Ġre c
re f
ar y
p h
Ġcon t
Ġc an
t her
ag e
Ġd i
Ġ 3
p p
l in
Ġ y
os e
Ġp er
Ġ O
p er
Ġ [
Ġs y
o w
i z
Ġ G
g e
an d
t e
reat ment
y s
f fec
Ġ le
o un
ab le
v en
v i
o us
tion s
o ur
os t
ac t
Ġas s
Ġ it
lo g
en s
Ġw h
Ġha ve
an s
Ġm ay
Ġsho uld
d uc
p l
Ġt reatment
l ud
Ġ W
an ce
i al
re n
as t
p t
b ib
om m
el l
d er
res s
Ġin f
Ġa b
ig n
Ġ L
e ar
i ti
a k
ra p
Ġa pp
Ġ# #
if ic
v al
Ġcon s
Ġin t
c h
ati ve
al ly
Ġth is
) ,
en ti
Ġp l
m on
a us
Ġt r
Ġs ur
o g
as ed
i p
il l
Ġw he
on e
is k
ul ar
ro up
id e
Ġe ffec
lin ical
om e
Ġinc lud
y p
or s
al l
Ġ 4
i es
Ġ U
Ġs c
o ut
or y
ic h
al th
v ed
m in
if f
Ġin ter
Ġus e
en c
omm end
ar d
Ġ 5
â Ģ
Ġp ar
o log
t r
Â ł
Ġr isk
a p
Ġre g
Ġo ther
f ter
w e
Ġd iff
Ġs ub
ere n
u id
Ġm e
Ġh as
i ve
Ġbe en
e p
Ġwh ich
Ġdis e
igh t
le c
an c
Ġth an
Ġm ed
Ġ k
e w
Ġw ho
Ġbe t
u e
oc i
rap y
Ġc linical
Ġp r
re d
Ġim p
al s
f f
por t
os is
ul t
Ġm et
Ġn o
Ġrec ommend
r ug
Ġg roup
ud y
Ġc o
Ġs ign
s o
Ġinc re
ĠT h
Ġw e
il d
Ġus ed
Ġhe alth
. .
Ġa fter
ug h
at es
r ic
Ġ 0
Ġm an
d ic
ro l
a il
on s
Ġm ore
Ġp h
Ġo ut
ere d
Ġg en
' s
Ġdise ase
ol low
Ġ 6
Ġo b
on g
Ġal so
Ġst udy
Ġa g
c er
uc h
u di
ti m
ve l
ag n
ac e
Ġc are
ar i
as es
Ġtr ans
ac h
Ġp os
we en
vid ence
Ġm g
Ġ[ /
as s
Ġs er
Ġf ollow
aus e
f orm
Ġs pec
Ġre l
Ġd ur
Ġbet ween
Ġp res
j ec
Ġm on
t al
Ġthe ir
Ġt im
p le
Ġal l
l ic
Ġa r
Ġdiff eren
p os
d ing
Ġy ear
c tion
Ġc ar
ati c
Ġres p
lo p
il ity
Ġthe se
n e
Ġs up
u al
Ġ en
Ġst udi
e f
Ġin fec
Ġ qu
Ġb ut
oun d
ro p
k e
Ġm od
e ver
Ġo ver
t ing
Ġass oci
ro s
Ġl i
Ġe vidence
Ġan ti
Ġ low
m pt
c ess
Ġd rug
Ġsign ific
ul ts
y l
st em
y c
. ,
c ur
Ġh ad
o x
ĠTh is
u res
m s
Ġ V
al ys
at er
lo c
t ain
v es
Ġpati ent
m un
Ġg uid
re e
er y
Ġp e
ve lop
Ġun der
is s
Ġd ec
v ing
Ġch ild
Ġcons id
i ed
mpt om
are d
por ted
Ġsignific ant
at a
Ġt ri
ĠThe re
Ġh igh
di tion
Ġstudi es
Ġs uch
at h
on d
Ġpro vid
Ġre ce
Ġ if
Ġdur ing
Ġ "
Ġthe rapy
Ġc l
an g
Ġle vel
Ġo c
v ir
Ġd ose
Ġd o
s er
Ġc or
Ġ 9
Ġsy stem
Ġde velop
ĠS t
ic i
Ġwhe n
ac k
om en
vi ew
at ing
Ġ ra
Ġc ell
Ġ 7
Ġon e
ar t
g n
op le
in al
Ġdi agn
ot h
in ation
Ġyear s
in es
ul ation
Ġinf orm
iz ed
Ġs p
Ġt w
r ation
Ġw or
Ġne ed
ĠA l
ra in
Ġ up
re c
b er
ay s
Ġ ro
Ġassoci ated
e k
ĠI t
Ġh y
he d
Ġp ers
min ist
Ġst r
ut e
Ġp o
enc y
ation al
he m
ment s
Ġt est
Ġd ata
Ġs ec
at ory
o id
ac c
Ġthe re
qu i
ec h
ic e
it ed
m it
Ġ1 9
Ġtim e
t en
ib le
Ġsy mptom
r on
ow ever
Ġpe ople
Ġo p
lo od
a x
st r
it al
c om
i le
i tive
Ġcont rol
Ġa v
Ġ2 0
Ġcomp ared
Ġan y
Ġf act
un ction
Ġass ess
Ġsho w
Ġ 8
it e
Ġex per
Ġm ost
Ġe m
Ġsur g
te e
Ġn on
ti s
n al
Ġb ec
Ġ =
Ġus ing
alys is
ti l
ress ion
i ly
Ġa ge
Ġv al
d e
Ġw omen
n ow
ti v
f er
Ġdis c
g en
val u
ed i
Ġd es
Ġ .
us t
on t
ir st
Ġc ol
l u
Ġb lood
c ent
am e
Ġthe y
Ġinform ation
l es
Ġchild ren
Ġ1 0
ra m
o k
ion s
Ġpro g
Ġex am
Ġs ome
enti f
Ġme as
he n
an ge
er g
os p
olog y
Ġs h
Ġre ported
ac ter
Ġon ly
el ine
Ġtw o
an ts
a f
pec tive
l i
Ġt yp
Ġoc cur
Ġit s
Ġ id
ĠA n
Ġcan cer
ver se
Ġ es
d s
r y
Ġapp ro
Ġl im
Ġf irst
th s
Ġde p
ak e
l ed
he s
Ġ2 00
Ġfor m
or t
I V
u tion
C T
Ġ end
ven tion
Ġs o
Ġad minist
Ġre duc
Ġper form
Ġpar tic
Ġv acc
r ib
Ġth ose
ar m
Ġsy n
Ġp op
Ġv ari
Ġsymptom s
ur ren
Ġs m
c es
Ġw ill
Ġgen er
Ġint o
Ġe valu
Ġre m
Ġp ot
iti es
Ġab out
is e
Ġd os
al ity
od y
Ġ K
Ġinclud ing
Ġpr ac
it s
Ġwor k
Ġinfec tion
re ated
n ess
Ġres ults
A T
b o
re l
Ġeffec ts
ter m
Ġm o
Ġde f
Ġre p
Ġin v
r al
Ġm in
Ġs im
Ġh ig
et y
Ġre qui
Ġincre ased
Ġb en
Ġmed ic
Ġconsid ered
ĠA d
Ġcomp le
Ġn um
ra ph
enti al
c ed
Ġin dic
Ġb oth
l is
Ġid entif
ter n
Ġre view
ĠA s
Ġre ac
p ar
orm al
Ġb i
ate ly
.. .,
te in
Ġex pos
ar di
Ġ J
ĠF or
Ġinclud e
tic s
Ġl ong
Ġav ail
Ġpro duc
Ġp ost
Ġimp ro
ĠH owever
Ġ1 2
Ġfollow ing
1 9
or d
ho l
Ġin s
Ġ loc
1 0
Ġph ys
f ul
mon g
an e
Ġd et
Ġwe ek
% )
Ġin di
Ġc ases
i um
c op
in t
Ġpres ent
Ġob ser
v ent
i tion
Ġf unction
ve re
it or
Ġcon f
oun t
om a
Ġrece i
Ġrecommend ed
ab ility
o od
Ġf ound
re qu
Ġpre gn
ver y
Ġk now
Ġ j
a z
u es
Ġl ab
g an
Ġlevel s
Ġm al
og raph
Ġr ate
Ġ## #
Ġh um
un d
Ġth ro
u ally
Ġp ain
e x
Ġac c
Ġs ug
Ġpr im
age ment
ar ly
p tion
r it
en ing
ar k
Ġa m
Ġhig her
Ġ Ġ
Ġcom mon
Ġad dition
is ed
om y
ar g
a ir
Ġex t
Ġb ased
if e
Ġavail able
us ion
ec tion
Ġm or
Ġmon ths
Ġm ul
i od
ec t
h ib
is ion
C C
ver s
Ġbec ause
iz ation
r ac
Ġw ell
in ding
is m
x im
Ġeffec t
ot he
g es
Ġpos s
Ġindi vid
on se
o u
ĠP ati
Ġh yp
m a
d rom
in ed
iti s
Ġim mun
Ġcom mit
c ular
t ho
Ġpl ace
Ġl ess
Ġgroup s
Ġc aus
Ġan alysis
Ġmod el
osp ital
Ġwith out
Ġm ain
ĠI f
urren t
v ic
y t
âĢ ĳ
ĠH IV
Ġb as
Ġa mong
Ġpro b
Ġd ays
Ġdifferen t
Ġpro tein
Ġy our
Ġre f
at ric
Ġmet ho
Ġim port
Ġsurg ery
ĠC h
Ġp at
Ġd oc
at ure
Ġd el
Ġreg ard
rec t
anc y
o uld
ro w
Ġwith in
Ġpro ced
Ġse vere
Ġfact ors
I D
A A
ti ce
1 2
Ġben ef
Ġcommit tee
Ġnum ber
ti t
Ġmed ical
i x
Ġw ould
ech n
Ġsur vi
Ġra di
c rib
Ġf e
Ġad verse
iss ion
Ġcar di
Ġt ak
Ġad v
h y
Ġac tiv
C E
ĠW e
Ġin iti
d u
Ġspec ific
op er
Ġp ub
id ence
Ġli ke
ĠU n
ac y
Ġwhe re
Ġe ach
k in
Ġt reated
ical ly
drom e
ar ge
Ġrecommend ations
Ġe p
ar ch
Ġmeas ure
Ġdiagn osis
tic al
Ġresp onse
ad e
00 0
Ġst and
c o
Ġpop ulation
in c
our s
ate g
ĠC omm
f ore
Ġe ff
ent ly
Ġt er
Ġcom b
Ġtri als
m e
Ġs et
Ġincre ase
Ġinv ol
Ġres ult
Ġex p
Ġh ist
uc t
rop ri
Ġbe fore
Ġdec re
Ġne w
N A
f t
Ġt um
Ġper iod
i an
Ġt echn
el ines
Ġman agement
Ġpers on
tho ugh
um ab
Ġlow er
Ġinclud ed
in u
Ġf l
n ing
iz e
Ġlim ited
Ġthro ugh
Ġhy per
Ġexper i
othe rapy
Ġsec ond
Ġg l
ur al
T T
er c
and om
Ġsub jec
Ġc hem
Ġv ir
s y
ĠPati ents
Ġy ou
Ġn ec
ĠR e
d ro
Ġprim ary
Ġe v
com es
Ġpro t
Ġsyn drome
Ġ1 5
em b
Ġcon cent
Ġb re
il ar
Ġ Q
Ġc ent
Ġin hib
Ġc ase
D A
âĢ ĵ
ĠThe se
Ġ Â
Ġac id
ĠI m
ly m
Ġg i
ot her
op h
Ġa ut
Ġsurvi val
t y
Ġcomp ar
Ġdiagn os
du ce
g ative
ĠP ro
Ġf requ
Ġa ffec
p ati
Ġs af
Ġme an
Ġpos itive
Ġe l
is ts
Ġwhe ther
ron ic
o b
ter s
Ġprac tice
Ġtri al
ti g
ag es
ĠE x
Ġ ur
olog ical
Ġexpos ure
Ġac ute
Ġperform ed
Ġle ad
as cular
Ġ â
i o
le v
lis hed
Ġt es
Ġcell s
Ġeffec tive
Ġc le
oper ative
un g
t or
Ġweek s
Ġpot ential
arm ac
ĠH e
ropri ate
Ġqu ality
Ġpre dic
Ġd ue
Ġout comes
og en
an y
Ġguid ance
Ġco uld
Ġmul ti
a v
vic es
Ġ ed
ur ther
Ġl ife
Ġimport ant
r an
Ġd id
Ġs us
Ġh ospital
Ġc ost
Ġt ra
Ġsup port
Ġg reat
Ġre t
Ġsm all
Ġtyp e
Ġpro cess
Ġcont ain
ven ess
pective ly
Ġor gan
ing le
o v
Ġsignificant ly
e tic
Ġs ol
2 0
C A
Ġes tim
ati s
Ġhum an
Ġr ates
Ġp ress
Ġch ang
er v
Ġf ail
Ġobser ved
Ġc ause
ho log
Ġb ody
l or
al c
ed ing
Ġch ar
Ġknow n
Ġse ver
Ġpar t
os s
Ġinf lu
ol ic
k g
ti es
Ġto tal
Ġre se
Ġposs ible
i or
l ine
ag ing
Ġg ra
Ġconsid er
Ġr andom
ĠU se
] .
Ġth ree
Ġdevelop ment
it her
a j
edi atric
ĠC O
a ily
Ġsim ilar
Ġdos es
Ġ est
c ri
Ġcomp lic
ens ion
ent al
Ġimpro ve
ti veness
5 0
ĠT o
Ġtest ing
al e
Ġdrug s
Ġe t
Ġre nal
Ġ3 0
Ġf am
Ġstand ard
o ve
Ġab s
Ġs ingle
Ġreg im
Ġregard ing
lec t
Ġs u
us s
Ġhe m
Ġhe l
aj or
Ġor al
m ission
a vi
d ay
1 1
Ġchar acter
c l
Ġp ri
Ġint ra
c are
Ġapp ropriate
in s
i e
i v
ĠA c
Ġe arly
rel ated
o le
vi ous
Ġguid elines
Ġcl ass
at or
Ġn ormal
Ġc urrent
Ġof ten
Ġm ust
Ġlike ly
Ġadminist ration
tal ity
Ġpress ure
Ġo l
Ġv is
Ġd aily
Ġdo es
c lud
Ġs ens
Ġh ours
G G
Ġsc re
Ġgi ven
Ġv ol
Ġpro f
lo b
Ġloc al
Ġgener al
Ġad ults
Ġch ronic
et h
Ġplace bo
ic ro
u ro
ĠP h
Ġm ajor
Ġs ame
Ġman y
j ur
ref ore
Ġcom mun
I I
Ġ2 4
at al
Ġc ir
Ġf inding
Ġs am
Ġ1 8
Ġhe art
Ġle ast
us c
ĠP re
Ġactiv ity
ter min
pl ant
R I
jec tion
am m
ves tig
% ,
ce pt
1 3
i qu
ic ation
Ġmor tality
if ied
Ġt e
Ġres pectively
at in
ĠR ec
Ġar ter
Ġad j
Ġst ate
o f
Ġde ath
Ġanti b
ĠE n
ros s
Ġev ents
Ġreac tions
Ġassess ment
ic s
Ġus ually
Ġbe ing
Ġdi ab
Ġe qu
oun g
Ġe ither
Ġsubjec ts
Ġli ver
di tions
el f
Ġcon duc
Ġbre ast
m edi
c in
ĠD rug
b ased
Ġne gative
Ġf ac
Ġwh ile
d ep
ro und
Ġidentif ied
Ġrese arch
Ġvacc ine
Ġpartic ular
i ous
ĠC I
Ġwe ight
are n
Ġr at
Ġm en
ĠC om
Ġchang es
Ġm y
Ġnot ed
rit er
Ġhel p
1 4
1 5
it tee
Ġs kin
Ġl arge
Ġv ery
Ġin jur
c on
Ġ1 4
at us
p ro
in k
y ear
pec ted
Ġm ade
Ġse x
t o
v ity
Ġbe h
ĠComm ittee
Ġrel ated
Ġin vestig
et es
Ġre port
Ġd ay
Ġinc idence
Ġcon ditions
c ome
Ġgreat er
S A
og n
Ġo x
Ġy oung
en z
d om
Ġadminist ered
am in
tain ed
Ġm ater
ic acy
em ia
Ġc alc
Ġpre vious
Ġt iss
ul in
Ġ u
r act
ĠM ed
Ġm emb
Ġ5 0
or ding
ul l
Ġ lo
ĠA m
Ġ lym
Ġ19 9
Ġof f
Ġpri or
Ġat t
itor ing
ech an
h ip
Ġpre vent
Ġan al
Ġpl as
Ġprovid e
or der
crib ed
xim ately
str uc
Ġ1 00
ul ations
ĠS y
Ġc ap
Ġf ib
ic k
Ġset ting
Ġfail ure
A R
Ġrem ain
Ġsug ges
ĠD os
a i
Ġprob le
l er
Ġc er
ĠI V
Ġ ul
Ġthe n
Ġ ir
Ġtim es
Ġpregn ancy
Ġexam ple
ĠHe alth
en e
A L
Ġser vices
Ġdis t
Ġest ab
Ġw ater
Ġshow ed
1 8
Ġv ers
Ġc ho
Ġc riter
Ġ Y
ĠF DA
Ġo per
oc ial
Ġover all
Ġrecei ved
ĠR es
ane ous
iti vity
er m
ic ity
Ġd ys
Ġfinding s
Ġv s
Ġdep end
Ġmet ab
p s
Ġrequi red
ograph y
Ġqu es
g o
ĠN o
Ġs it
Ġl oss
Ġcomplic ations
A C
ir atory
o ugh
Ġdifferen ces
Ġlab or
w ay
Ġproced ure
Ġv i
Ġf urther
Ġa ir
p ut
Ġhy dro
ĠS c
ĠO n
Ġbeh avi
Ġrecommend ation
Ġsurg ical
u als
ĠA t
Ġto x
l as
pec ial
Ġhist ory
ro duc
Ġvir us
ĠD i
Ġ '
Ġ1 3
st e
Ġch ange
Ġthe m
Ġm ight
Ġph armac
term ine
ur s
ĠO ver
1 6
Ġde mon
Ġindivid ual
Ġt em
Ġsaf ety
Ġ9 5
ti al
Ġmetho d
Ġprog ram
Ġeffec tiveness
Ġf em
Ġl es
Ġc all
Ġ1 6
Ġex pl
) :
Ġc he
Ġdifferen ce
Ġag ain
Ġpartic ip
Ġnec ess
Ġde termin
Ġout come
Ġtes ts
ĠC linical
Ġshow n
l ess
er ic
Ġdiab etes
g i
air ment
os cop
Ġcomp any
R T
Ġinter vention
ess ion
Ġde termine
ĠAl l
Ġb l
Ġphys ical
ĠO ther
Ġmedic ation
Ġeff icacy
Ġaddition al
Ġguid eline
loc k
Ġ âĢ
Ġspec ial
Ġscre ening
Ġinfec tions
le ment
Ġm ark
tr ib
Ġ2 5
Ġre duce
uc le
ur n
Ġdisc uss
ĠW hen
ff ici
Ġregim en
ens ive
Ġrequi re
Ġmod er
Ġdoc tor
Ġstr uct
t he
Ġc ount
Ġ ill
Ġexperi ence
se qu
Ġdemon str
Ġc a
Ġneed ed
Ġp ul
Ġt ub
g est
Ġrecei ving
Ġfact or
co hol
Ġcriter ia
ath y
Ġcomb ination
Ġs ide
Ġresp ons
is on
u le
Ġac tive
Ġse lec
Ġt rain
Ġpub lic
g th
Ġdi rect
se e
i el
cri ption
Ġac cess
ĠS e
ord ers
ir m
Ġst atus
ti f
Ġed uc
1 7
Ġcir c
Ġm usc
u ment
um e
Ġapp ear
Ġpro m
Ġthe rap
Ġad d
Ġpers ons
Ġl it
Ġg row
Ġre fer
Ġgen e
Ġc oun
os ter
ph yl
Ġr ange
Ġimp act
y m
clud ed
ab el
Ġsub st
ĠC T
l l
Ġg ast
Ġh and
Ġr ati
ce p
ĠN I
Ġser um
Ġpregn ant
n ormal
Ġtak ing
Ġhe p
Ġh ow
ific ation
ĠW h
Ġt reat
Ġconcent r
anc es
in ce
Ġreduc ed
9 5
m ia
mon ary
G T
Ġl ung
2 5
Ġ +
ne um
ĠAs s
Ġf ood
Ġindivid uals
3 0
f act
r ing
Ġsh ort
Ġhe ad
Ġpres ence
Ġappro ximately
dep end
Ġreduc tion
anc ed
Ġrece pt
in d
Ġt able
Ġsur ve
or k
Ġappro ach
om ic
Ġst atis
f or
our ces
tic ally
Ġcon dition
ĠAl though
Ġm echan
Ġcont inu
ĠDos age
Ġ enc
it ation
Ġg o
re t
Ġ ve
arg et
ven tions
enz a
e u
Ġh owever
Ġare a
pl es
Ġem erg
Ġal low
Ġac h
) ;
ont rol
Ġfam ily
Ġre st
o res
Ġmulti ple
ĠC on
Ġbenef it
Ġ ,
Ġe ven
pec t
Ġc yc
Ġrel ative
Ġplas ma
v ice
y e
ro id
Ġe very
ĠG uid
Ġpl an
Ġf our
a vir
Ġval ue
Ġtechn iqu
as on
Ġm ut
Ġconduc ted
Ġb one
Ġval ues
Ġprovid ed
l amm
as ing
Ġv it
Ġad ult
Ġb acter
n er
Ġcardi ac
ur ing
ak ing
Ġstr ateg
ĠC D
yp e
V ID
Ġbas eline
l ation
Ġdevelop ed
Ġcharacter is
A D
Ġach ie
Ġtiss ue
) (
Ġmin im
Ġsever al
os ph
is h
Ġk e
Ġagain st
ist ent
Ġ Z
ver age
r im
ib ility
Ġsug gest
Ġ1 7
Ġc at
end ed
od e
it ing
ici ans
Ġdel i
Ġinter val
enc es
Ġsec tion
Ġevalu ated
erg y
Ġ4 0
as is
Ġinjur y
li ke
Ġ her
Ġiniti al
Ġb ir
c k
Ġdiff ic
ok ing
Ġcle ar
ul es
Ġresp iratory
Ġe lec
ol d
Ġdiagnos tic
Ġt ake
Ġrandom ized
Ġro le
Ġdis order
Ġvers us
em ic
Ġb le
S T
Ġdur ation
Ġs uc
Ġp s
ri al
Ġth rom
val ence
o int
Ġ X
Ġres ist
2 2
b id
ul ated
et ing
Ġaut h
Ġcer tain
ri es
olog ic
Ġm at
Ġinter ventions
ac tion
Ġdes ign
Ġcomple te
Ġdis orders
at ors
a e
n ot
un c
Ġsc ore
Ġconcentr ations
Ġprof ession
Ġidentif y
Ġevalu ation
Ġare as
Ġnecess ary
Ġc os
ain ed
Ġre pl
re ction
w ard
Ġlym ph
ol es
Ġt arget
a w
R E
ur g
ut es
Ġcar cin
tern ative
u rop
Ġan im
Ġne uro
Ġc lin
2 4
Ġrel ations
l ing
i k
Ġse qu
Ġp neum
Ġ z
Ġp ediatric
Ġp ur
til ity
Ġacc ording
ĠCO VID
ment al
u tions
Ġmon itoring
Ġproced ures
ven ous
ax im
ĠH C
Ġmo lec
Ġd om
ĠD is
por ts
in ary
Ġan alys
Ġlab el
M I
Ġs ize
Ġ ent
Ġcaus ed
Ġcontrol led
Ġol der
H O
Ġinhib it
Ġinflu enza
ros cop
pecial ly
us e
r h
Ġm icro
Ġrep res
ro ph
H S
Ġmeas ures
vir on
Ġcon cer
Ġem p
Ġab normal
Ġpre vention
Ġantib io
d ose
ut ri
al es
am ine
Ġs ocial
ul f
Ġindic ated
g ra
Ġconf irm
Ġmetho ds
Ġim aging
e qu
ol s
Ġm ass
Ġchem otherapy
le ase
E R
Ġtum or
s et
Ġf ew
Ġrati o
Ġassess ed
um m
Ġs elf
a di
Ġre lev
Ġ1 1
Ġtak en
on ia
ĠRec ommend
Ġestab lished
l d
C I
Ġse en
Ġrelations hip
ar r
Ġag ents
Ġbe low
Ġpl us
ri tis
Ġab ove
Ġhealth care
ec ted
Ġmet ast
Ġcommun ity
ti b
Ġdisc ont
Ġav oid
O R
ress ive
Ġdise ases
Ġsur f
Ġal cohol
Ġp aren
ut ed
Â °
ĠT able
Ġbenef its
Ġâ ī
A S
a pp
Ġimp airment
Ġcol lec
ĠThe y
00 1
eren ce
Ġmetab ol
h ort
Ġha ving
Ġcomple x
o di
ter ior
Ġcor on
Ġtrain ing
our ce
ress ed
Ġres id
Ġimp lement
c re
Ġst ar
Ġal one
m an
oc c
ĠNI CE
Ġdef ined
ov ascular
Ġthe refore
yc in
Ġpro l
a ff
ĠE R
Ġtrans plant
Ġf ract
re ad
ĠI I
ax is
y n
oid s
Ġdecre ased
Ġhyper t
Ġmoder ate
ab il
Ġb rain
Ġa im
iel d
Ġm ake
Ġstr ong
Ġvacc ination
ater al
k now
or n
am p
Ġfollow ed
Ġal though
Ġc ult
ce ll
Ġs w
Ġcaus es
Ġlabor atory
Ġble eding
Ġfl uid
Ġm m
0 5
C G
i ent
le t
Ġprog ression
Ġf et
out h
ĠG roup
Ġtreatment s
Ġsign s
ro ke
tion al
Ġim medi
Ġc yt
Ġl ine
Ġag ed
Ġo ur
oc ardi
ĠAm eric
ot e
Ġro ut
Ġdes cribed
N T
ab ly
in fec
N D
I s
ĠUn ited
Ġn ucle
ure d
Ġun til
ĠL e
Ġvol ume
Ġes pecially
Ġl ack
z ed
Ġpre valence
go ing
Ġinf ants
Ġbir th
Ġdec ision
ub le
Ġdiffic ult
ĠT reatment
ag ed
Ġrout ine
ĠD e
Ġb est
Ġser ious
Ġbet ter
u fact
Ġen viron
Ġpul monary
Ġ q
ĠS ome
Ġper cent
ow n
Ġen z
Ġoccur red
Ġle ft
sy ch
Ġpo ly
l and
Ġhealth y
Ġconcent ration
Ġaffec t
Ġproble ms
Ġs ite
ab les
Ġarter y
Ġdoc ument
m ic
Ġcont act
de x
Ġ rap
til l
Ġles ions
h ing
is ms
iz umab
Ġto p
Ġmeasure d
depend ent
Ġb ack
end er
st and
Ġpub lished
g roup
ac tions
Ġques tion
ap s
cer tain
Ġgl uc
Ġparticular ly
id ne
ĠO R
O N
Ġapp lic
Ġelec tr
% ),
Ġmusc le
ĠN e
Ġsystem atic
Ġreac tion
Ġst age
Ġ ens
Ġlong er
Ġin jection
r u
Ġgrow th
Ġ er
ĠU S
w ent
ĠB ec
Ġ6 0
Ġcall ed
ist ing
Ġin duc
ect omy
Ġpop ulations
ffici ent
er al
ĠN on
ĠO ne
Ġor ig
Ġcos ts
Ġgener ally
/ -
Ġpro st
lor ide
ĠIn ter
Ġde g
phyl axis
Ġcomp on
Ġdis trib
Ġf low
C R
id es
Ġdef in
. "
e ffec
ens us
ve ment
ar b
Ġfrequ ency
Ġmater ial
Ġcharacteris tics
pec ific
Ġdeli very
holog ical
Ġac cur
Ġman ufact
f ig
Ġrelev ant
Ġs al
enc ed
c ontrol
mit ted
Ġintra venous
Ġexam ination
Ġdep ression
Ġsuc cess
om et
6 0
Ġrap id
Ġinf lamm
Ġor der
Ġdemonstr ated
oc h
Ġbi op
ex t
ce t
Ġfac il
Ġinvol ved
Ġcon cluded
Ġassoci ation
4 0
Ġad equ
ici ency
Ġmemb ers
Ġis s
Ġm axim
Ġdet ail
âĢ ī
Ġpro per
y roid
P A
Ġob jec
Ġb lock
Ġps yc
Ġop en
ac he
y st
Ġdecre ase
Ġpo or
Ġreg ion
ĠSt ates
pl ic
g in
ĠBec ause
ab or
Ġrem o
Ġanalys es
Ġrecept or
Ġbas is
our se
E S
I C
Ġtyp es
ens ity
Ġv ent
Ġpro por
est inal
Ġneed s
re ed
Ġc ri
Ġl ight
pati tis
dic ations
ok ine
Ġd on
Ġtrans mission
Ġconcer n
Ġ2 8
re g
az ole
Ġf ull
Ġmal e
ĠT B
ĠC l
Ġs till
ut aneous
as k
2 3
Ġl en
Ġsystem s
Ġsens itivity
ell ing
eu tic
ici an
Ġon ce
ĠD NA
L abel
Ġph ase
Ġw a
i vers
Ġmed ian
w are
ho od
Ġf lu
Ġhep atic
c ho
ren ce
Ġra re
Ġh al
ĠC ons
Ġk idne
Ġth ough
Ġclinical ly
Ġmedic ations
em ber
y gen
in ib
Ġdi et
ĠÂ £
Ġ <
Ġf oc
G A
od es
Ġresist ance
Ġex erc
Ġdi rection
Ġan other
em a
dom inal
il lin
Ġhe patitis
Ġsever ity
Ġrece ive
Ġob tained
Ġr ight
E T
ograph ic
Ġdiscont inu
Ġtem per
ĠA fter
Ġcan not
Ġst roke
Ġm L
Ġe lev
Ġcoron ary
Ġsecond ary
S up
Ġsurf ace
Ġad oles
Ġrec ogn
Ġm ental
ĠD o
Ġcount ries
ly ing
Ġincre asing
Ġill ness
ros is
Ġass um
Ġrepres ent
Ġcont rib
Ġep id
out put
Ġter m
Ġcar b
m w
Ġuse ful
Ġg ood
Ġsetting s
es is
Ġrep e
ĠO ff
form ation
par ser
ore d
Ġv er
Ġcommon ly
is ted
Ġoccur s
Ġhyp ot
Ġemerg ency
2 8
Ġa verage
% .
% ).
w ays
Ġp a
n el
on ic
ric ular
Ġrec ent
Ġincre ases
i ology
ari ly
ra w
d en
u k
ĠA b
ĠĠ ĠĠ
on es
Ġis ol
Ġpost operative
val ent
Ġsol ution
we ek
Ġ Î
Ġb o
al k
Ġvari ous
hes is
oc yt
Ġproduc ts
Ġobser v
t le
er i
Ġs k
p ir
Ġpat tern
r ast
Ġanal y
Ġf il
Ġs tim
Sup ported
Ġsit u
Ġdetermin ed
r ane
Ġpro s
Ġs ince
' -
Ġrat s
Ġresp ond
I N
le x
d is
Ġinhibit ors
Ġsaf e
Ġrisk s
at ures
Ġd am
Ġw ide
Ġpo int
or al
Ġthrom b
Ġestim ated
Ġ >
Ġsam ple
us tr
Ġp hen
Ġtra um
Ġstatis tically
il i
Ġsub sequ
Ġpro gn
Ġe vent
er ing
Ġâī ¥
Ġun certain
r ans
er ve
Ġst aff
Ġen ergy
le ep
Ġbec ome
he re
Ġperform ance
is tic
Ġrec urren
Ġb ase
ure r
Ġsc i
Ġn urs
Â ®
Ġsystem ic
Ġc ur
Ġdel ay
Ġwh at
Ġs umm
ti vi
ol ar
Ġevalu ate
ĠO f
ĠThe refore
Ġe th
c s
Ġag reed
ĠS T
Ġm id
op las
Ġspec ies
Ġcor rel
Ġlit er
Ġst op
en ic
Ġac t
Ġcont rac
Ġapp l
ĠA pp
Ġm agn
ing s
in ue
Ġf ree
r in
Ġe lect
ra ms
ĠER G
Ġoc c
ol ution
am ide
ĠN ational
2 1
y me
Ġe ar
Ġa p
t ure
Ġl ip
Ġser ies
D o
ĠW ith
Ġsup p
ra y
e an
ar c
p ho
Ġpos ition
Ġ i
anc re
Ġm il
ĠC an
f usion
f ree
or tic
Ġp sych
ir d
Ġwork ers
minist ration
Ġh is
Ġcardi ovascular
Ġac ross
Ġf at
Ġop tim
op athy
Ġsus pected
Ġal ternative
Ġcl ose
os tic
Ġadv anced
8 0
di um
7 0
Ġpot enti
r ine
as h
om p
Ġaffec ted
7 5
Ġh orm
Ġan tic
Ġf ever
ti d
erg ic
Ġp ath
ul a
Ġunder went
Ġre ad
Ġre ports
Ġrel i
Ġse par
ic ial
Ġsc ho
as ive
ur ation
Ġeduc ation
Ġgen etic
m g
Ġsc ores
og lob
Ġan a
Ġsex ual
Ġa round
ĠN HS
Ġin dex
w o
Ġpresent ed
in ts
ĠA r
in ated
m L
Ġcons ensus
Ġc ourse
ph al
Ġh ome
Ġemp lo
Ġcarcin oma
am ic
f unction
Ġpar ame
Ġpl ac
ĠW HO
Ġul tr
Ġox ygen
Ġm ild
ros pective
s tit
Ġens ure
Ġimprove ment
Ġke y
- -
Ġde m
Ġparticip ants
Ġs ter
Ġm uch
Ġpre c
Ġpneum onia
P D
Ġsup er
op ro
it ant
Ġmanufact urer
Ġimpro ved
h al
Ġpre fer
Ġse e
2 6
Ġstudi ed
Ġcompar ison
Ġm other
R A
struc tion
C O
ĠG en
is ation
Ġpat ho
ĠM et
Ġmy ocardi
Ġdiagnos ed
Ġtherap eutic
Ġre v
Ġem b
2 00
ĠM on
know n
Ġar m
an el
t reated
el i
Ġhypert ension
ĠOver view
r ange
it es
Ġkidne y
Y P
Ġmet a
Ġ2 3
os ed
ĠP O
o ver
Ġch rom
Ġb r
led ge
Ġco hort
Ġexper ts
Ġst ress
hol d
Ġfoc us
g et
oc occ
am es
ut ure
ph a
Ġfem ale
Ġval id
Ġw ar
Ġso dium
Ġproduc t
Ġrecurren ce
Ġprovid er
tain ing
ere b
' ,
ati tis
Ġproduc ed
Ġg ly
Ġl ink
as ound
ary n
Ġsugges ted
dition al
Ġdos age
Ġfrequ ently
ĠE vidence
Ġdom ain
ĠDi agn
Ġm ic
Ġres ources
Ġv en
te g
Ġcons ult
an ti
Ġcont rast
lin d
Ġmin utes
Ġhal f
om as
ac in
Ġgast ro
Ġo ste
udi es
Ġprevious ly
o ly
res p
pati ent
at ural
Ġins ulin
S S
tivi ties
Ġliter ature
Ġn utri
Ġlen gth
Ġprotein s
H D
Ġinclud es
ĠE urop
Ġbiop sy
Ġex pected
Ġacc ount
Ġpredic t
Ġac tion
Ġp olic
is ing
cep tib
0 1
om es
Ġchem ical
Ġle g
tim es
Ġcirc um
Ġd one
Ġhum ans
f e
Ġar th
ĠRe g
ace ment
ro gen
roscop ic
Ġradi ation
Ġ2 6
G C
lo t
Ġne ut
Ġmal ign
Ġ3 5
on al
ĠC A
I n
ĠGuid eline
ĠC o
ix ed
Ġgluc ose
us ted
ox ic
2 7
Ġa ware
ĠÂ ±
ĠO r
r isk
Ġappl ied
g round
Ġf ive
ĠF urther
Ġc ateg
ĠAmeric an
P V
Ġon set
Ġac cept
Ġtable ts
ĠS p
Ġtr act
Ġabs ence
Ġl ast
Ġup per
G F
Ġprovid ers
Ġur ine
ten ance
holog y
3 6
Ġunder stand
art ment
ĠM ost
om al
4 5
ho t
Ġtemper ature
Ġcomb ined
1 00
Ġtox icity
Ġp ow
Ġe ye
oscop y
ĠM an
Ġconf idence
Ġche st
Ġlim it
âĢ Ļ
ten tion
he a
3 5
Ġur inary
Ġp ancre
Ġcat he
ĠM RI
T he
ik i
ĠH y
Ġac tivities
der ly
c hem
Ġresult ing
ill ance
Ġs ix
Ġprol ong
Ġadequ ate
Ġvi ew
Ġter ms
Ġexpos ed
Ġrat her
Ġcent ral
Ġcons istent
bid ity
ĠHC V
Ġmaxim um
l ight
Ġpropor tion
r ate
com itant
control led
Ġint ere
Ġmedic ine
Ġdistrib ution
if y
Ġin d
c i
Ġhigh ly
or rh
ill s
Ġl ater
tr ac
Ġs leep
Ġimmun e
Ġ+ /-
ti de
ĠPh armac
p ose
ĠH ist
Ġab dominal
ĠPre gn
Ġdevelop ing
CE R
Ġab ility
C D
is ions
Ġc ross
Ġre ason
Ġconfirm ed
Ġmodel s
ĠIn t
M P
Ġd own
Ġre d
Ġb al
Ġinf usion
2 9
Ġl arg
ĠC YP
ti ous
ĠU K
Ġsup ple
iz ing
am ily
Ġreview ed
Ġinhib itor
Ġte am
AL Y
Ġexp ression
pos ed
Ġtraum a
lis h
Ġre qu
U S
ĠI s
Ġ ess
Ġ x
Ġrep roduc
ĠMed ic
E P
b le
Ġup d
or ph
Ġg u
er ation
Ġ2 1
Ġdam age
Ġtum ors
r il
eth yl
Ġauth or
anc er
Ġob es
Ġvir al
Ġadoles c
ĠH B
Ġup on
C S
Ġb ro
ap a
Ġ \
v ant
Ġrec ord
he l
N F
Ġstrateg ies
ip her
Ġn erve
vir al
ound s
Ġexerc ise
Ġin ser
in ess
Ġtechniqu e
Ġfunction al
ĠA D
ĠS er
Ġmet h
Ġprot oc
Ġsub group
Ġto ler
Ġ9 0
Ġâ Ĩ
Ġdo uble
Ġres ection
en ia
as al
ĠW iki
Ġdeg ree
D oc
Ġph osph
9 0
Ġth yroid
Ġadj ust
ĠC ol
Ġan gi
pl as
Ġinter p
pos itive
Ġreg ular
Ġen h
Ġam ount
end ing
Ġprog rams
ĠSt udies
Ġsam ples
Ġcont ent
O S
en se
u ter
Ġphys ician
int estinal
Ġcurrent ly
Ġcontain ing
Ġo w
Ġ8 0
Ġcol l
ĠAss ess
p ite
n ai
he st
Ġdet ected
year s
Ġstruct ure
6 5
Ġv ary
Ġr ang
Ġv enti
N S
ĠP e
Ġvis ual
b re
Ġto ol
Ġmater nal
3 3
Ġcol on
Ġtechniqu es
ter nal
Ġin dependent
est hes
Ġdet ection
Ġtw ice
ĠWiki Doc
Ġcons um
ĠMed ical
Ġc r
Ġsm oking
ĠN ew
Ġsubsequ ent
hy th
Ġdys function
i er
r up
Ġcor tic
Ġw ay
Ġcontrol s
Ġdet ect
Ġep is
ro c
" .
Ġst ren
Ġfe atures
enc ies
erc ul
Ġm aking
Ġpro phylaxis
Ġknow ledge
Ġprovid es
ĠP er
Ġcontain s
ist ry
Ġinfec ted
ra z
Ġst ud
Ġad en
Ġin jec
Ġv ag
Ġel derly
erv ical
Ġb reat
Ġabs or
if est
c utaneous
xim ab
ad der
b e
Ġth ird
s c
om an
u tive
Ġro om
M A
Ġcar ri
I T
Ġsc an
Ġn ational
Ġstr and
n ers
re am
ĠIn dications
Ġme ans
Ġde vice
b ack
Ġp ass
Ġimmedi ately
Ġe con
el s
di es
em s
ar ri
Ġun known
Ġmain tenance
Ġtechn ology
Ġc ereb
x i
Ġs ulf
ĠD ep
Ġother s
ous e
Ġdirect ly
Ġ2 7
Ġinflu ence
Ġspec im
Ġmyocardi al
Ġas th
ac hes
ac tive
ĠD ise
Ġprac tic
it able
Ġfet al
ivers ity
Ġs a
all en
Ġbe li
Ġde fec
Ġvent ricular
Ġhydro ch
is ter
ĠI II
inc lud
ogn itive
Ġex cess
ĠD uring
ipher al
w ork
ĠEn g
Ġ4 8
um b
Ġfor ms
Ġunder going
U C
o very
Ġs ource
ĠI CER
Ġparame ters
Ġpros pective
l ast
oci ety
ĠS ub
ar ing
Ġv ascular
Ġproble m
3 4
Ġanim als
id ine
Ġv ia
Ġsus ceptib
ĠS up
Ġestim ates
M S
Ġtreat ing
Ġdos ing
cl us
Ġins u
D G
ar ning
Ġwh om
s el
ĠSt udy
Ġc reat
ra is
Ġfract ure
Ġ log
Ġne on
ĠIm mun
Ġ2 9
Ġins tit
ĠC ent
tim e
Ġsurve y
th al
Ġ3 6
Ġwh ose
Ġl ate
s ide
Ġproduc tion
Ġpro duce
Ġha z
Ġth us
Ġt end
Ġwe ak
ec utive
Ġmajor ity
I ON
Ġtes ted
Ġenz yme
ĠPregn ancy
Ġachie ved
Ġqu an
b ial
Ġag ent
ul ate
M E
Ġres pect
Ġ enti
Ġdi arr
hy d
Ġindic ate
Ġadolesc ents
s pecific
Ġbet a
Ġreg ression
Ġli ving
Ġm uc
vention al
includ ing
i ological
ĠIn formation
lo x
ĠQ ALY
Ġsurve illance
Ġcortic oster
ip ment
ati ves
it als
Ġultr asound
Ġext re
ti tion
Ġun it
Ġexper im
Ġexperi enced
requ ency
x t
Ġsugges ts
Ġha em
Ġf ield
Ġc op
ĠT wo
Ġintere st
Ġvacc ines
Ġser vice
an alysis
Ġsit es
bo dies
hy dro
Ġdiscuss ed
s ection
3 7
xi ety
Ġprofession al
Ġ19 8
m et
P E
Ġhaz ard
Ġst rain
id er
ell a
ĠP ost
Ġg ender
Ġpre f
Ġantibio tics
Ġpharmac okine
ra g
ref er
Ġexam ined
3 8
Ġ6 5
al ing
Ġre ve
ĠWh at
ul ted
Ġprom o
Ġphys icians
Ġan n
Ġcalc ium
ap se
c ers
ercul osis
Ġin teg
ar s
Ġle uk
Ġestim ate
Ġcri tical
ar row
Ġrep air
Ġun c
Ġasth ma
ĠU s
ĠA T
Ġcon comitant
ĠD ata
ter ol
ĠIm p
Ġstrateg y
Ġst ep
Ġ2 2
in ant
ĠCh ild
ai red
pl ate
Ġd il
Ġd r
t on
infec ted
Ġe qui
Ġab le
Ġcollec ted
in ations
r s
Ġa cet
Ġm ill
Ġselec ted
Ġp ack
Ġdis ch
ens itivity
Ã ©
Ġwh ite
d es
C L
ĠPh ys
ĠAd ministration
Ġrepl acement
Ġel im
Ġe as
Ġn or
Ġc m
ody n
Ġsur ge
Ġn ame
ĠI g
Ġcom m
4 9
ĠS tr
Ġse iz
Ġ7 5
Ġcult ure
Ġprofession als
Ġpotenti ally
ĠE ffec
Ġv ar
Ġabnormal ities
Ġclear ance
ful ly
Ġcont rain
Ġdi vid
Ġdifferen ti
Ġantibio tic
Ġremain s
Ġscho ol
b s
Ġmolec ular
Ġop tions
Ġ7 0
Ġwork ing
Ġques tions
4 8
s is
ĠD es
Ġs he
Ġpl ate
o h
I S
ĠAss oci
or i
Ġa x
ogen ic
a ve
Ġanim al
Ġb u
Ġtransplant ation
ren t
Ġdef iciency
im er
Ġwhere as
Ġiss ues
esthes ia
Ġdes crib
Ġmon th
ĠRecommend ations
Ġregim ens
Ġin st
Ġpr inc
ĠSy stem
ĠP ar
oph il
oscop ic
Ġess ential
g ens
Ġcent er
ĠWh ile
ĠE p
} .
Ġfam il
Ġas pir
Ġcho ice
Ġa min
Ġadd ress
Ġcathe ter
c g
Ġrequi res
Ġcontrac ep
o vir
Ġmil k
Ġreduc ing
Ġc ry
Ġf uture
Ġf er
ac tiv
Ġ4 5
eren ces
mon ths
ur ia
Ġun its
rais al
om iting
Ġbacter ia
Ġauth ors
osp itals
Ġop i
m ark
Ġantib ody
Ġsome times
Ġtyp ically
R S
i ence
A P
Ġb ur
4 6
C P
r ight
ec tive
ac ts
ĠR NA
Ġen g
Ġequ ipment
Ġl apa
Ġst ates
ot ype
ĠF amily
Ġinter action
Ġwor ld
ĠEx per
tr ans
ul atory
or ies
Ġo v
Ġret rospective
Ġop tion
Ġn et
an k
3 9
Ġreport ing
um p
Ġex ce
Ġb inding
Ġbacter ial
m al
cl usion
Ġs low
Ġexper t
Ġfrequ ent
i ents
Ġan g
ĠC ont
Ġsequ ence
ĠF ollow
Ġ5 00
he rence
ĠT rans
l ife
Ġd ig
Ġrest ric
ĠS urg
Ġvit ro
Ġyoung er
Ġprost ate
Ġbehavi or
Ġco lo
ĠIn f
Ġar tic
Ġm ac
ul s
ĠAssess ment
Ġc ervical
ĠM ore
Ġprot ection
Ġper ipheral
Ġimport ance
oc k
mptom atic
Ġgen es
Ġch allen
m ost
ĠA ND
Ġmal es
ĠR isk
r id
ac ity
ĠD ec
Ġimplement ation
Ġal ong
Ġmor bidity
Ġhe re
Ġb ron
d raw
Ġrefer red
Ġv ess
n o
in ine
ment ation
Ġ âĢĵ
Ġsc hed
Ġelev ated
ause a
Do es
Ġth or
Ġenviron ment
t able
it ary
ac tic
Ġvit amin
Ġnum b
Ġcont ext
Ġext ent
Ġgra de
Ġmemb rane
it u
ari an
Ġinter n
ĠE m
Ġn atural
al ed
ul ating
Ġpractic es
Ġecon omic
Ġnec k
refer red
Ġm es
Ġg ained
Ġsp e
Ġcont inue
ot or
z e
Ġn it
icro bial
Ġclass ified
Ġtrans fer
Ġex cre
ig ure
Ġrelative ly
Ġas k
w h
ĠM ul
Ġp or
or ds
ĠP l
M R
Ġpre par
Ġcon st
Ġm cg
A G
plic ations
Ġappear s
ir ing
Ġcarb on
Ġis chem
Ġir on
Ġl ist
et s
Ġrespons es
Ġunder lying
Ġneuro log
Ġto ward
Ġt it
Ġquestion nai
en al
ab ine
Ġres ulted
fe eding
ox ide
Ġcap s
it us
lox acin
Ġh arm
Ġprovid ing
Ġanti bodies
Ġen rol
Ġm el
Ġmechan ism
Ġeduc ational
on azole
Ġu tility
Ġm iss
9 9
D L
Ġcon sequ
Ġhydroch loride
Ġw all
n ia
Ġdetail s
Ġd ri
Ġ /
Ġcompon ents
Ġprefer red
Ġst e
Ġappro ved
Ġche ck
Ġv omiting
Ġ3 7
Ġ ure
Ġc ognitive
4 4
Ġhorm one
Ġn ow
Ġnurs ing
R O
L E
duc ed
Ġform ation
ĠM R
Ġd at
Ġpo lym
3 2
in a
Ġfacil ities
Ġcomple ted
Ġlead ing
Ġcontinu ous
Ġin hal
ĠL abor
Ġgastro intestinal
Ġan tim
ic it
ĠH ep
a utions
ustr al
Ġhead ache
Ġ3 8
ch ing
ho ut
Ġ &
Ġan xiety
Ġcorrel ation
Ġint ake
Ġstud ents
Ġanaly zed
ĠS im
P S
ĠPati ent
Ġint roduc
n ed
Ġal ways
Ġp ol
or age
Ġmeasure ment
Ġrec urrent
3 1
Ġvari ables
vers ion
Ġcyc le
s on
Ġag ree
Ġme eting
az ep
Ġchrom os
Ġtherap ies
ĠA f
ĠP referred
Ġm is
Ġg est
4 7
ĠB e
Ġf o
ĠC a
Ġsymptom atic
ar ction
Ġrec ip
Ġpres cribed
qu e
and s
Ġl at
Ġmut ation
ĠIn tern
Ġw oman
ow el
effec tiveness
Ġcon ventional
Ġpre operative
Ġg as
5 5
ad a
ĠS ur
Ġhig hest
Ġlarg er
il ateral
id s
g ed
Ġvol un
ar in
am ination
Ġemplo y
Ġinv asive
Ġm ice
Ġinjur ies
Ġlit tle
Ġe y
Ġass ay
T E
ud e
Ġm ig
us cular
M D
Ġf ul
i as
Ġbehavi our
as ion
Ġh om
Ġsyn t
Ġh ospitals
g ue
Ġinvol vement
Ġ ery
. )
o ag
p ared
ĠH ow
Ġtub erculosis
ce mia
S D
oc hem
l im
Ġf av
orrh age
in us
ear ch
A B
Ġst able
Ġapp raisal
Ġf inal
ib r
Ġinflamm atory
Ġwith draw
Ġj oint
por tive
Ġsu fficient
Ġp anel
Ġp el
Ġref erence
Ġpur pose
ĠA ustral
Ġdec isions
fer on
Ġmut ations
rec ted
ĠP ers
Ġcap acity
ĠC ancer
y le
Ġwide ly
ĠA mong
Ġm it
ĠAd v
Ġgast ric
ĠR et
Ġw rit
Ġatt em
Ġdivid ed
Ġpredic tive
rec tal
Ġcompon ent
ĠAd verse
Ġex ternal
o z
ĠS ociety
ĠS ec
Ġspecific ity
Ġaccur acy
Ġpro v
p an
ĠC are
ĠA L
rom ised
Ġp hot
ra di
i re
Ġde vices
y mptomatic
ĠUn iversity
Ġn orm
o tic
Ġtox ic
ĠR E
Ġinflamm ation
ĠA R
Ġst art
Ġmetab olic
Ġoptim al
pos ition
Ġpl ay
ag on
Ġg lob
Ġdepend ing
Ġpath way
u vant
ĠN or
ĠCl ass
Ġmeasure ments
Ġn ausea
m es
Ġsp inal
ill ary
oci ated
Ġcalc ulated
Ġorig in
re x
mon th
Ġselec tion
7 7
Ġperson al
Ġprim arily
Ġstar ting
ed ic
Ġparen ts
igh ts
Ġg ain
Ġc ut
Ġprolong ed
Ġd im
m m
ug hout
T C
Ġhem at
l it
Ġinf ant
ĠA g
s p
is es
Ġl ic
Ġk g
Ġhe ter
Ġventi lation
he tic
Ġmon it
ĠIn di
c hed
6 8
b orn
ist ant
um in
her s
le ar
Ġb ot
Ġshow s
Ġex ist
ad j
ĠR CT
Ġdiscuss ion
Ġiniti ation
ĠP ediatric
Ġs atis
Ġlym pho
Ġmetast atic
Ġsu itable
Ġrec overy
Ġcontinu ed
Ġint ended
he um
Ġof fer
entif ic
Ġdeath s
Ġsc ale
ĠM D
Ġn ode
6 7
Ġelect ro
C o
b y
ti ves
Ġst ay
Ġul cer
qui red
g u
ĠGuid elines
erv ous
Ġsim ple
ĠM any
Ġim plant
Ġow n
oc al
ph osph
olog ists
Ġpo ints
Ġcle an
Ġcon j
i op
p art
Ġcompar ing
ĠE valu
O L
in f
Ġre al
oc omp
ĠC ardi
b or
Ġval ve
oph age
c t
ĠTh us
Ġs ources
Ġn od
Ġwho le
Ġv as
Ġfe as
H C
c al
ac es
Ġfract ures
Ġorig inal
ĠCD C
Ġbi ological
Ġl aw
Ġd eri
Ġdiarr hea
port un
Ġim age
Ġol d
id ent
Ġinvol ving
Ġf all
Ġprogn osis
o form
en ed
res t
Ġpro p
Ġmin or
Ġn ature
bre ak
up p
Ġstren gth
Ġappro aches
Ġm outh
og ly
Ġlo ad
aren t
Ġhep at
Ġvi ol
ĠC R
Ġapplic ation
Ġtrans cription
om er
Ġw ound
Ġint rac
Ġadv ice
Ġconcern s
Ġinfec tious
H A
Ġinter nal
ari ate
Ġu til
ass ociated
Ġp al
i tions
G uid
Ġa ortic
ĠComm on
Ġven ous
Ġprocess es
Ġdelay ed
ophage al
as ons
Ġthough t
Ġb owel
Ġper ce
ĠS ince
re p
ĠG ra
us ed
Ġinf arction
Ġne ph
E D
Ġth res
yp es
Ġconsult ation
Ġmain tain
ĠAf ric
Ġsh or
if ically
Ġch lor
ĠM e
Ġdr ink
C h
t ake
Ġnumb ers
Ġdesign ed
Ġb ed
ĠL o
el low
Ġthro ughout
Ġf in
Ġf ace
ang u
er b
Ġfem ales
Ġret urn
) -
r ated
Ġs light
pl ay
Ġb ab
Ġepid em
ĠSy mptom
L A
erc ial
s or
hen s
Ġantim icrobial
Ġbeli e
rom ycin
g l
Ġex c
7 8
h abil
Ġint ensive
ar ia
Ġan t
Ġsup portive
B C
Ġhe at
Ġfacil it
y te
ateg ory
9 6
Ġocc up
H R
ĠP M
in duced
Ġrespons ible
ĠâĨ ĳ
P T
Ġu ter
ĠMon itoring
Ġpro posed
c ardi
Ġr ib
Ġbl adder
Ġreview s
Ġcontrain dic
Ġobes ity
Ġcomp are
im e
d le
os a
Ġsp ace
Ġre ach
ĠAc c
Ġcons ecutive
ĠSy n
Ġan terior
B P
ĠO b
p tions
m ore
ur b
Ġdisch arge
% ;
t a
or ts
Ġmed i
Ġles ion
ĠA RT
ĠR ep
4 2
Ġanti gen
Ġrepe ated
Ġre lease
ococc al
Ġcarri ed
Ġve in
Ġatt ack
Ġtra vel
read y
Ġus es
Ġp y
o ff
Ġobjec tive
t ype
Ġminim um
Ġimmedi ate
ĠRes earch
Ġpsyc hological
ĠB oth
Ġ200 7
Ġpe ak
Ġinvestig ated
b ility
on ding
Ġat trib
ĠD iff
o in
Ġbe gin
l am
Ġop portun
a ine
Ġd erm
Ġun s
Ġcharacter ized
it one
an tial
E C
Ġenc our
Ġim ages
Ġad herence
ĠM A
Ġd rain
Ġmonit ored
Ġtub e
ĠE ach
Ġarth ritis
Ġtr ig
Ġpolic y
Ġref lec
ĠEurop ean
te b
Ġdefin ition
Ġrecord ed
ar th
Ġoff ered
Ġas ymptomatic
Ġsumm ary
im mun
7 3
ĠA UC
Ġachie ve
Ġear li
Ġtum our
Ġe le
habil itation
Ġal ready
Ġb ox
Ġto get
Ġtoget her
Ġtiss ues
ĠP at
Ġ ide
Ġstop p
Ġin str
t reatment
Ġvag inal
igh ted
Guid eline
Ġg ive
Ġinc or
s uch
ne gative
les terol
at s
r or
Ġex isting
Ġ200 6
Ġarter ial
Ġderi ved
Ġequ al
rac tion
oun ts
Ġfamil ies
ath ic
ro x
un ding
m b
ĠHist ory
T A
er n
Ġspecial ist
Ġne ur
Ġair way
as one
lo id
ĠRecommend ation
Ġp ast
Ġprevent ing
Ġadd ed
Ġconsider ation
Ġt ell
Ġbro ad
Ġout side
Ġc lo
Ġprac tition
Ġclass ification
Ġsu ff
iz ations
Ġpart ners
Ġcor rect
ver n
ass ium
Ġat rial
Ġrecept ors
Ġfib rosis
Ġequi valent
Ġpercent age
Ġloc ation
Ġinter actions
Ġsc ler
Ġth ick
Ġs ed
I L
ĠO ur
Ġpres crib
or ing
ĠDise ase
Ġa way
Ġenti re
Ġb arri
Ġexpl ained
re hens
B G
i ved
Ġpre m
Ġdiscontinu ation
7 6
Ġfet us
Ġag g
Ġ3 9
Ġsubst ance
gen ital
Ġsubjec t
Ġtem por
Ġradi otherapy
Ġantic oag
Ġch ain
Ġinduc tion
Ġlymph oma
Ġcor resp
anc ies
Ġli k
Ġsu ic
out e
ardi a
iz es
Ġp en
Ġt en
a emia
ĠI L
Ġse arch
Ġj ud
Ġrefer ral
Ġref lect
Ġp ap
en ari
b al
5 9
Ġsuper ior
ĠP D
Ġmetabol ism
min ister
ĠIn fec
Ġbron ch
st ances
ne a
Ġso ft
pl an
Ġlo oking
Ġfe el
Ġful ly
" ,
ĠC ategory
Ġflu or
Ġout break
Ġvari ety
ĠIn stit
os in
Ġsubst antial
Ġremo ved
ĠM od
Ġcon n
Ġen ough
pati ents
Ġo d
y ing
ĠPre vention
ĠB ased
Ġmedic ines
le vel
Ġadjust ment
Ġclin icians
Ġass ist
Ġs oci
ĠMedic ine
Ġreve aled
Ġox id
ĠAssoci ation
ĠC V
m ax
Ġcorticoster oids
ax el
ĠChild ren
Ġun d
ic es
ĠDe velop
F requency
ak es
E L
ph ys
D uration
ol ute
gra de
ran ial
Ġpatho gen
Ġd ry
Ġad mission
roph y
ĠC or
R oute
Ġ4 00
rh osis
Ġc ore
ĠDosage Route
Frequency Duration
ĠDosageRoute FrequencyDuration
enic illin
Ġt et
ĠH yp
Ġli qu
Ġall ergic
Ġdat ab
Ġsignific ance
Ġcomm ercial
Ġquan tit
Ġrequire ments
Â ±
ĠHB V
Ġsk ills
y ond
ĠL i
Ġprob ability
ne e
w ise
Ġrequ iring
Ġne xt
Ġcomple ment
Ġsens itive
Ġ200 0
ĠIntern ational
Ġg et
II I
Ġc re
Ġra b
Ġk in
ĠEvalu ation
Ġvari able
Ġuncertain ty
B S
Ġstandard s
Ġdiscontinu ed
âĢ Ŀ
Ġloc ated
Ġplac ed
Ġm arg
ia z
8 5
unc tions
ill ed
Ġsam pl
on in
ol ism
Ġmill ion
Ġplan ning
hyth m
0 2
7 9
Ġn ervous
Ġspecim ens
Ġremo val
Ġmaterial s
Ġ200 5
ĠSymptom s
Ġr ash
jec t
ac ic
Ġexpl ain
Ġ3 3
f old
Ġac com
Ġthrom bo
Ġsp read
Ġpredic ted
Ġadj usted
ĠDiagn osis
Ġal pha
Ġ3 4
Ġcolo rectal
Ġdis tal
Ġat tention
6 4
Ġp i
Ġ3 2
Ġstate ment
Ġconsider ations
en osis
um an
tr y
sel ing
ar cin
ocomp romised
Ġst ated
Ġqu al
ogen e
ens ed
Ġbi as
Ġlapa roscopic
Ġprotoc ol
Ġpow er
Ġexpos ures
Ġimp aired
Ġsus p
ĠO ut
Ġh ip
b lind
Ġde b
atin ib
Ġdocument ed
Ġpattern s
Ġcom or
Ġsec re
S M
ic in
ers ensitivity
Ġl ig
ĠAl ternative
ati gue
Ġprom ote
Ġextre me
Ġd ate
Ġlead s
ĠS ever
Ġsci entific
Ġan at
a pt
Ġexp ressed
R NA
Ġnet work
plas ia
Ġcommun ication
ĠB r
Ġsitu ations
enc ing
Ġestab lish
8 8
Ġdi ame
F S
Ġreg ions
Ġcreat inine
Ġca ution
Ġsh all
ĠJ an
os upp
Ġisol ated
yc ardia
ĠâĢ ľ
Ġab use
ove red
Ġdi alysis
lo l
per t
Ġ3 1
Ġne urop
es ter
Ġter min
Ġex trac
Ġ ).
ĠImp airment
e ti
Ġex cluded
Ġinform ed
or gan
ĠP lease
ke le
et ric
Ġse g
it inib
ence phal
eli hood
Ġa er
Ġpar tial
Ġcare rs
Ġs inus
Ġrec ords
Ġal most
Ġey es
ĠAn ti
Ġf ram
ĠN O
Ġf it
ent er
ret ro
i atric
Ġpres cription
Ġenviron mental
Ġintern ational
Ġinvestig ate
5 3
Ġst em
pl ied
ap an
Ġadv ant
Ġal ter
Ġpharmac ist
Ġl ay
Ġem o
Ġrec ently
E N
w ith
Ġcir rhosis
ĠS af
Ġinvestig ation
om ycin
Ī Ĵ
ig ible
f ort
ast atin
Ġexp lo
p o
Ġy et
ugh t
Ġcon genital
Ġapp ly
Ġis oform
Ġtrans port
Ġt ask
Ġmetast ases
A d
p oint
Ġprot ective
Ġmechan isms
Ġinterval s
l os
op enia
Ġseiz ures
Ġdiff er
Ġdes pite
Ġprogn ostic
x y
Ġconsum ption
Ġprog ress
Ġproper ties
res istant
Ġm amm
ip lin
rehens ive
re es
ĠI C
Ġcan cers
Ġl ed
ĠS h
Ġbreast feeding
Ġbl ack
Ġn asal
ĠH ospital
ph y
Ġext ended
4 1
Ġc al
Ġcl os
Ġto o
se ud
Ġquestionnai re
6 6
Ġre asons
ĠG DG
M T
ĠMan agement
v ascular
Ġlik elihood
Ġre habilitation
and emic
Ġvis its
Ġpro xim
Ġso on
Ġmother s
7 2
Ġaccept able
Ġed ema
ste ad
Ġgu ide
Ġben z
c ol
u z
ac et
Ġbe yond
Ġacid s
Ġreproduc tive
i i
ont aneous
g or
Ġoper ation
kele tal
is hed
Ġext ensive
ĠAc ute
Ġv ial
dis c
Ġinter view
Ġrapid ly
ĠP ub
Ġ3 00
Ġenrol led
Ġex pect
ĠO c
Ġenc od
oglob in
Ġbreat hing
4 3
Ġactiv ation
Ġp ac
me an
Ġele ments
ĠExper ience
w ide
Ġmon itor
g ly
pec ts
Ġposs ibility
Ġbre ak
Ġf ol
ili ary
id al
Ġperson nel
ĠCan ada
ib ly
i ra
Ġon going
Ġidentif ication
6 9
Ġc hol
rim ary
Ġcircum stances
e g
ile p
Ġde ep
Ġinvol ves
I P
ud ine
ĠB l
ĠT ri
Ġspec ifically
Ġsc enari
ti tis
Ġpers istent
ĠEn d
Ġpos terior
or ld
Ġl isted
Ġf ind
ign ed
an nel
ĠSe e
7 4
Ġm ening
Ġcor d
d ed
Ġm otor
Ġsatis f
Ġavail ability
ĠF e
Ġassum ed
Ġan emia
Ġto m
ill ation
gor ith
Ġsuccess ful
ard s
Ġmain ly
Ġl angu
" "
Ġman ifest
cur rent
er ved
Ġcaus ing
as ter
tic ular
Ġcereb ral
Ġanal ges
Ġc e
Ġvis it
retro viral
ĠK e
u ary
id ae
Ġthe ory
ĠCons ider
Ġamin o
or r
Ġsho ck
Ġwrit ten
Ġt urn
Ġmalign ant
s ub
Ġhelp ful
Ġh ar
Ġend oscopic
Ġf ast
oglob ulin
Ġearli er
Ġneon atal
GF R
re pt
yc line
Ġd ensity
f a
ac erb
ĠE d
Ġsepar ate
ĠR enal
Ġopi oid
ĠS te
Ġus ers
in ol
Ġcons ist
Ġunderstand ing
Ġpl ant
Ġstatis tical
Ġmel an
Ġal tern
Ġad op
Ġtr ue
Ġcol or
Ġob struction
d os
ym es
Ġc ys
Ġle arning
Ġcor related
Ġmat ter
Ġst om
Ġpel vic
am ics
Ġinf er
er ous
Ġl act
Ġagree ment
Ġwithdraw al
ĠRes p
ti le
Ġm ix
Ġmeth yl
Ġstate ments
ul monary
Ġl as
Ġe cho
ĠGen eral
Ġm ixed
Ġl ive
Ġindi rect
ĠIn jection
Ġexam ine
ap e
Ġr heum
Ġse ek
7 1
Ġs un
i asis
ag en
Ġmed ia
ĠOr gan
Ġdon or
a u
Ġf al
ĠF igure
ĠThe rapy
ol ed
clus ive
Ġinterp ret
ogen esis
Ġperiod s
Ġ20 10
Ġt ren
Ġcomp ounds
Ġir rit
Ġcollec tion
op e
op ic
Ġf ore
Ġpresent ation
Ġclin ic
9 8
Ġhypot ension
ĠAcc ording
ge al
P s
Ġallow s
t ered
Ġprob ably
Ġv ision
Ġf atigue
Ġorgan isms
y tic
Ġdis ability
ĠA G
0 3
Ġneed le
m en
Ġco ord
Ġprog ressive
Ġcontraindic ated
d L
ĠC urrent
Ġfew er
Ġprof ile
Ġoccur ring
Ġpharmacokine tics
ĠMul ti
Ġne ar
ob acter
Ġdiet ary
olog ist
Ġa ff
ĠR ed
Ġrel apse
tr um
ĠM in
Ġfollow s
Ġgo vern
Ġcomp os
Ġmechan ical
itone al
ĠH igh
Ġupd ated
Ġemb ry
Ġmagn etic
5 8
Ġun less
Ġrandom ised
medi ate
t ors
Ġg e
ĠAd ditional
ro t
Ġapp arent
n a
ĠJ apan
g ia
ol id
Ġun like
ren al
p ass
ĠAl so
Ġincor por
6 2
r ig
Ġsm o
Ġindic ates
we ight
ĠIn cre
ĠT A
Ġsub stit
Ġrel ation
ĠFurther more
Ġcan d
ĠN ames
Ġdepend s
if t
6 3
Ġslight ly
Ġv ul
ap ted
ĠO p
Ġsynt hesis
Ġdiame ter
Ġrecip ients
cri pt
z ing
Ġcl a
Ġst ent
ĠOn ly
week s
Ġp andemic
id em
Ġunder go
I A
Ġet c
Ġint ensity
AR S
Ġ )
ub ation
ac ial
az ine
at ology
Ġaut o
Ġbal ance
im umab
ĠUs ing
Ġdefec ts
Ġcontrib ute
in ence
Ġcompar able
Ġadv ised
in ter
ĠSec ond
ĠB MI
l a
p re
Ġcho lesterol
er t
Ġfo ot
Ġmo ve
ĠH S
Ġform ula
Ġprogram mes
Ġp H
ĠJan uary
Ġobserv ational
T B
Ġbu ild
Ġindic ation
Ġs em
Ġex acerb
Ġus ual
phyl actic
Ġcons ent
ade qu
aryn geal
Ġstrong ly
Ġsmall er
Ġvari ation
ĠC oun
Ġinc l
ic ardi
ĠF rom
Ġcare fully
Ġregard less
Ġprogram me
Ġd ental
Ġhe ard
n atal
Ġits elf
Ġra d
Ġsp ontaneous
Ġfac ility
Ġpot assium
Ġ ion
Ġar r
ĠS m
Ġtable t
ĠW omen
Ġal gorith
on omic
ĠEng land
Ġp ep
Ġabsor ption
Ġs qu
Ġbas ic
Ġstim ulation
Ġepis odes
Ġinsu fficient
Ġ4 4
Ġto ols
Ġassess ing
Ġmolec ules
in ing
Ġbur den
ĠPe ople
ph thal
Ġstrain s
as c
Ġw ors
ĠP rac
Ġf unctions
in ate
v astatin
ot al
ĠF inding
8 9
ĠD r
am b
ĠUS P
Ġabs olute
Ġsumm ar
il s
Ġro t
Ġpartic les
I F
Ġ Ã
op or
Ġdis s
Ġrare ly
Ġst enosis
g al
ol ved
Ġre vers
Ġsub cutaneous
ed s
Ġtr im
Ġindic ations
Ġstruct ures
Ġenh ance
Ġthres hold
om b
at ur
ur ance
Ġdist inc
Ġsusceptib ility
s m
Ġs om
Ġregion al
Ġrec on
Ġco ugh
Ġthromb osis
ro f
Ġh ouse
Ġdist ress
Ġfib r
Ġsitu ation
Ġl ateral
k al
im us
ĠC ontrol
Ġmain tained
Ġdepend ent
Ġaccur ate
Ġch annel
Ġpresent ing
Ġshor ter
Ġmod ified
0 4
ur se
Ġ200 4
pos es
Ġconf lic
t ra
ple te
g er
m l
Ġunc lear
Ġor ally
Ġj ust
Ġimmun osupp
lo ad
Ġf atal
, .
5 6
Ġin struc
es e
Ġant agon
Ġam b
5 2
D s
ot omy
Ġal b
Ġclose ly
ĠAl cohol
Ġstruct ural
ĠR adi
iplin ary
mark eting
Ġcomp rehensive
Ġext ra
Ġep it
000 1
con taining
effec tive
ĠSurg ery
v is
Ġas pects
re en
Ġf ing
Ġcon ver
ĠC H
Ġprepar ation
Ġk et
Ġplate let
und red
Ġlic ensed
I G
i vir
Ġg on
Ġdifficult y
ĠP E
Ġpancre atic
ĠP r
Ġdescrib e
Ġw alk
Ġe lement
Ġinter f
ĠSever al
Ġfe eding
ĠP ot
t es
ĠL ow
Ġmark ers
_ _
Ġoccur rence
Ġmid dle
g ing
Ġresid ents
Ġcand id
Ġme et
AA A
Ġstim ul
ĠâĢ ł
Ġmul tiv
c linical
ĠV acc
ĠLabor atory
Ġp ut
Ġac cep
er ate
Ġch loride
il is
Ġ4 2
back ground
. #
Ġr h
Ġst ages
ID S
Ġgra ft
ĠSaf ety
ĠA v
P R
Ġexcre ted
uct ure
Ġaffec ts
p at
Ġal fa
Ġco ver
acc o
em plate
Ġreduc es
Ġminim al
Ġex cept
ĠInstit ute
Ġs pl
ĠL ong
Ġc av
Ġp le
ĠFollow ing
8 6
Ġsup ported
ĠOver all
Ġnurs es
ĠFinding s
Ġk nee
Ġben ign
Ġex act
Ġvirus es
Ġtrans fusion
Ġr un
reat ening
Ġfor ce
ĠS ARS
Ġ200 8
Ġnew born
Ġliqu id
Ġinduc ed
Ġex hib
Ġcle arly
tif ication
ĠG CC
Ġf ar
ĠTh ree
oph ag
Ġs il
b ox
ell ular
dep ress
Ġ200 9
Ġvari ant
disc iplinary
ĠG ene
i ples
ati f
Ġinstit ution
Ġhe aring
Ġsupp ly
5 4
Ġm ember
tr ation
roscop y
Ġov arian
Ġstand ardi
ĠDiagn ostic
Ġcomplic ation
Ġver teb
Ġhy d
Ġvess els
6 1
ĠP rec
ĠO ral
ĠD ef
Ġ %
Ġdep artment
Ġcur ve
Ġdiab etic
ĠSt ate
d ef
Ġmo vement
Ġvolun te
Ġ15 0
v ate
R R
Ġchromos ome
an ol
Ġd er
ĠIn c
ĠĠĠĠ ĠĠĠĠ
ven tive
p ine
Ġin adequ
Ġke ep
ational e
ĠR o
ĠB y
Ġtrans ition
Ġsur ro
S C
I M
on avir
Ġrepe at
Ġn odes
Ġremain ed
ĠF act
ĠN ot
Ġobserv ation
ĠA p
ĠT est
le ge
Ġan esthesia
Ġpsyc ho
Ġstom ach
ĠI N
< .
5 1
5 7
Ġres ource
us h
Ġpa per
ĠS w
Ġne oplas
Ġad minister
m od
un e
Ġstar ted
Ġfal se
Ġaccep ted
Ġse ason
Ġe ight
ĠâĢ Ķ
Ġaspir in
ĠN ote
Ġpractition ers
S I
Ġover dose
Ġnutri tion
Ġneurolog ical
Ġne u
iqu e
ĠR ef
un t
ac ed
ĠEurop e
Ġhem orrhage
rom b
P C
pos ure
i pp
ĠSt and
ĠB et
Ġproxim al
i ologic
dition ally
ĠT T
Ġup take
Ġsubst anti
Ġlangu age
adi an
Ġex tr
op at
Ġh undred
tiv ity
9 4
ĠP rimary
Ġexcess ive
Ġfibr illation
Ġor g
Ġun treated
Ġchild hood
ting u
ox icity
ĠB o
ly sis
Ġremain ing
Ġ4 3
Ġsign al
Ġradi o
Ġman aged
ĠRes ults
Ġsc hem
ĠPro g
Ġdecre ases
AT A
9 7
et al
Ġgo al
s tim
Ġoper ating
ĠQ T
Ġmark ed
ĠE D
l abel
Ġpar ts
Ġc yst
ract ory
ter al
Ġent er
Ġhyp ogly
Ġcoun try
Ġcomor bid
ear ing
Ġanti retroviral
oster one
V A
9 3
m iss
8 2
Ġto b
Ġconst ant
z z
Ġb ound
Ġd en
Ġha ir
Ġbec omes
Ġcertain ty
ĠPhys ical
Ġtop ical
ak en
Ġim m
Ġin depend
ĠCom p
Ġsol id
% -
di x
Ġm ask
Ġhyp ersensitivity
lo vir
Ġf lex
Ġh our
ĠB lood
Ġse ven
Ġop in
Ġper i
s w
e e
Ġthe r
Ġp age
ith romycin
Ġviol ence
is ons
ĠN S
Ġpre term
Ġfail ed
Ġm em
Ġenz ymes
P P
Ġcomplete ly
Ġdetail ed
os al
Ġl ines
ro ximately
Ġ200 3
Ġlimit ations
ochem ical
u ments
Ġf und
Ġmon otherapy
Ġroutine ly
Ġglob al
ĠP op
ox in
Ġl a
ĠH em
Ġprinc ip
Ġrem ission
Ġconsequ ences
Ġhospital ization
clud e
Ġmean ing
f arin
Ġdemonstr ate
am ma
abil ities
ph as
Ġann ual
odi um
Ġt ach
w w
ĠI D
ĠP T
Ġbi om
Co V
Ġg ran
Ġacc um
Ġcry st
ra ft
ĠCh ronic
Ġfe ed
Ġlympho c
ra ine
ang i
Ġe c
Label ed
Ġnorm ally
l s
9 2
en dix
Ġtom ography
li ance
Ġsampl ing
Ġdis tingu
us ions
Ġhand s
Ġprot ect
Ġnutri tional
part um
Ġr ule
Ġcoun ts
Ġunder st
immun e
Ġn ames
Ġ7 2
Ġlim b
ocyt es
itu ximab
Ġper man
Ġincl usion
Ġr if
Ġs ch
Ġm arrow
Ġlink ed
Ġre n
her it
Ġa z
Ġpolic ies
I R
Ġadj uvant
Ġe ti
P H
ro ugh
Ġanal og
arg ed
ĠG u
Ġtechn ical
C an
8 4
il arly
bor ne
Ġne ver
og ram
Ġiniti ated
ĠE CG
ĠC S
Ġcons tit
yc ho
Ġin verse
Ġpre dom
struc tive
ec ting
ĠW orld
Ġhydro gen
ĠS pecial
Ġreg ist
ro log
ri ef
os ing
ĠP A
Ġcl us
ĠS uch
Ġdist ance
ĠG i
Ġal le
qu ality
ĠLe vel
Ġhypot hesis
Ġsched ule
Ġinter mediate
Ġat om
Ġf raction
i red
Ġcla im
b u
adj usted
ĠS ign
uz umab
Ġrec ru
utri tion
Ġby pass
+ /-
Ġf ung
Ġmusc les
ĠO F
ĠInter actions
Ġend omet
v asive
avir in
Ġprescrib ing
Ġ |
a h
Ġtoward s
ud it
ud den
Ġgen otype
Ġb ul
Ġre le
Ġresist ant
8 3
Ġpre pared
Ġpat hology
ĠP s
Ġob tain
Ġbenef icial
Ġischem ic
b ed
Ġn one
Ġdist urb
Ġoccup ational
b it
tif ied
gi ene
Ġ20 12
och rom
Ġcharacteris tic
Ġp all
Ġelim ination
lamm atory
ffici ency
Ġj us
Ġcomp r
Ġdeg rees
Ġsusceptib le
on ance
Ġpart ner
Ġam ounts
g ent
Ġimpro ving
Ġexpl an
s ts
Ġm and
Ġm akes
Ġc ef
eth asone
M L
Ġrese arc
Ġdatab ase
Ġsuggest ing
ĠQ ual
it ative
ĠP o
Ġle t
Ġunderst ood
ĠIn iti
Ġanti depress
ĠA V
Ġmolec ule
P ediatric
Ġhe ight
Ġf rag
ĠC aus
Ġp enicillin
Ġmet al
Ġconsider ing
ĠM ean
Ġwh y
Ġsequ ences
Ġ5 5
Ġmed ium
Ġs ent
Ġcl ar
b ut
Ġo pp
Ġunlike ly
ĠH PV
8 7
Ġe ver
ĠRe actions
Ġte le
Ġemplo ye
Ġp p
act ing
ĠW ork
ĠN urs
ĠDevelop ment
ĠS outh
te x
Ġpur poses
Ġon c
c ious
Ġmiss ed
Ġb orn
Ġrecogn ized
ĠS pecific
Ġcont amin
ĠâĢ İ
ĠE arly
Ġpo ison
Ġlip id
Ġmul tic
Ġfood s
9 1
erv ative
Ġtum ours
Ġoste opor
Ġweek ly
r ist
ĠA F
Ġd og
Ġposs ibly
Ġpublic ation
Ġd u
Ġiniti ally
Ġline ar
Ġsw elling
Ġpsych iatric
cl er
ro tid
ĠM ay
Ġcent ers
Ġsurge on
ĠP ET
oh n
dos age
ĠR T
Ġco verage
ĠAn other
Ġb ond
Ġ2 50
pl atin
el ves
hel ial
Ġlo ok
re m
af en
ce ler
Ġorg ans
Ġag on
Ġin stead
Ġother wise
Ġst orage
Ġcateg ories
ed ema
ps is
ur ys
U T
ĠF in
Ġor tho
ĠQ u
Ġselec tive
Ġtrain ed
Ġpref erences
Ġemo tional
Ġit ems
ĠDis c
Ġrepres ents
Ġappear ance
al low
ĠV ari
AT ION
Ġsubstanti ally
Ġsup erv
R AD
y an
ot rop
Ġ5 2
at ch
ĠF ood
Ġep ilep
S H
Ġunder t
Ġdistinc t
Ġ encephal
Ġsw it
Ġprotoc ols
ĠRe view
ĠEp idem
t hem
Ġtyp ical
ĠDep artment
Ġel igible
Ġde x
ve red
ud es
Ġdon ors
K D
Ġeff orts
Ġsurge ons
ĠR A
am ed
ĠG erm
ĠEffec ts
Ġcar ry
Ġcl osed
lu x
Ġn g
ti se
ch ange
Ġelectr on
ĠDes pite
ra d
Ġv iv
ĠV al
Ġresid ual
8 1
ĠP res
Ġdec line
ho ur
Ġar ms
Ġprinc iples
Ġcare gi
oc rine
olog ies
Ġher nia
ic tim
Ġnec rosis
h ospital
Ġd uct
ĠH uman
t rex
Ġaim ed
l ip
ive red
Ġecho cardi
it ude
Ġv es
Ġac qu
ear t
Ġpat holog
E V
os omal
y g
ĠA TT
Ġac know
C s
in yl
Ġdeli ver
Ġsupport ing
cell ular
ul ed
Ġthe ms
Ġ4 6
Ġspecial ists
ĠGra de
Ġdi zz
ĠL V
yp ical
Ġform ed
Ġass ays
Ġreac hed
ar n
am ethasone
ator ies
st olic
Ġeas ily
Ġthems elves
Ġsub str
Ġfeas ible
och ond
Ġac quired
aus al
or ical
Ġinhib ition
Ġcon current
Ġad mitted
Ġ200 2
Ġ200 1
ĠÂ µ
of ovir
Ġp air
lin k
Ġy ellow
i ef
Ġ20 11
Ġrespons ibility
Ġ1 000
Ġf lo
ĠC L
p ers
Ġf ixed
Ġm l
Ġprov ision
Ġst ain
Ġab lation
ĠM echan
Ġca pt
Ġrang ed
ti p
Ġweak ness
b l
Ġex ists
ĠH R
ph ilis
cop e
ĠAustral ian
Ġin g
ĠSe vere
Ġqu ick
ho e
Ġh ost
r as
ol er
Ġy ield
odyn amics
m aking
Ġres olution
ĠI U
ĠB ut
Ġan e
Ġdys p
Ġnucle ar
Ġvolunte ers
B D
Ġcomp ound
Ġback ground
Ġallow ed
Ġd raw
infec tion
op ausal
Ġfer tility
m ed
Ġinvol ve
B T
Ġcomp liance
ĠIm ages
se min
Ġmark eting
Ġrelationship s
Ġsub t
Ġreason able
ot es
Ġkin ase
ord ance
Ġres onance
Ġcan n
es are
ĠInt ra
Ġreli able
Ġo il
ew ork
c ase
al pha
Ġpack age
Ġus age
Ġp ump
ogen icity
Ġrad ical
Ġevalu ating
Ġod ds
Ġplace ment
Ġexperi ences
Ġsus tained
Ġdi ed
Ġrecommend s
Ġcyc les
Ġidentify ing
Ġcon cept
ar ies
duc tion
plic ated
ell itus
Ġtob acco
Ġrel aps
Ġim pl
ro vers
ĠM y
ĠE l
ĠF our
Ġhy giene
ad en
ĠT ype
Ġpancre atitis
form in
Ġsy m
ri pt
Ġgl and
Ġst ric
ĠR el
Ġout patient
Ġcol d
f l
ach ing
ĠDiff eren
v ents
st age
Ġtarget ed
Ġspec trum
ef ore
st ream
Ġarter ies
odyn amic
ut ing
Ġassoci ations
Ġtr ache
Ġrati os
Ġimmun ocompromised
r ant
Ġv ictim
Ġpl ants
Ġery th
o qu
Ġsy ring
ast ro
Ġcorresp onding
Ġmo tion
ment ed
esare an
id ed
Ġim plications
Ġdrain age
Ad ult
Ġc od
c os
Ġass igned
ĠC C
Ġexperim ental
Ġint estinal
ĠRCT s
ific ations
Ġcons ists
enti a
Ġphosph ate
am ous
Ġse psis
ĠT NF
ĠY ou
Ġdizz iness
Ġle ak
ĠH A
Ġdel ivered
Ġtra ditional
ĠH eart
ĠPrec autions
n ic
ĠD em
our nal
Ġmetast asis
ar com
Ġpre ventive
Ġf ix
-- --
ĠMulti ple
p hen
ĠU l
ĠSur ve
or ic
uc cess
Ġform al
P I
Ġ $
Ġbelie ved
ĠS hort
Ġcomp uter
Ġstandardi zed
Ġtim ing
Ġrev ised
olog ically
Ġchang ed
Ġwar farin
ĠD M
Ġiss ue
ur y
ch ang
raz ole
Ġdi rected
Ġac celer
Ġse ems
Ġinter feron
ĠCO PD
f low
end s
lin ed
odi alysis
Ġle a
omet ric
Ġprec autions
ĠF irst
ult aneous
omet ry
ĠO S
Ġsubgroup s
ĠS ch
Ġmicro b
Ġmelan oma
Ġact ual
Ġinterp re
Ġrec tal
Ġphen omen
g g
ĠÎ ²
Ġdis section
aryn g
Ġcateg ory
Ġvar ies
per m
Ġwa ve
Ġattem p
Ġcompar ator
iel ds
ĠT TT
b its
Ġapplic able
Ġtrans ient
Ġdifferen tial
ĠCaus es
Î ±
o tide
os ocial
Ġr up
Ġs we
Ġperform ing
C l
ĠD erm
Ġc ure
Ġfacilit ate
Ġ20 14
D S
i ative
at he
Ġwor se
Ġref ractory
Ġpromo ter
SA ID
oc arcin
oc yte
Ġs ick
ot ing
oc l
Ġper t
ro us
Ġag es
Ġspec ified
Ġmig raine
Ġviv o
i ans
Ġ20 13
ĠC hem
Ġr ituximab
Ġb ile
ify ing
ĠB P
u ff
Ġvacc inated
Ġb lind
ĠG G
av y
Ġhe aling
ĠC lin
ici ent
ĠM al
am s
ĠIn s
section al
Ġm ellitus
N O
Ġpro mpt
Ġro ot
ĠCom par
es tern
Ġmark er
Ġinser tion
Ġman ner
Ġcoll abor
Ġb in
Ġtrans mitted
Ġhigh l
all ed
Ġabs cess
Ġshow ing
D C
Ġpatho gens
Ġon line
ĠD el
Ġinterpret ation
Ġrem ove
Ġâī ¤
ri um
n is
os ine
Ġstr atif
Ġstep s
erv ation
ill ing
Ġask ed
Ġn ons
Ġsm ok
Ġs udden
Ġpers ist
ad y
Ġd rop
Ġr ub
at her
ĠE ff
Ġcell ular
.. .
Ġpolym er
Ġvari ability
Ġref ers
ĠPro t
at oid
Ġgen ital
Ġartic le
Ġavoid ed
at osis
D M
th reatening
ĠG l
Ġse em
le ts
d rug
Ġinadequ ate
C H
Ġbec ame
ĠL DL
Ġindepend ently
as te
Ġvers ion
Ġbi o
est hetic
Ġpharmacokine tic
Ġm ach
an ib
Ġorgan ic
er ative
ĠC NS
E E
ĠDec ember
Ġfluid s
Ġimplement ed
RAD E
V R
Ġorgan izations
Ġar rest
Ġf ron
ace u
Ġrib avirin
Ġexam inations
ĠNor th
ĠW arning
ĠS o
Ġoper ative
Ġ4 1
Ġper icardi
Ġno vel
op hen
Ġdrink ing
Ġbab y
s h
Ġvari ants
re di
ĠM o
om ide
ĠPub lic
a fter
ĠT ra
ph rine
in itis
Ġsubst ances
ĠCan adian
Ġischem ia
st ate
P O
Ġthe ore
Ġreli ef
az ol
ĠC al
ĠF unction
Ġman aging
ĠDrug s
ĠCom plications
ho b
Ġlow est
ul ties
Ġ6 00
Ġbegin ning
Ġo phthal
Ġc reated
a qu
Ġ( >
Ġpro te
ĠHep atic
Ġintroduc ed
th ing
op last
ifest yle
inf lammatory
Ġper fusion
Ġar range
Ġexce ed
Ġgest ational
Ġs ac
Ġext ension
Ġpath ways
Ġane urys
Ġcho lec
l ial
Ġminim ize
ri a
ĠPro vid
Ġinjec tions
Ġb ilateral
ĠPro gn
, "
Ġd est
ific ant
Ġmetabol ites
p es
Ġ lob
w here
pl ace
Ġobes e
Ġinsu fficiency
ĠE S
for ce
t est
Ġa id
in vasive
arm aceu
ex isting
umb ar
ĠA AA
Ġquantit ative
Ġ uro
if orm
Ġun ique
oph ren
F R
activ ity
d ers
Ġh ard
ce mic
ĠA S
Ġsch iz
id one
Ġn urse
ĠS ection
Ġcomp uted
he ad
Ġe ating
Ġspecim en
ĠAd ult
ĠG GC
ĠF l
phys iology
Ġlas er
Ġre tention
Ġassess ments
ĠL A
Ġin duce
Ġvary ing
A g
e ared
yt es
ĠAmeric a
an n
Ġdep ressive
Ġperce ived
ĠL oc
clus ions
n ec
Ġd yn
as vir
Ġ199 9
Ġps ori
et ine
Ġab or
ĠF em
Ġc atal
ad es
Ġdomain s
Ġper for
Ġfocus ed
ont inence
Ġcult ures
Ġbreat h
ĠP anel
ĠSc ale
Ġlog istic
ĠT r
ĠA ut
Ġper cutaneous
Ġser ot
Ġbe l
Ġpar as
ri x
Ġin n
L D
Ġpredic tor
ect or
Ġassum ptions
Ġsatisf action
Ġcomp ression
Ġmem ory
Ġattem pt
Ġmulti disciplinary
ĠS umm
Ġtach ycardia
Ġosteopor osis
â ī
ri e
Ġperman ent
al ities
Ġsulf ate
ul y
on y
ĠCol lege
Ġun able
ĠIC U
Ġfat ty
Ġle v
ĠY our
ĠG I
ear s
Ġco vered
Ġresp ir
Ġfunction ing
c or
Ġa udit
ĠHy dro
Ġpredom inant
Ġsp ine
Ġgest ation
Ġp ig
Ġman age
Ġundert aken
y r
Ġepis ode
um es
Ġexp and
Ġco ag
0 6
Ġcont rovers
Ġwork s
ĠB efore
Ġmalign ancy
ĠI M
Ġcontracep tive
ul ative
ĠH a
unc ture
ox if
ĠW here
Ġprac tical
ĠT G
Ġcompar ative
ĠP os
Ġfram ework
ad emic
ĠCent er
il ities
Ġh ot
ĠP a
Ġext rap
ĠTri als
S t
be ing
Ġcaps ules
Ġall ergy
Ġoper ations
Ġextreme ly
Ġery them
Ġsy stolic
ab etes
ira ble
oc aine
ococc us
Ġangi ography
A re
Ġ8 5
Ġopin ion
ritis h
Ġg all
Ġadd ressed
Ġve loc
H E
as tic
ĠP ri
ad ministration
ĠDos ing
Ġexper tise
Ġneut rop
Ġthromb ocyt
al le
Ġob st
ĠC ef
ĠAc t
ap ine
pati bility
Ġpredict ors
Ġdisc overed
Ġmanifest ations
Ġheter ogene
ĠO x
Ġc is
Ġsec tions
Ġinc om
Ġinstr ument
Ġw ays
Ġev olution
A n
ĠS ix
Ġvess el
Ġan th
Ġco up
re ported
Ġacknow led
Ġg ir
Ġmoder n
d ays
ĠC E
ĠI ts
Ġimprove ments
ĠT e
ast y
Ġsol utions
Ġro b
Ġpost partum
Ġscho ols
S E
Ġgener ated
GT G
Ġrang ing
Ġadvant age
ell ar
Ġadoles cent
Ġresearc hers
Ġindic ating
Ġt ext
ĠS ho
gen eration
ĠAd ditionally
Ġindic ators
Ġmultiv ariate
ĠA CE
Ġun us
Ġsoci o
at ter
Ġad hes
Ġcol itis
os es
jec ts
acter ial
ograph ics
Ġparen t
Ġsim ultaneous
Ġscenari o
Ġdi ure
ĠAfric a
o lol
Ġpri vate
Ġanticoag ul
T R
Ġ( <
Ġfac ial
Ġdetermin ing
Ġcomp et
Ġend othe
ĠM or
Ġ5 6
Ġscler osis
ĠProg ram
Ġl ens
in herit
Ġisol ation
ĠB i
Ġcont in
Ġtop ic
Ġdefec t
Ġpromo ters
Ġs ure
Ġinvestig ations
ran ch
it er
pp ed
Ġal tered
IN G
Ġst abil
Ġr ationale
Ġcent res
Ġdig ital
Ġanti viral
A CT
Ġdi oxide
row n
Ġam pl
p ly
oc on
Ġsub mitted
Ġdevelopment al
Ġdef ine
N I
ip olar
rol imus
Ġcomple tion
ĠC max
Ġbl ue
Ġb urn
athy roid
Ġapp ropri
a ment
z ation
ap ter
Ġmark et
Ġgo als
ra f
ĠSc re
Ġun ivers
oly tic
Ġres usc
Ġthor acic
F DA
N E
a un
Ġr ing
ent an
Ġout put
Ġlab our
ĠT oxic
art ments
ĠEx am
Ġcontain er
e at
s s
Ġl am
Ġ12 0
ĠLo ok
di agn
ĠD O
Ġst aging
ot t
Ġrab bits
ad ing
Ġpro ven
vir us
Ġleuk emia
Ġcompar isons
Ġsupp ression
Ġalgorith m
Ġ4 7
ĠStr ucture
Ġexplan ation
es ted
Ġdisc rim
pec ified
as m
Ġinc ontinence
par in
c il
Ġret ros
C V
ox yc
Ġloc ally
Ġadv oc
Ġdiffic ulties
Ġhospital ized
a phy
ĠM I
ens in
Ġ5 4
ĠQual ity
Ġcont amination
ul itis
Ġprol if
ĠâĨ Ĵ
Ġpo oled
Ġad apt
Ġvalid ated
Ġgra f
es ophageal
ne x
Ġcoun seling
l ated
ĠW hy
in jection
er cept
Ġbehavi ors
Ġnucle us
ibr ary
Ġsuic ide
ec al
Ġr ural
Ġdem entia
Ġr ating
Ġcre ate
Ġlarge ly
Ġwork er
T able
k s
re lease
Ġp seud
Ġmen tion
ĠOn ce
Ġtoler ated
Ġb odi
Ġsal t
Ġuter ine
ĠSt orage
v uls
ĠAfric an
Ġte eth
Ġmo b
wh ich
ĠICER s
Ġl ifestyle
ad ine
Ġaut om
t ri
ĠPharmac okine
ĠT alk
ess ions
Ġhem oglobin
Ġproduc es
Ġaware ness
Ġac tions
Ġing redi
H g
Ġapp oint
ĠHy per
Ġpl aus
Ġcent re
Ġel se
Ġmat ched
Ġg el
ĠPot ential
tic ip
Ġcare ful
ell ed
Ġang le
ĠScre ening
a que
Ġclos ure
Ġstopp ing
F A
m atic
Ġint r
Ġad renal
u ed
Ġ6 4
Ġocc asion
Ġr ise
ĠFact ors
Ġest rogen
Ġsugges tive
ĠSumm ary
re vir
Ġer ror
on ate
Ġh or
li um
Ġvis ible
Ġemp ir
0 7
yl ate
Ġpen et
art an
Ġ7 7
Ġfav or
Ġmemb ran
Ġbarri ers
G E
ĠAn y
AT T
Ġn ight
ĠB en
Ġb iliary
le ft
pl asty
Ġdiscont inue
Ġcav ity
es ium
Ġ199 8
ir ub
ox y
Ġtak es
ot yp
Ġpow der
Ġprem ature
ĠDise ases
Ġpregn ancies
Ġr acial
Ġvent ric
ĠBr and
lo on
Ġb rief
Ġun ex
ĠIg G
Ġp yl
ĠC ar
Ġmor p
Ġimmun ization
Ġint ubation
lu or
Ġcommun ities
Ġ rol
Ġgra d
Ġartic les
o i
ac u
Ġcon version
ocarcin oma
id azole
ĠM S
ges tion
Ġpsych osocial
Ġintrac ranial
Ġb and
clud ing
Ġsurf aces
ĠNe uro
act am
pl er
Ġvari ed
id a
ir ty
gin a
Ġc ode
Ġsc ope
Ġmod elling
ĠGi ven
Ġn arrow
Ġ4 9
alys es
ines e
un it
te en
t t
p tic
Ġpl ans
Ġmost ly
opro tein
0 8
Ġcont acts
or ation
ess ation
Ġupd ate
Ġinstruc tions
Ġrecon struction
l if
Ġl ost
Ġst ri
en h
Ġdis semin
ĠRe port
Ġbot t
Ġgl ut
ac ent
Ġinfer ior
ĠBl ack
ar ate
ress ing
av ail
Ġsw allow
H T
Ġclin ics
ĠAdv ise
Ġopportun ity
ĠS D
minist ered
Ġlat ter
U R
ec onomic
Ġer r
il es
ophren ia
ĠB as
' .
Ġcomp l
Ġr ace
n s
el t
loc ation
Ġ5 1
Ġcor rection
Ġs perm
Ġob structive
Ġimmun oglobulin
Ġconcer ning
Ġpor tion
Ġtoler ance
er ves
io tic
iv a
Ġsurro unding
Ġretros pectively
Ġeffective ly
ĠEng lish
Ġemploy ed
Ġgovern ment
Ġster ile
ĠMe as
Ġqual itative
v ol
Ġt ight
ĠB ritish
Ġfil ter
c hes
Ġpul se
ab an
ĠJ ohn
t ent
am il
went y
ĠSyn drome
L N
Ġimmun ity
Ġthick ness
Ġure th
Ġ5 3
ĠEpidem iology
is ations
Ġd ro
ĠA A
loc occ
Ġat he
oplast y
s ies
rec tions
Ġacet ate
ĠF r
b an
Ġelec tive
Ġal kal
um ulative
Ġth ink
ĠN et
cet axel
Ġlabor atories
Ġadequ ately
Ġdex amethasone
Ġar tif
an a
ol i
v a
ul um
ĠMet ho
ĠT wenty
Ġstopp ed
ĠN SAID
Ġsa id
lo z
anc ial
Ġmal aria
Ġf ist
reg ist
ot ensin
Ġes ophageal
Ġsci ence
Ġreg ulation
Ġwe bs
Ġmeas uring
Ġro ute
Ġincre mental
ĠClass ification
Ġparticip ation
ĠP R
Ġto oth
ĠÎ ±
Ġ5 8
ect able
Ġcommun ic
Ġent ry
c arb
Ġ ï
Ġvul ner
ĠB re
Ġsc ans
Ġins ide
ĠC he
Ġlung s
Ġepilep sy
ic t
C M
Ġe gg
Ġmin d
ĠC M
Ġpp m
Ġcomorbid ities
Ġst o
Ġobjec t
ĠM arch
Ġdistingu ish
Ġend oscopy
ogen ous
le y
ĠU p
Î ²
Ġj o
Ġplas tic
Ġdoc tors
ĠMore over
Ġf ed
ĠA ction
Ġ9 9
Ġcirc ulation
Ġen l
los por
Ġhe avy
Ġwalk ing
Ġhypogly cemia
Ġb il
Ġfem oral
Ġauto immune
Ġbarri er
A like
Ġmin eral
Ġpat hological
us hing
Ġan sw
n utrition
ĠL im
Ġint ram
CR C
osin ophil
Ġschem e
Ġr ig
Ġclus ter
Ġ iod
str uct
ĠQ ues
Ġwa it
Ġsubsequ ently
Ġm ess
ob ic
Ġde le
co ho
ĠComm un
Ġinflu enced
Ġc essation
Ġ5 9
Ġchang ing
iv udine
Ġconduc t
Ġinhal ation
ĠPat ho
ĠC TT
ĠN P
Ġâ ĪĴ
Ġinter rup
Ġsupple ments
Ġelectr ical
Ġantic ip
Ġmet formin
Ġimpro ves
Ġelev ation
ĠNurs ing
Ġ199 0
Ġrele ased
rect omy
Ġhighl ighted
Ġca rotid
Ġagg ressive
od ds
Ġm ouse
GG T
O C
Ġ6 3
is ition
ĠH b
com fort
os ol
ĠI d
Ġat tit
Ġsh ared
Ġin put
Ġ5 7
Ġprior ity
Ġaccom pan
Ġd op
Ġag encies
Ġs keletal
Ġaffec ting
Ġradi ograph
p r
ast om
] ,
m osp
anc ing
Ġdis play
ph one
Ġactiv ated
Ġreg ulatory
Ġdi ver
Ġlim its
Ġfib ers
Ġmetabol ite
ĠMechan ism
ĠP ark
Ġox ide
Ġregular ly
ĠSurg ical
avir us
Ġdefin itive
um ps
Ġde vi
Ġpro phylactic
Ġsupple mentation
h n
ad ministered
Ġne arly
ĠProgn osis
Ġsup plied
Ġnew ly
Ġinser t
iop athic
adi ly
Ġcomplic ated
Ġfol lic
Ġg al
Ġseiz ure
Ġst ored
et ho
ĠS S
lam y
Ġextrap ol
vent ricular
ĠCh inese
the tic
ĠAustral ia
Ġfeed back
ĠR em
Ġhe parin
Ġdifferenti ated
aphy lococc
Ġneut ral
h ic
ĠLoc ation
Ġcaps ule
tip ation
Ġac ademic
.. ..
ĠJ une
amp in
5 00
ce ption
Ġprocess ing
Ġul cers
Ġsc ar
Ġgl ass
app ropriate
M B
Ġste ady
Ġchallen ges
Ġre verse
ĠA re
Ġl umbar
Ġgir ls
th at
ĠI F
ĠD ue
v ac
ĠA P
Ġover view
Ġadminist r
Ġgi ving
Ġwors ening
Ġcoun s
Ġrheum atoid
Ġdis pos
Ġelectr onic
ĠT rial
ĠP ain
Ġem phas
ĠA C
ĠN A
Ġthro at
bu vir
Ġsy philis
Ġ9 6
miss ions
Ġt el
os buvir
ast olic
hy pert
Ġto ok
ac hed
hol ds
os en
ol us
Ġpr ice
it ud
Ġpoly p
L T
s ec
Ġresusc itation
Ġf usion
p tive
E F
ill i
Ġexcre tion
Ġde terior
form ations
B V
in atal
Ġsub mission
Ġha pp
tiv ation
Ġhydro x
Ġtren d
Ġencod ed
p e
Ġcom e
Ġextre m
Ġreduc tions
Ġh ab
Ġorgan ism
ovir us
Ġdog s
Ġneon ates
Ġworld wide
ĠS uccess
Ġalb umin
hythm ias
in avir
Ġcom es
Ġcorticoster oid
Ġunus ual
Ġinv asion
Ġquick ly
v it
Ġapp eared
Ġconsider able
Ġauthor isation
ĠRep roduc
ĠS al
Ġatt end
Ġcent ury
Ġcons cious
GG G
Ġthrombo emb
to ber
Ġn amed
iaz ide
ĠSecond ary
Ġ6 2
ten u
a uc
Ġcontamin ated
ro z
n orm
ly cer
ĠD ist
ĠPost marketing
Ġdiagnos es
Ġ ly
ĠC er
t hen
Ġinf il
Ġmo od
it abine
Ġsevere ly
Ġintroduc tion
Ġbab ies
tr on
Ġra ised
ps ycho
ir th
Ġvalid ity
Ġsecre tion
Ġexc ision
ĠPrac tice
ĠUn der
Ġcoun ter
Ġster oid
Ġmit ochond
Ġemploye es
o cellular
ion al
ĠÎ ¼
Ġbiom ark
ti ally
Ġgener ation
Ġphys iological
Ġpre d
ĠI S
ĠA ge
Ġ6 8
Ġleg al
b as
g ths
Ġth in
ach ment
Ġbas al
Ġcontain ed
Ġplan ned
azep ine
ĠG ender
Ġcompos ition
Ġpe er
Ġanalys ed
loz in
D I
lif lozin
Ġd ust
Ġorgan ization
Ġb id
Ġacknowled ged
T h
er o
Ġdis pl
Ġc it
ĠV ir
Ġmeas les
Ġcomp ens
Ġfeas ibility
Ġenh anced
ĠG e
Ġhist opat
Ġisol ates
Ġlarg est
ĠIndi vid
Ġmembran es
il ization
ĠU SA
O P
pt ember
ĠInfec tion
Ġ6 7
ĠH CC
Ġgl omer
Ġsens ory
a por
Ġdefin itions
Ġchallen ge
u tis
ĠL ibrary
other s
radi ol
Ġsa ving
k ing
Ġb ranch
un ds
Ġlay er
Ġtrim ester
Ġrup ture
AT C
Ġsal ine
Ġd ang
ĠC ro
et ry
âĢ Ķ
ost omy
Ġrecogn ition
Ġp ay
Ġse pt
Ġan gina
Ġscre en
Ġstric t
arcom a
lamy di
Ġ199 7
Ġan omal
Ġpharmac ological
Ġy outh
Ġveloc ity
Q U
Ġallow ing
ros cler
Ġimplant ation
0 9
Ġw ind
Ġfing er
Ġ6 6
k y
Ġin activ
Ġ8 6
O X
Ġv ital
ĠCom patibility
Ġsed ation
Ġpro ject
ĠCh ar
ru it
Ġbodi es
Ġcontinu ing
Ġlabel ing
ch lor
Ġfix ation
Ġj u
Ġdis rup
Ġat mosp
b et
r is
or g
T emplate
ur ity
Ġvolun t
Ġrob ust
Ġdo cetaxel
chang ed
Ġschiz ophrenia
e al
s cription
Ġaltern ate
oly sis
Ġattack s
ĠPharmacokine tics
ĠG RADE
Ġhem odialysis
Ġv ide
Ġform ulation
Ġrandom ly
ons tit
ol l
ir c
Ġrespond ed
orph ine
ĠAd apted
om ical
ard ing
ĠEn s
ĠE duc
Ġiniti ating
ĠHC W
ĠIncre ased
cep tions
Ġbal loon
ĠPers ons
Ġar ch
ĠSt ore
Ġspe ech
x ia
Ġs ense
Ġ20 15
Ġvari ations
Ġid iopathic
regist ration
ĠP ack
ĠN one
ox id
im al
urg ical
Ġobserv ations
Ġder iv
Ġneurop athy
tif y
Ġobjec ts
Ġg reen
ĠC ong
Ġauthor ities
c ence
Ġcons ervative
Ġcontrol ling
ak er
Ġsol uble
Ġmy el
Ġact ually
m ethyl
Ġnot e
Ġk er
Ġve hic
Ġsuper f
Ġb ic
c m
ĠG astro
cur sor
Ġapplic ations
ĠÂµ g
ĠK ing
r ating
ĠSc ho
g uid
ĠG C
Ġsuccess fully
ĠSim ilarly
Ġacc oun
Ġsh ape
ro g
r ates
at um
Ġ( -
N P
ĠIm pro
Ġaccompan ied
Ġbehavi oral
Ġcom mission
Ġax is
if i
ĠDis orders
Ġmod e
Ġsyn drom
Ġpyl ori
itud inal
d im
p y
ti ary
Ġmain taining
Ġdepend ence
Ġsqu amous
Ġt rop
ur a
Ġacqu isition
M W
Ġes ophag
Ġbi ochemical
Ġbe g
Ġ6 1
Ġn ine
ot oxic
Ġur gent
ins on
Ġcri tically
r ich
Ġperson ality
Ġcys tic
Ġpall iative
Ġs l
omm on
ustr y
in ating
Ġn ose
Ġbiop sies
b lock
ĠN atural
Ġdes cription
Ġabor tion
Ġnod ules
ĠOrgan ization
ĠM ut
Ġpot ent
Ġpres ents
tid es
ti tial
Ġadv is
ĠA CT
Ġso ught
ĠTable ts
Ġview s
Ġneutrop enia
Ġspe ed
alle l
O T
Ġb ind
Ġcyc lo
Ġm RNA
ĠH is
Ġch ance
Ġper itoneal
Ġhypot hes
ĠPharmac ology
n i
on ide
are t
Ġpros pectively
Ġinteg rated
Ġbeli ef
Ġneur ons
Ġser ve
ĠPharmac odynamics
Ġplaus ible
Ġmetho trex
roc ardi
Ġmethotrex ate
Ġ ip
Ġmy e
ĠF ull
Ġpa ediatric
L Y
Ġc umulative
Ġw arm
Ġover l
Ġintra operative
L e
Ġhist ological
Ġaspir ation
f ont
â ĪĴ
Ġe vid
Ġrestric ted
Ġd ual
Ġl um
Ġinstit utions
Ġre in
Ġhouse hold
ron ate
st able
Ġpredic tion
Ġrel ax
Ġgreat est
ĠS kin
Ġam p
es ts
ocyt osis
iz on
Ġmarg in
men opausal
Ġtest osterone
Ġepit helial
ĠSt rept
Ġdecre asing
Ġmagn itude
Ġproper ly
Ġte aching
ĠCont rain
afen ib
Ġc utaneous
Ġanticoag ulation
Ġfe et
Ġgrow ing
Ġhar ms
lin es
IT Y
Ġclin ician
ĠWe ek
V I
k ern
ĠP art
en tical
sub scription
ec es
Ġsurvi v
Ġl ith
Ġt y
ol ve
Ġapp end
def ined
Ġp an
uss is
u kin
GG C
' t
Ġechocardi ography
Ġf um
B I
us ting
Ġaim s
Ġco e
Ġpneumonia e
ĠCardi ac
ĠOc tober
ĠT echn
Ġvi rolog
Ġp ages
ram ine
Ġro und
pt in
Ġnit rogen
Ġfin ancial
p res
ak ers
K I
ro om
ĠEx amination
ĠS odium
Ġh ous
Ġ20 19
Ġprec ise
Ġeti ology
V T
d omen
Ġadj unc
nec ess
Ġd ark
Ġthrombocyt openia
Ġref lux
ĠKe ep
f rom
ic ot
Ġencod ing
Ġbin ds
i ves
enti sts
m at
Ġelectro ly
Ġoutbreak s
om nia
ĠP las
ĠH el
ĠCon f
Ch ief
am ycin
ĠDi abetes
ra b
als o
Ġattrib uted
ĠC P
a res
Ġtrans f
Ġh all
Ġcons tipation
ĠP CI
ric e
4 50
Ġend point
ĠToxic ology
ol izumab
Ġint en
Ġaccum ulation
U D
Ġerr ors
O RT
oxyc ycline
Ġher pes
Ġw ounds
Ġ199 6
Ġs n
ĠP CR
Ġhel d
8 00
ic illin
ĠPh ase
Ġvar ic
ĠSer um
CL C
an us
ĠSe ptember
es tic
ĠV TE
ĠDerm atology
Ġconf id
Ġeff ort
ĠPop ulations
Ġcompl ain
f ib
Ġparticip ate
Ġex change
Ġaccur ately
Ġexperim ent
eri atric
lo y
Ġcom ments
Ġacc ordance
Ġve ins
Ġhazard s
Ġfav our
ĠT ake
Ġst ake
uc tion
ĠN DC
ch ar
Ġre adily
olog ous
a emic
Ġg lo
hem atic
ĠCoun seling
Ġman ag
ĠAT P
ĠC ho
Ġderm atitis
Ġg amma
Ġ199 5
A NT
ine mia
Ġper mit
Ġar ri
roph ic
Ġster oids
Ġseg ment
Ġac ts
Ġspec t
Ġsubstr ate
t wo
Ġcaregi vers
v acc
yn ec
Ġc as
Ġr ights
Ġch arge
Ġsug ar
op t
ĠCV D
oss ible
Ġexce ption
ĠG T
Ġassum ption
Ġana esthesia
ĠAD HD
ĠK ore
Ġclean ing
Ġtarget s
Ġinc ision
Ġ6 9
Ġscre ened
Ġpredic ting
Ġz inc
ĠM c
ox etine
Ġdistrib uted
ĠRet urn
Ġpop ular
Ġb ipolar
Ġthere by
Ġcateg or
ro tic
Ġm yc
us p
Ġthor ough
ĠE ven
ĠL ocal
Ġpoor ly
Ġsub set
ong ue
Ġten ofovir
er a
Ġan astom
ot oxicity
od ef
Ġj ob
ro b
Ġwas te
h igh
hyd rate
Ġabsor bed
Ġc ame
Ġal log
ure us
Ġcirc ulating
Ġincom plete
Ġr it
Ġint oler
oid al
y loid
Ġsyring e
Ġinc id
Ġdep artments
Ġconf usion
Ġfast ing
Ġjud ge
Ġmetabol ized
yroid ism
Ġas c
Ġproduc ing
Ġst ability
Ġmon o
ĠAp ril
ĠHealth care
ast ric
Ġpre ced
ĠP SA
reg ular
Ġg ram
Ġencour aged
Ġs essions
ri le
d o
on itis
he t
en em
Ġ7 4
op l
ome gal
Ġret inal
anc omycin
Ġlaw s
ĠEff icacy
lic k
Ġref lex
ĠContrain dications
orr hea
Ġin patient
Ġhepat ocellular
al imumab
ĠFin ally
Ġimp air
Ġcl ient
Ġexplo re
h or
Ġparame ter
Ġpolym orph
Ġsmo oth
c ons
p ub
ĠS pec
Ġinc ident
Ġab norm
ig aret
Ġval pro
an th
ĠSc i
ol one
ĠM edi
Ġmultic enter
m ber
R D
Ġd yst
ĠIn dex
Ġme al
Ġcaus al
ĠRec ent
app ing
ĠJ uly
ĠEd itor
Ġ- -
Ġgen ome
is is
Ġun necess
O H
Ġp ort
ap ed
cell ent
vac izumab
Ġclass es
Ġparen teral
medi an
medi ated
ps ia
ti um
Ġn as
ĠA ug
ĠP P
Ġsub s
Ġindic ator
ĠIm aging
Ġt ip
Ġins urance
Ġinc ons
Ġpartic le
ĠA IDS
Ġsup pl
Ġdiagn ose
Ġne ural
ĠCh ang
ul os
Ġcontracep tives
ĠT er
ĠG CT
ĠS A
ĠM en
the less
Ġdom inant
Ġirrit ation
ĠEns ure
Ġ( âī
ĠC KD
Ġind ustry
os yn
Ġex clusive
Ġendomet rial
Ġmen str
Ġsil ic
Ġinter s
Ġperce ption
Ġpep tide
m ing
Ġphenomen on
Ġdis comfort
ign ment
ĠT en
Ġqu ar
Ġir radi
Ġeng ine
organ isms
Ġmove ments
Ġoc ular
fact ory
Ġelectr ons
u el
l ist
ag liflozin
ip rof
Ġgi ves
or ous
Ġan ten
Ġcons isted
ĠPar ticip
ĠStand ard
os por
Ġsafe ly
Ġret ro
plant ation
Ġassist ance
Ġg r
Ġdifferenti ation
ĠLi ver
Ġobst etric
Ġcis platin
Ġ9 2
acet yl
Ġcouns elling
Ġc amp
ĠD et
Ġcardi omy
Ġendothe lial
Ġwor ds
ĠA N
Ġmm Hg
Ġrecogn ised
Ġsyndrom es
V E
ĠQues tion
Ġ ions
ĠAt las
ension al
Ġexperim ents
Ġinterpre ted
Ġa ureus
ĠPM ID
Ġsmo ke
ĠM others
ren ch
hoe a
Ġneu rom
r andom
Ġequ ally
Ġcontracep tion
Ġun changed
Ġconj ug
arth ritis
ĠC alc
Ġmod ification
Ġsh ift
Ġpotenti als
Ġsmok ers
" )
ac ing
ag ic
Ġrang es
Ġconflic t
Ġhyp oth
O M
Ġat tenu
ript an
ĠB ox
Ġmening itis
Ġultr ason
V C
AD EC
ĠC CC
Ġover weight
Ġmal nutrition
Ġan k
Ġch osen
Ġcircum c
Ġrev ascular
in ity
Ġm ast
Ġf elt
ra ys
ĠAs ian
Ġpathogen esis
Ġ7 1
ĠEm erg
Ġne ither
Ġpref erence
i ol
ĠR ace
Ġhor izon
ĠD op
ĠAs ia
