{"<s>":0,"<pad>":1,"</s>":2,"<unk>":3,"<mask>":4,"!":5,"\"":6,"#":7,"$":8,"%":9,"&":10,"'":11,"(":12,")":13,"*":14,"+":15,",":16,"-":17,".":18,"/":19,"0":20,"1":21,"2":22,"3":23,"4":24,"5":25,"6":26,"7":27,"8":28,"9":29,":":30,";":31,"<":32,"=":33,">":34,"?":35,"@":36,"A":37,"B":38,"C":39,"D":40,"E":41,"F":42,"G":43,"H":44,"I":45,"J":46,"K":47,"L":48,"M":49,"N":50,"O":51,"P":52,"Q":53,"R":54,"S":55,"T":56,"U":57,"V":58,"W":59,"X":60,"Y":61,"Z":62,"[":63,"\\":64,"]":65,"^":66,"_":67,"`":68,"a":69,"b":70,"c":71,"d":72,"e":73,"f":74,"g":75,"h":76,"i":77,"j":78,"k":79,"l":80,"m":81,"n":82,"o":83,"p":84,"q":85,"r":86,"s":87,"t":88,"u":89,"v":90,"w":91,"x":92,"y":93,"z":94,"{":95,"|":96,"}":97,"~":98,"¡":99,"¢":100,"£":101,"¤":102,"¥":103,"¦":104,"§":105,"¨":106,"©":107,"ª":108,"«":109,"¬":110,"®":111,"¯":112,"°":113,"±":114,"²":115,"³":116,"´":117,"µ":118,"¶":119,"·":120,"¸":121,"¹":122,"º":123,"»":124,"¼":125,"½":126,"¾":127,"¿":128,"À":129,"Á":130,"Â":131,"Ã":132,"Ä":133,"Å":134,"Æ":135,"Ç":136,"È":137,"É":138,"Ê":139,"Ë":140,"Ì":141,"Í":142,"Î":143,"Ï":144,"Ð":145,"Ñ":146,"Ò":147,"Ó":148,"Ô":149,"Õ":150,"Ö":151,"×":152,"Ø":153,"Ù":154,"Ú":155,"Û":156,"Ü":157,"Ý":158,"Þ":159,"ß":160,"à":161,"á":162,"â":163,"ã":164,"ä":165,"å":166,"æ":167,"ç":168,"è":169,"é":170,"ê":171,"ë":172,"ì":173,"í":174,"î":175,"ï":176,"ð":177,"ñ":178,"ò":179,"ó":180,"ô":181,"õ":182,"ö":183,"÷":184,"ø":185,"ù":186,"ú":187,"û":188,"ü":189,"ý":190,"þ":191,"ÿ":192,"Ā":193,"ā":194,"Ă":195,"ă":196,"Ą":197,"ą":198,"Ć":199,"ć":200,"Ĉ":201,"ĉ":202,"Ċ":203,"ċ":204,"Č":205,"č":206,"Ď":207,"ď":208,"Đ":209,"đ":210,"Ē":211,"ē":212,"Ĕ":213,"ĕ":214,"Ė":215,"ė":216,"Ę":217,"ę":218,"Ě":219,"ě":220,"Ĝ":221,"ĝ":222,"Ğ":223,"ğ":224,"Ġ":225,"ġ":226,"Ģ":227,"ģ":228,"Ĥ":229,"ĥ":230,"Ħ":231,"ħ":232,"Ĩ":233,"ĩ":234,"Ī":235,"ī":236,"Ĭ":237,"ĭ":238,"Į":239,"į":240,"İ":241,"ı":242,"Ĳ":243,"ĳ":244,"Ĵ":245,"ĵ":246,"Ķ":247,"ķ":248,"ĸ":249,"Ĺ":250,"ĺ":251,"Ļ":252,"ļ":253,"Ľ":254,"ľ":255,"Ŀ":256,"ŀ":257,"Ł":258,"ł":259,"Ń":260,"in":261,"Ġa":262,"Ġt":263,"re":264,"on":265,"he":266,"ti":267,"en":268,"Ġo":269,"er":270,"Ġs":271,"al":272,"Ġc":273,"Ġp":274,"Ġthe":275,"ed":276,"is":277,"or":278,"Ġin":279,"at":280,"es":281,"Ġan":282,"Ġw":283,"Ġof":284,"it":285,"an":286,"tion":287,"Ġd":288,"Ġf":289,"Ġm":290,"Ġb":291,"ro":292,"ic":293,"Ġand":294,"ar":295,"ent":296,"ing":297,"as":298,"Ġre":299,"Ġto":300,"om":301,"le":302,"Ġe":303,"ation":304,"us":305,"ec":306,"ve":307,"os":308,"id":309,"ac":310,"ul":311,"Ġ(":312,"Ġn":313,"ĠT":314,"ly":315,"Ġh":316,"ur":317,"Ġth":318,"ith":319,"ati":320,"Ġwith":321,"lo":322,"ce":323,"Ġbe":324,"Ġfor":325,"Ġis":326,"im":327,"un":328,"ter":329,"il":330,"ho":331,"Ġg":332,"ĠA":333,"Ġl":334,"ot":335,"ra":336,"Ġcon":337,"ut":338,"ĠC":339,"Ġor":340,"ment":341,"ĠThe":342,"ol":343,"ĠI":344,"Ġst":345,"el":346,"Ġas":347,"et":348,"ig":349,"Ġpro":350,"Ġ-":351,"ere":352,"ab":353,"Ġv":354,"Ġ1":355,"ents":356,"ir":357,"if":358,"um":359,"ate":360,"ts":361,"Ġon":362,"ĠS":363,"ag":364,"ib":365,"ver":366,"ĠP":367,"di":368,"uc":369,"res":370,"Ġcom":371,"Ġpati":372,"st":373,"am":374,"Ġthat":375,"Ġr":376,"ated":377,"op":378,"ity":379,"tic":380,"ine":381,"ical":382,"Ġex":383,"se":384,"up":385,"ay":386,"her":387,"od":388,"ess":389,"th":390,"ion":391,"Ġare":392,"Ġal":393,"Ġ2":394,"Ġat":395,"Ġ#":396,"Ġde":397,"Ġpatients":398,"oc":399,"qu":400,"rom":401,"Ġus":402,"ud":403,"ted":404,"Ġad":405,"Ġwas":406,"em":407,"ure":408,"ri":409,"Ġdis":410,"ĠH":411,"ad":412,"ĠD":413,"fec":414,"Ġinc":415,"Ġac":416,"ĠM":417,"ain":418,"Ġhe":419,"end":420,"ers":421,"Ġres":422,"Ġnot":423,"ant":424,"Ġby":425,"ug":426,"ase":427,"Ġwere":428,"tive":429,"reat":430,"ĠIn":431,"are":432,"Ġcomp":433,"ations":434,"ist":435,"ĠE":436,"ence":437,"Ġim":438,").":439,"low":440,"Ġpre":441,"Ġch":442,"por":443,"ore":444,"uld":445,"ĠF":446,"Ġsho":447,"00":448,"ub":449,"ĠR":450,"pec":451,"orm":452,"Ġfrom":453,"ĠN":454,"Ġun":455,"vid":456,"ia":457,"est":458,"ĠB":459,"Ġha":460,"igh":461,"Ġse":462,"Ġne":463,"Ġrec":464,"ref":465,"ary":466,"ph":467,"Ġcont":468,"Ġcan":469,"ther":470,"age":471,"Ġdi":472,"Ġ3":473,"pp":474,"lin":475,"Ġy":476,"ose":477,"Ġper":478,"ĠO":479,"per":480,"Ġ[":481,"Ġsy":482,"ow":483,"iz":484,"ĠG":485,"ge":486,"and":487,"te":488,"reatment":489,"ys":490,"ffec":491,"Ġle":492,"oun":493,"able":494,"ven":495,"vi":496,"ous":497,"tions":498,"our":499,"ost":500,"act":501,"Ġass":502,"Ġit":503,"log":504,"ens":505,"Ġwh":506,"Ġhave":507,"ans":508,"Ġmay":509,"Ġshould":510,"duc":511,"pl":512,"Ġtreatment":513,"lud":514,"ĠW":515,"ance":516,"ial":517,"ren":518,"ast":519,"pt":520,"bib":521,"omm":522,"ell":523,"der":524,"ress":525,"Ġinf":526,"Ġab":527,"ign":528,"ĠL":529,"ear":530,"iti":531,"ak":532,"rap":533,"Ġapp":534,"Ġ##":535,"ific":536,"val":537,"Ġcons":538,"Ġint":539,"ch":540,"ative":541,"ally":542,"Ġthis":543,"),":544,"enti":545,"Ġpl":546,"mon":547,"aus":548,"Ġtr":549,"Ġsur":550,"og":551,"ased":552,"ip":553,"ill":554,"Ġwhe":555,"one":556,"isk":557,"ular":558,"roup":559,"ide":560,"Ġeffec":561,"linical":562,"ome":563,"Ġinclud":564,"yp":565,"ors":566,"all":567,"Ġ4":568,"ies":569,"ĠU":570,"Ġsc":571,"out":572,"ory":573,"ich":574,"alth":575,"ved":576,"min":577,"iff":578,"Ġinter":579,"Ġuse":580,"enc":581,"ommend":582,"ard":583,"Ġ5":584,"âĢ":585,"Ġpar":586,"olog":587,"tr":588,"Âł":589,"Ġrisk":590,"ap":591,"Ġreg":592,"Ġother":593,"fter":594,"we":595,"Ġdiff":596,"Ġsub":597,"eren":598,"uid":599,"Ġme":600,"Ġhas":601,"ive":602,"Ġbeen":603,"ep":604,"Ġwhich":605,"Ġdise":606,"ight":607,"lec":608,"anc":609,"Ġthan":610,"Ġmed":611,"Ġk":612,"ew":613,"Ġwho":614,"Ġbet":615,"ue":616,"oci":617,"rapy":618,"Ġclinical":619,"Ġpr":620,"red":621,"Ġimp":622,"als":623,"ff":624,"port":625,"osis":626,"ult":627,"Ġmet":628,"Ġno":629,"Ġrecommend":630,"rug":631,"Ġgroup":632,"udy":633,"Ġco":634,"Ġsign":635,"so":636,"Ġincre":637,"ĠTh":638,"Ġwe":639,"ild":640,"Ġused":641,"Ġhealth":642,"..":643,"Ġafter":644,"ugh":645,"ates":646,"ric":647,"Ġ0":648,"Ġman":649,"dic":650,"rol":651,"ail":652,"ons":653,"Ġmore":654,"Ġph":655,"Ġout":656,"ered":657,"Ġgen":658,"'s":659,"Ġdisease":660,"ollow":661,"Ġ6":662,"Ġob":663,"ong":664,"Ġalso":665,"Ġstudy":666,"Ġag":667,"cer":668,"uch":669,"udi":670,"tim":671,"vel":672,"agn":673,"ace":674,"Ġcare":675,"ari":676,"ases":677,"Ġtrans":678,"ach":679,"Ġpos":680,"ween":681,"vidence":682,"Ġmg":683,"Ġ[/":684,"ass":685,"Ġser":686,"Ġfollow":687,"ause":688,"form":689,"Ġspec":690,"Ġrel":691,"Ġdur":692,"Ġbetween":693,"Ġpres":694,"jec":695,"Ġmon":696,"tal":697,"Ġtheir":698,"Ġtim":699,"ple":700,"Ġall":701,"lic":702,"Ġar":703,"Ġdifferen":704,"pos":705,"ding":706,"Ġyear":707,"ction":708,"Ġcar":709,"atic":710,"Ġresp":711,"lop":712,"ility":713,"Ġthese":714,"ne":715,"Ġsup":716,"ual":717,"Ġen":718,"Ġstudi":719,"ef":720,"Ġinfec":721,"Ġqu":722,"Ġbut":723,"ound":724,"rop":725,"ke":726,"Ġmod":727,"ever":728,"Ġover":729,"ting":730,"Ġassoci":731,"ros":732,"Ġli":733,"Ġevidence":734,"Ġanti":735,"Ġlow":736,"mpt":737,"cess":738,"Ġdrug":739,"Ġsignific":740,"ults":741,"yl":742,"stem":743,"yc":744,".,":745,"cur":746,"Ġhad":747,"ox":748,"ĠThis":749,"ures":750,"ms":751,"ĠV":752,"alys":753,"ater":754,"loc":755,"tain":756,"ves":757,"Ġpatient":758,"mun":759,"Ġguid":760,"ree":761,"ery":762,"Ġpe":763,"velop":764,"Ġunder":765,"iss":766,"Ġdec":767,"ving":768,"Ġchild":769,"Ġconsid":770,"ied":771,"mptom":772,"ared":773,"ported":774,"Ġsignificant":775,"ata":776,"Ġtri":777,"ĠThere":778,"Ġhigh":779,"dition":780,"Ġstudies":781,"Ġsuch":782,"ath":783,"ond":784,"Ġprovid":785,"Ġrece":786,"Ġif":787,"Ġduring":788,"Ġ\"":789,"Ġtherapy":790,"Ġcl":791,"ang":792,"Ġlevel":793,"Ġoc":794,"vir":795,"Ġdose":796,"Ġdo":797,"ser":798,"Ġcor":799,"Ġ9":800,"Ġsystem":801,"Ġdevelop":802,"ĠSt":803,"ici":804,"Ġwhen":805,"ack":806,"omen":807,"view":808,"ating":809,"Ġra":810,"Ġcell":811,"Ġ7":812,"Ġone":813,"art":814,"gn":815,"ople":816,"inal":817,"Ġdiagn":818,"oth":819,"ination":820,"Ġyears":821,"ines":822,"ulation":823,"Ġinform":824,"ized":825,"Ġsp":826,"Ġtw":827,"ration":828,"Ġwor":829,"Ġneed":830,"ĠAl":831,"rain":832,"Ġup":833,"rec":834,"ber":835,"ays":836,"Ġro":837,"Ġassociated":838,"ek":839,"ĠIt":840,"Ġhy":841,"hed":842,"Ġpers":843,"minist":844,"Ġstr":845,"ute":846,"Ġpo":847,"ency":848,"ational":849,"hem":850,"ments":851,"Ġtest":852,"Ġdata":853,"Ġsec":854,"atory":855,"oid":856,"acc":857,"Ġthere":858,"qui":859,"ech":860,"ice":861,"ited":862,"mit":863,"Ġ19":864,"Ġtime":865,"ten":866,"ible":867,"Ġsymptom":868,"ron":869,"owever":870,"Ġpeople":871,"Ġop":872,"lood":873,"ax":874,"str":875,"ital":876,"com":877,"ile":878,"itive":879,"Ġcontrol":880,"Ġav":881,"Ġ20":882,"Ġcompared":883,"Ġany":884,"Ġfact":885,"unction":886,"Ġassess":887,"Ġshow":888,"Ġ8":889,"ite":890,"Ġexper":891,"Ġmost":892,"Ġem":893,"Ġsurg":894,"tee":895,"Ġnon":896,"tis":897,"nal":898,"Ġbec":899,"Ġ=":900,"Ġusing":901,"alysis":902,"til":903,"ression":904,"ily":905,"Ġage":906,"Ġval":907,"de":908,"Ġwomen":909,"now":910,"tiv":911,"fer":912,"Ġdisc":913,"gen":914,"valu":915,"edi":916,"Ġdes":917,"Ġ.":918,"ust":919,"ont":920,"irst":921,"Ġcol":922,"lu":923,"Ġblood":924,"cent":925,"ame":926,"Ġthey":927,"Ġinformation":928,"les":929,"Ġchildren":930,"Ġ10":931,"ram":932,"ok":933,"ions":934,"Ġprog":935,"Ġexam":936,"Ġsome":937,"entif":938,"Ġmeas":939,"hen":940,"ange":941,"erg":942,"osp":943,"ology":944,"Ġsh":945,"Ġreported":946,"acter":947,"Ġonly":948,"eline":949,"Ġtwo":950,"ants":951,"af":952,"pective":953,"li":954,"Ġtyp":955,"Ġoccur":956,"Ġits":957,"Ġid":958,"ĠAn":959,"Ġcancer":960,"verse":961,"Ġes":962,"ds":963,"ry":964,"Ġappro":965,"Ġlim":966,"Ġfirst":967,"ths":968,"Ġdep":969,"ake":970,"led":971,"hes":972,"Ġ200":973,"Ġform":974,"ort":975,"IV":976,"ution":977,"CT":978,"Ġend":979,"vention":980,"Ġso":981,"Ġadminist":982,"Ġreduc":983,"Ġperform":984,"Ġpartic":985,"Ġvacc":986,"rib":987,"Ġthose":988,"arm":989,"Ġsyn":990,"Ġpop":991,"Ġvari":992,"Ġsymptoms":993,"urren":994,"Ġsm":995,"ces":996,"Ġwill":997,"Ġgener":998,"Ġinto":999,"Ġevalu":1000,"Ġrem":1001,"Ġpot":1002,"ities":1003,"Ġabout":1004,"ise":1005,"Ġdos":1006,"ality":1007,"ody":1008,"ĠK":1009,"Ġincluding":1010,"Ġprac":1011,"its":1012,"Ġwork":1013,"Ġinfection":1014,"reated":1015,"ness":1016,"Ġresults":1017,"AT":1018,"bo":1019,"rel":1020,"Ġeffects":1021,"term":1022,"Ġmo":1023,"Ġdef":1024,"Ġrep":1025,"Ġinv":1026,"ral":1027,"Ġmin":1028,"Ġsim":1029,"Ġhig":1030,"ety":1031,"Ġrequi":1032,"Ġincreased":1033,"Ġben":1034,"Ġmedic":1035,"Ġconsidered":1036,"ĠAd":1037,"Ġcomple":1038,"Ġnum":1039,"raph":1040,"ential":1041,"ced":1042,"Ġindic":1043,"Ġboth":1044,"lis":1045,"Ġidentif":1046,"tern":1047,"Ġreview":1048,"ĠAs":1049,"Ġreac":1050,"par":1051,"ormal":1052,"Ġbi":1053,"ately":1054,"...,":1055,"tein":1056,"Ġexpos":1057,"ardi":1058,"ĠJ":1059,"ĠFor":1060,"Ġinclude":1061,"tics":1062,"Ġlong":1063,"Ġavail":1064,"Ġproduc":1065,"Ġpost":1066,"Ġimpro":1067,"ĠHowever":1068,"Ġ12":1069,"Ġfollowing":1070,"19":1071,"ord":1072,"hol":1073,"Ġins":1074,"Ġloc":1075,"10":1076,"Ġphys":1077,"ful":1078,"mong":1079,"ane":1080,"Ġdet":1081,"Ġweek":1082,"%)":1083,"Ġindi":1084,"Ġcases":1085,"ium":1086,"cop":1087,"int":1088,"Ġpresent":1089,"Ġobser":1090,"vent":1091,"ition":1092,"Ġfunction":1093,"vere":1094,"itor":1095,"Ġconf":1096,"ount":1097,"oma":1098,"Ġrecei":1099,"Ġrecommended":1100,"ability":1101,"ood":1102,"Ġfound":1103,"requ":1104,"Ġpregn":1105,"very":1106,"Ġknow":1107,"Ġj":1108,"az":1109,"ues":1110,"Ġlab":1111,"gan":1112,"Ġlevels":1113,"Ġmal":1114,"ograph":1115,"Ġrate":1116,"Ġ###":1117,"Ġhum":1118,"und":1119,"Ġthro":1120,"ually":1121,"Ġpain":1122,"ex":1123,"Ġacc":1124,"Ġsug":1125,"Ġprim":1126,"agement":1127,"arly":1128,"ption":1129,"rit":1130,"ening":1131,"ark":1132,"Ġam":1133,"Ġhigher":1134,"ĠĠ":1135,"Ġcommon":1136,"Ġaddition":1137,"ised":1138,"omy":1139,"arg":1140,"air":1141,"Ġext":1142,"Ġbased":1143,"ife":1144,"Ġavailable":1145,"usion":1146,"ection":1147,"Ġmor":1148,"Ġmonths":1149,"Ġmul":1150,"iod":1151,"ect":1152,"hib":1153,"ision":1154,"CC":1155,"vers":1156,"Ġbecause":1157,"ization":1158,"rac":1159,"Ġwell":1160,"inding":1161,"ism":1162,"xim":1163,"Ġeffect":1164,"othe":1165,"ges":1166,"Ġposs":1167,"Ġindivid":1168,"onse":1169,"ou":1170,"ĠPati":1171,"Ġhyp":1172,"ma":1173,"drom":1174,"ined":1175,"itis":1176,"Ġimmun":1177,"Ġcommit":1178,"cular":1179,"tho":1180,"Ġplace":1181,"Ġless":1182,"Ġgroups":1183,"Ġcaus":1184,"Ġanalysis":1185,"Ġmodel":1186,"ospital":1187,"Ġwithout":1188,"Ġmain":1189,"ĠIf":1190,"urrent":1191,"vic":1192,"yt":1193,"âĢĳ":1194,"ĠHIV":1195,"Ġbas":1196,"Ġamong":1197,"Ġprob":1198,"Ġdays":1199,"Ġdifferent":1200,"Ġprotein":1201,"Ġyour":1202,"Ġref":1203,"atric":1204,"Ġmetho":1205,"Ġimport":1206,"Ġsurgery":1207,"ĠCh":1208,"Ġpat":1209,"Ġdoc":1210,"ature":1211,"Ġdel":1212,"Ġregard":1213,"rect":1214,"ancy":1215,"ould":1216,"row":1217,"Ġwithin":1218,"Ġproced":1219,"Ġsevere":1220,"Ġfactors":1221,"ID":1222,"AA":1223,"tice":1224,"12":1225,"Ġbenef":1226,"Ġcommittee":1227,"Ġnumber":1228,"tit":1229,"Ġmedical":1230,"ix":1231,"Ġwould":1232,"echn":1233,"Ġsurvi":1234,"Ġradi":1235,"crib":1236,"Ġfe":1237,"Ġadverse":1238,"ission":1239,"Ġcardi":1240,"Ġtak":1241,"Ġadv":1242,"hy":1243,"Ġactiv":1244,"CE":1245,"ĠWe":1246,"Ġiniti":1247,"du":1248,"Ġspecific":1249,"oper":1250,"Ġpub":1251,"idence":1252,"Ġlike":1253,"ĠUn":1254,"acy":1255,"Ġwhere":1256,"Ġeach":1257,"kin":1258,"Ġtreated":1259,"ically":1260,"drome":1261,"arge":1262,"Ġrecommendations":1263,"Ġep":1264,"arch":1265,"Ġmeasure":1266,"Ġdiagnosis":1267,"tical":1268,"Ġresponse":1269,"ade":1270,"000":1271,"Ġstand":1272,"co":1273,"Ġpopulation":1274,"inc":1275,"ours":1276,"ateg":1277,"ĠComm":1278,"fore":1279,"Ġeff":1280,"ently":1281,"Ġter":1282,"Ġcomb":1283,"Ġtrials":1284,"me":1285,"Ġset":1286,"Ġincrease":1287,"Ġinvol":1288,"Ġresult":1289,"Ġexp":1290,"Ġhist":1291,"uct":1292,"ropri":1293,"Ġbefore":1294,"Ġdecre":1295,"Ġnew":1296,"NA":1297,"ft":1298,"Ġtum":1299,"Ġperiod":1300,"ian":1301,"Ġtechn":1302,"elines":1303,"Ġmanagement":1304,"Ġperson":1305,"though":1306,"umab":1307,"Ġlower":1308,"Ġincluded":1309,"inu":1310,"Ġfl":1311,"ning":1312,"ize":1313,"Ġlimited":1314,"Ġthrough":1315,"Ġhyper":1316,"Ġexperi":1317,"otherapy":1318,"Ġsecond":1319,"Ġgl":1320,"ural":1321,"TT":1322,"erc":1323,"andom":1324,"Ġsubjec":1325,"Ġchem":1326,"Ġvir":1327,"sy":1328,"ĠPatients":1329,"Ġyou":1330,"Ġnec":1331,"ĠRe":1332,"dro":1333,"Ġprimary":1334,"Ġev":1335,"comes":1336,"Ġprot":1337,"Ġsyndrome":1338,"Ġ15":1339,"emb":1340,"Ġconcent":1341,"Ġbre":1342,"ilar":1343,"ĠQ":1344,"Ġcent":1345,"Ġinhib":1346,"Ġcase":1347,"DA":1348,"âĢĵ":1349,"ĠThese":1350,"ĠÂ":1351,"Ġacid":1352,"ĠIm":1353,"lym":1354,"Ġgi":1355,"other":1356,"oph":1357,"Ġaut":1358,"Ġsurvival":1359,"ty":1360,"Ġcompar":1361,"Ġdiagnos":1362,"duce":1363,"gative":1364,"ĠPro":1365,"Ġfrequ":1366,"Ġaffec":1367,"pati":1368,"Ġsaf":1369,"Ġmean":1370,"Ġpositive":1371,"Ġel":1372,"ists":1373,"Ġwhether":1374,"ronic":1375,"ob":1376,"ters":1377,"Ġpractice":1378,"Ġtrial":1379,"tig":1380,"ages":1381,"ĠEx":1382,"Ġur":1383,"ological":1384,"Ġexposure":1385,"Ġacute":1386,"Ġperformed":1387,"Ġlead":1388,"ascular":1389,"Ġâ":1390,"io":1391,"lev":1392,"lished":1393,"Ġtes":1394,"Ġcells":1395,"Ġeffective":1396,"Ġcle":1397,"operative":1398,"ung":1399,"tor":1400,"Ġweeks":1401,"Ġpotential":1402,"armac":1403,"ĠHe":1404,"ropriate":1405,"Ġquality":1406,"Ġpredic":1407,"Ġdue":1408,"Ġoutcomes":1409,"ogen":1410,"any":1411,"Ġguidance":1412,"Ġcould":1413,"Ġmulti":1414,"av":1415,"vices":1416,"Ġed":1417,"urther":1418,"Ġlife":1419,"Ġimportant":1420,"ran":1421,"Ġdid":1422,"Ġsus":1423,"Ġhospital":1424,"Ġcost":1425,"Ġtra":1426,"Ġsupport":1427,"Ġgreat":1428,"Ġret":1429,"Ġsmall":1430,"Ġtype":1431,"Ġprocess":1432,"Ġcontain":1433,"veness":1434,"pectively":1435,"Ġorgan":1436,"ingle":1437,"ov":1438,"Ġsignificantly":1439,"etic":1440,"Ġsol":1441,"20":1442,"CA":1443,"Ġestim":1444,"atis":1445,"Ġhuman":1446,"Ġrates":1447,"Ġpress":1448,"Ġchang":1449,"erv":1450,"Ġfail":1451,"Ġobserved":1452,"Ġcause":1453,"holog":1454,"Ġbody":1455,"lor":1456,"alc":1457,"eding":1458,"Ġchar":1459,"Ġknown":1460,"Ġsever":1461,"Ġpart":1462,"oss":1463,"Ġinflu":1464,"olic":1465,"kg":1466,"ties":1467,"Ġtotal":1468,"Ġrese":1469,"Ġpossible":1470,"ior":1471,"line":1472,"aging":1473,"Ġgra":1474,"Ġconsider":1475,"Ġrandom":1476,"ĠUse":1477,"].":1478,"Ġthree":1479,"Ġdevelopment":1480,"ither":1481,"aj":1482,"ediatric":1483,"ĠCO":1484,"aily":1485,"Ġsimilar":1486,"Ġdoses":1487,"Ġest":1488,"cri":1489,"Ġcomplic":1490,"ension":1491,"ental":1492,"Ġimprove":1493,"tiveness":1494,"50":1495,"ĠTo":1496,"Ġtesting":1497,"ale":1498,"Ġdrugs":1499,"Ġet":1500,"Ġrenal":1501,"Ġ30":1502,"Ġfam":1503,"Ġstandard":1504,"ove":1505,"Ġabs":1506,"Ġsingle":1507,"Ġregim":1508,"Ġregarding":1509,"lect":1510,"Ġsu":1511,"uss":1512,"Ġhem":1513,"Ġhel":1514,"ajor":1515,"Ġoral":1516,"mission":1517,"avi":1518,"day":1519,"11":1520,"Ġcharacter":1521,"cl":1522,"Ġpri":1523,"Ġintra":1524,"care":1525,"Ġappropriate":1526,"ins":1527,"ie":1528,"iv":1529,"ĠAc":1530,"Ġearly":1531,"related":1532,"ole":1533,"vious":1534,"Ġguidelines":1535,"Ġclass":1536,"ator":1537,"Ġnormal":1538,"Ġcurrent":1539,"Ġoften":1540,"Ġmust":1541,"Ġlikely":1542,"Ġadministration":1543,"tality":1544,"Ġpressure":1545,"Ġol":1546,"Ġvis":1547,"Ġdaily":1548,"Ġdoes":1549,"clud":1550,"Ġsens":1551,"Ġhours":1552,"GG":1553,"Ġscre":1554,"Ġgiven":1555,"Ġvol":1556,"Ġprof":1557,"lob":1558,"Ġlocal":1559,"Ġgeneral":1560,"Ġadults":1561,"Ġchronic":1562,"eth":1563,"Ġplacebo":1564,"icro":1565,"uro":1566,"ĠPh":1567,"Ġmajor":1568,"Ġsame":1569,"Ġmany":1570,"jur":1571,"refore":1572,"Ġcommun":1573,"II":1574,"Ġ24":1575,"atal":1576,"Ġcir":1577,"Ġfinding":1578,"Ġsam":1579,"Ġ18":1580,"Ġheart":1581,"Ġleast":1582,"usc":1583,"ĠPre":1584,"Ġactivity":1585,"termin":1586,"plant":1587,"RI":1588,"jection":1589,"amm":1590,"vestig":1591,"%,":1592,"cept":1593,"13":1594,"iqu":1595,"ication":1596,"Ġmortality":1597,"ified":1598,"Ġte":1599,"Ġrespectively":1600,"atin":1601,"ĠRec":1602,"Ġarter":1603,"Ġadj":1604,"Ġstate":1605,"of":1606,"Ġdeath":1607,"Ġantib":1608,"ĠEn":1609,"ross":1610,"Ġevents":1611,"Ġreactions":1612,"Ġassessment":1613,"ics":1614,"Ġusually":1615,"Ġbeing":1616,"Ġdiab":1617,"Ġequ":1618,"oung":1619,"Ġeither":1620,"Ġsubjects":1621,"Ġliver":1622,"ditions":1623,"elf":1624,"Ġconduc":1625,"Ġbreast":1626,"medi":1627,"cin":1628,"ĠDrug":1629,"based":1630,"Ġnegative":1631,"Ġfac":1632,"Ġwhile":1633,"dep":1634,"round":1635,"Ġidentified":1636,"Ġresearch":1637,"Ġvaccine":1638,"Ġparticular":1639,"ious":1640,"ĠCI":1641,"Ġweight":1642,"aren":1643,"Ġrat":1644,"Ġmen":1645,"ĠCom":1646,"Ġchanges":1647,"Ġmy":1648,"Ġnoted":1649,"riter":1650,"Ġhelp":1651,"14":1652,"15":1653,"ittee":1654,"Ġskin":1655,"Ġlarge":1656,"Ġvery":1657,"Ġinjur":1658,"con":1659,"Ġ14":1660,"atus":1661,"pro":1662,"ink":1663,"year":1664,"pected":1665,"Ġmade":1666,"Ġsex":1667,"to":1668,"vity":1669,"Ġbeh":1670,"ĠCommittee":1671,"Ġrelated":1672,"Ġinvestig":1673,"etes":1674,"Ġreport":1675,"Ġday":1676,"Ġincidence":1677,"Ġconditions":1678,"come":1679,"Ġgreater":1680,"SA":1681,"ogn":1682,"Ġox":1683,"Ġyoung":1684,"enz":1685,"dom":1686,"Ġadministered":1687,"amin":1688,"tained":1689,"Ġmater":1690,"icacy":1691,"emia":1692,"Ġcalc":1693,"Ġprevious":1694,"Ġtiss":1695,"ulin":1696,"Ġu":1697,"ract":1698,"ĠMed":1699,"Ġmemb":1700,"Ġ50":1701,"ording":1702,"ull":1703,"Ġlo":1704,"ĠAm":1705,"Ġlym":1706,"Ġ199":1707,"Ġoff":1708,"Ġprior":1709,"Ġatt":1710,"itoring":1711,"echan":1712,"hip":1713,"Ġprevent":1714,"Ġanal":1715,"Ġplas":1716,"Ġprovide":1717,"order":1718,"cribed":1719,"ximately":1720,"struc":1721,"Ġ100":1722,"ulations":1723,"ĠSy":1724,"Ġcap":1725,"Ġfib":1726,"ick":1727,"Ġsetting":1728,"Ġfailure":1729,"AR":1730,"Ġremain":1731,"Ġsugges":1732,"ĠDos":1733,"ai":1734,"Ġproble":1735,"ler":1736,"Ġcer":1737,"ĠIV":1738,"Ġul":1739,"Ġthen":1740,"Ġir":1741,"Ġtimes":1742,"Ġpregnancy":1743,"Ġexample":1744,"ĠHealth":1745,"ene":1746,"AL":1747,"Ġservices":1748,"Ġdist":1749,"Ġestab":1750,"Ġwater":1751,"Ġshowed":1752,"18":1753,"Ġvers":1754,"Ġcho":1755,"Ġcriter":1756,"ĠY":1757,"ĠFDA":1758,"Ġoper":1759,"ocial":1760,"Ġoverall":1761,"Ġreceived":1762,"ĠRes":1763,"aneous":1764,"itivity":1765,"erm":1766,"icity":1767,"Ġdys":1768,"Ġfindings":1769,"Ġvs":1770,"Ġdepend":1771,"Ġmetab":1772,"ps":1773,"Ġrequired":1774,"ography":1775,"Ġques":1776,"go":1777,"ĠNo":1778,"Ġsit":1779,"Ġloss":1780,"Ġcomplications":1781,"AC":1782,"iratory":1783,"ough":1784,"Ġdifferences":1785,"Ġlabor":1786,"way":1787,"Ġprocedure":1788,"Ġvi":1789,"Ġfurther":1790,"Ġair":1791,"put":1792,"Ġhydro":1793,"ĠSc":1794,"ĠOn":1795,"Ġbehavi":1796,"Ġrecommendation":1797,"Ġsurgical":1798,"uals":1799,"ĠAt":1800,"Ġtox":1801,"las":1802,"pecial":1803,"Ġhistory":1804,"roduc":1805,"Ġvirus":1806,"ĠDi":1807,"Ġ'":1808,"Ġ13":1809,"ste":1810,"Ġchange":1811,"Ġthem":1812,"Ġmight":1813,"Ġpharmac":1814,"termine":1815,"urs":1816,"ĠOver":1817,"16":1818,"Ġdemon":1819,"Ġindividual":1820,"Ġtem":1821,"Ġsafety":1822,"Ġ95":1823,"tial":1824,"Ġmethod":1825,"Ġprogram":1826,"Ġeffectiveness":1827,"Ġfem":1828,"Ġles":1829,"Ġcall":1830,"Ġ16":1831,"Ġexpl":1832,"):":1833,"Ġche":1834,"Ġdifference":1835,"Ġagain":1836,"Ġparticip":1837,"Ġnecess":1838,"Ġdetermin":1839,"Ġoutcome":1840,"Ġtests":1841,"ĠClinical":1842,"Ġshown":1843,"less":1844,"eric":1845,"Ġdiabetes":1846,"gi":1847,"airment":1848,"oscop":1849,"Ġcompany":1850,"RT":1851,"Ġintervention":1852,"ession":1853,"Ġdetermine":1854,"ĠAll":1855,"Ġbl":1856,"Ġphysical":1857,"ĠOther":1858,"Ġmedication":1859,"Ġefficacy":1860,"Ġadditional":1861,"Ġguideline":1862,"lock":1863,"ĠâĢ":1864,"Ġspecial":1865,"Ġscreening":1866,"Ġinfections":1867,"lement":1868,"Ġmark":1869,"trib":1870,"Ġ25":1871,"Ġreduce":1872,"ucle":1873,"urn":1874,"Ġdiscuss":1875,"ĠWhen":1876,"ffici":1877,"Ġregimen":1878,"ensive":1879,"Ġrequire":1880,"Ġmoder":1881,"Ġdoctor":1882,"Ġstruct":1883,"the":1884,"Ġcount":1885,"Ġill":1886,"Ġexperience":1887,"sequ":1888,"Ġdemonstr":1889,"Ġca":1890,"Ġneeded":1891,"Ġpul":1892,"Ġtub":1893,"gest":1894,"Ġreceiving":1895,"Ġfactor":1896,"cohol":1897,"Ġcriteria":1898,"athy":1899,"Ġcombination":1900,"Ġside":1901,"Ġrespons":1902,"ison":1903,"ule":1904,"Ġactive":1905,"Ġselec":1906,"Ġtrain":1907,"Ġpublic":1908,"gth":1909,"Ġdirect":1910,"see":1911,"iel":1912,"cription":1913,"Ġaccess":1914,"ĠSe":1915,"orders":1916,"irm":1917,"Ġstatus":1918,"tif":1919,"Ġeduc":1920,"17":1921,"Ġcirc":1922,"Ġmusc":1923,"ument":1924,"ume":1925,"Ġappear":1926,"Ġprom":1927,"Ġtherap":1928,"Ġadd":1929,"Ġpersons":1930,"Ġlit":1931,"Ġgrow":1932,"Ġrefer":1933,"Ġgene":1934,"Ġcoun":1935,"oster":1936,"phyl":1937,"Ġrange":1938,"Ġimpact":1939,"ym":1940,"cluded":1941,"abel":1942,"Ġsubst":1943,"ĠCT":1944,"ll":1945,"Ġgast":1946,"Ġhand":1947,"Ġrati":1948,"cep":1949,"ĠNI":1950,"Ġserum":1951,"Ġpregnant":1952,"normal":1953,"Ġtaking":1954,"Ġhep":1955,"Ġhow":1956,"ification":1957,"ĠWh":1958,"Ġtreat":1959,"Ġconcentr":1960,"ances":1961,"ince":1962,"Ġreduced":1963,"95":1964,"mia":1965,"monary":1966,"GT":1967,"Ġlung":1968,"25":1969,"Ġ+":1970,"neum":1971,"ĠAss":1972,"Ġfood":1973,"Ġindividuals":1974,"30":1975,"fact":1976,"ring":1977,"Ġshort":1978,"Ġhead":1979,"Ġpresence":1980,"Ġapproximately":1981,"depend":1982,"Ġreduction":1983,"anced":1984,"Ġrecept":1985,"ind":1986,"Ġtable":1987,"Ġsurve":1988,"ork":1989,"Ġapproach":1990,"omic":1991,"Ġstatis":1992,"for":1993,"ources":1994,"tically":1995,"Ġcondition":1996,"ĠAlthough":1997,"Ġmechan":1998,"Ġcontinu":1999,"ĠDosage":2000,"Ġenc":2001,"itation":2002,"Ġgo":2003,"ret":2004,"Ġve":2005,"arget":2006,"ventions":2007,"enza":2008,"eu":2009,"Ġhowever":2010,"Ġarea":2011,"ples":2012,"Ġemerg":2013,"Ġallow":2014,"Ġach":2015,");":2016,"ontrol":2017,"Ġfamily":2018,"Ġrest":2019,"ores":2020,"Ġmultiple":2021,"ĠCon":2022,"Ġbenefit":2023,"Ġ,":2024,"Ġeven":2025,"pect":2026,"Ġcyc":2027,"Ġrelative":2028,"Ġplasma":2029,"vice":2030,"ye":2031,"roid":2032,"Ġevery":2033,"ĠGuid":2034,"Ġplan":2035,"Ġfour":2036,"avir":2037,"Ġvalue":2038,"Ġtechniqu":2039,"ason":2040,"Ġmut":2041,"Ġconducted":2042,"Ġbone":2043,"Ġvalues":2044,"Ġprovided":2045,"lamm":2046,"asing":2047,"Ġvit":2048,"Ġadult":2049,"Ġbacter":2050,"ner":2051,"Ġcardiac":2052,"uring":2053,"aking":2054,"Ġstrateg":2055,"ĠCD":2056,"ype":2057,"VID":2058,"Ġbaseline":2059,"lation":2060,"Ġdeveloped":2061,"Ġcharacteris":2062,"AD":2063,"Ġachie":2064,"Ġtissue":2065,")(":2066,"Ġminim":2067,"Ġseveral":2068,"osph":2069,"ish":2070,"Ġke":2071,"Ġagainst":2072,"istent":2073,"ĠZ":2074,"verage":2075,"rim":2076,"ibility":2077,"Ġsuggest":2078,"Ġ17":2079,"Ġcat":2080,"ended":2081,"ode":2082,"iting":2083,"icians":2084,"Ġdeli":2085,"Ġinterval":2086,"ences":2087,"Ġsection":2088,"Ġevaluated":2089,"ergy":2090,"Ġ40":2091,"asis":2092,"Ġinjury":2093,"like":2094,"Ġher":2095,"Ġinitial":2096,"Ġbir":2097,"ck":2098,"Ġdiffic":2099,"oking":2100,"Ġclear":2101,"ules":2102,"Ġrespiratory":2103,"Ġelec":2104,"old":2105,"Ġdiagnostic":2106,"Ġtake":2107,"Ġrandomized":2108,"Ġrole":2109,"Ġdisorder":2110,"Ġversus":2111,"emic":2112,"Ġble":2113,"ST":2114,"Ġduration":2115,"Ġsuc":2116,"Ġps":2117,"rial":2118,"Ġthrom":2119,"valence":2120,"oint":2121,"ĠX":2122,"Ġresist":2123,"22":2124,"bid":2125,"ulated":2126,"eting":2127,"Ġauth":2128,"Ġcertain":2129,"ries":2130,"ologic":2131,"Ġmat":2132,"Ġinterventions":2133,"action":2134,"Ġdesign":2135,"Ġcomplete":2136,"Ġdisorders":2137,"ators":2138,"ae":2139,"not":2140,"unc":2141,"Ġscore":2142,"Ġconcentrations":2143,"Ġprofession":2144,"Ġidentify":2145,"Ġevaluation":2146,"Ġareas":2147,"Ġnecessary":2148,"Ġcos":2149,"ained":2150,"Ġrepl":2151,"rection":2152,"ward":2153,"Ġlymph":2154,"oles":2155,"Ġtarget":2156,"aw":2157,"RE":2158,"urg":2159,"utes":2160,"Ġcarcin":2161,"ternative":2162,"urop":2163,"Ġanim":2164,"Ġneuro":2165,"Ġclin":2166,"24":2167,"Ġrelations":2168,"ling":2169,"ik":2170,"Ġsequ":2171,"Ġpneum":2172,"Ġz":2173,"Ġpediatric":2174,"Ġpur":2175,"tility":2176,"Ġaccording":2177,"ĠCOVID":2178,"mental":2179,"utions":2180,"Ġmonitoring":2181,"Ġprocedures":2182,"venous":2183,"axim":2184,"ĠHC":2185,"Ġmolec":2186,"Ġdom":2187,"ĠDis":2188,"ports":2189,"inary":2190,"Ġanalys":2191,"Ġlabel":2192,"MI":2193,"Ġsize":2194,"Ġent":2195,"Ġcaused":2196,"Ġcontrolled":2197,"Ġolder":2198,"HO":2199,"Ġinhibit":2200,"Ġinfluenza":2201,"roscop":2202,"pecially":2203,"use":2204,"rh":2205,"Ġmicro":2206,"Ġrepres":2207,"roph":2208,"HS":2209,"Ġmeasures":2210,"viron":2211,"Ġconcer":2212,"Ġemp":2213,"Ġabnormal":2214,"Ġprevention":2215,"Ġantibio":2216,"dose":2217,"utri":2218,"ales":2219,"amine":2220,"Ġsocial":2221,"ulf":2222,"Ġindicated":2223,"gra":2224,"Ġconfirm":2225,"Ġmethods":2226,"Ġimaging":2227,"equ":2228,"ols":2229,"Ġmass":2230,"Ġchemotherapy":2231,"lease":2232,"ER":2233,"Ġtumor":2234,"set":2235,"Ġfew":2236,"Ġratio":2237,"Ġassessed":2238,"umm":2239,"Ġself":2240,"adi":2241,"Ġrelev":2242,"Ġ11":2243,"Ġtaken":2244,"onia":2245,"ĠRecommend":2246,"Ġestablished":2247,"ld":2248,"CI":2249,"Ġseen":2250,"Ġrelationship":2251,"arr":2252,"Ġagents":2253,"Ġbelow":2254,"Ġplus":2255,"ritis":2256,"Ġabove":2257,"Ġhealthcare":2258,"ected":2259,"Ġmetast":2260,"Ġcommunity":2261,"tib":2262,"Ġdiscont":2263,"Ġavoid":2264,"OR":2265,"ressive":2266,"Ġdiseases":2267,"Ġsurf":2268,"Ġalcohol":2269,"Ġparen":2270,"uted":2271,"Â°":2272,"ĠTable":2273,"Ġbenefits":2274,"Ġâī":2275,"AS":2276,"app":2277,"Ġimpairment":2278,"Ġcollec":2279,"ĠThey":2280,"001":2281,"erence":2282,"Ġmetabol":2283,"hort":2284,"Ġhaving":2285,"Ġcomplex":2286,"odi":2287,"terior":2288,"Ġcoron":2289,"Ġtraining":2290,"ource":2291,"ressed":2292,"Ġresid":2293,"Ġimplement":2294,"cre":2295,"Ġstar":2296,"Ġalone":2297,"man":2298,"occ":2299,"ĠNICE":2300,"Ġdefined":2301,"ovascular":2302,"Ġtherefore":2303,"ycin":2304,"Ġprol":2305,"aff":2306,"ĠER":2307,"Ġtransplant":2308,"Ġfract":2309,"read":2310,"ĠII":2311,"axis":2312,"yn":2313,"oids":2314,"Ġdecreased":2315,"Ġhypert":2316,"Ġmoderate":2317,"abil":2318,"Ġbrain":2319,"Ġaim":2320,"ield":2321,"Ġmake":2322,"Ġstrong":2323,"Ġvaccination":2324,"ateral":2325,"know":2326,"orn":2327,"amp":2328,"Ġfollowed":2329,"Ġalthough":2330,"Ġcult":2331,"cell":2332,"Ġsw":2333,"Ġcauses":2334,"Ġlaboratory":2335,"Ġbleeding":2336,"Ġfluid":2337,"Ġmm":2338,"05":2339,"CG":2340,"ient":2341,"let":2342,"Ġprogression":2343,"Ġfet":2344,"outh":2345,"ĠGroup":2346,"Ġtreatments":2347,"Ġsigns":2348,"roke":2349,"tional":2350,"Ġimmedi":2351,"Ġcyt":2352,"Ġline":2353,"Ġaged":2354,"Ġour":2355,"ocardi":2356,"ĠAmeric":2357,"ote":2358,"Ġrout":2359,"Ġdescribed":2360,"NT":2361,"ably":2362,"infec":2363,"ND":2364,"Is":2365,"ĠUnited":2366,"Ġnucle":2367,"ured":2368,"Ġuntil":2369,"ĠLe":2370,"Ġvolume":2371,"Ġespecially":2372,"Ġlack":2373,"zed":2374,"Ġprevalence":2375,"going":2376,"Ġinfants":2377,"Ġbirth":2378,"Ġdecision":2379,"uble":2380,"Ġdifficult":2381,"ĠTreatment":2382,"aged":2383,"Ġroutine":2384,"ĠDe":2385,"Ġbest":2386,"Ġserious":2387,"Ġbetter":2388,"ufact":2389,"Ġenviron":2390,"Ġpulmonary":2391,"Ġq":2392,"ĠSome":2393,"Ġpercent":2394,"own":2395,"Ġenz":2396,"Ġoccurred":2397,"Ġleft":2398,"sych":2399,"Ġpoly":2400,"land":2401,"Ġhealthy":2402,"Ġconcentration":2403,"Ġaffect":2404,"Ġproblems":2405,"Ġsite":2406,"ables":2407,"Ġartery":2408,"Ġdocument":2409,"mic":2410,"Ġcontact":2411,"dex":2412,"Ġrap":2413,"till":2414,"Ġlesions":2415,"hing":2416,"isms":2417,"izumab":2418,"Ġtop":2419,"Ġmeasured":2420,"dependent":2421,"Ġback":2422,"ender":2423,"stand":2424,"Ġpublished":2425,"group":2426,"actions":2427,"Ġquestion":2428,"aps":2429,"certain":2430,"Ġgluc":2431,"Ġparticularly":2432,"idne":2433,"ĠOR":2434,"ON":2435,"Ġapplic":2436,"Ġelectr":2437,"%),":2438,"Ġmuscle":2439,"ĠNe":2440,"Ġsystematic":2441,"Ġreaction":2442,"Ġstage":2443,"Ġens":2444,"Ġlonger":2445,"Ġinjection":2446,"ru":2447,"Ġgrowth":2448,"Ġer":2449,"ĠUS":2450,"went":2451,"ĠBec":2452,"Ġ60":2453,"Ġcalled":2454,"isting":2455,"Ġinduc":2456,"ectomy":2457,"Ġpopulations":2458,"fficient":2459,"eral":2460,"ĠNon":2461,"ĠOne":2462,"Ġorig":2463,"Ġcosts":2464,"Ġgenerally":2465,"/-":2466,"Ġprost":2467,"loride":2468,"ĠInter":2469,"Ġdeg":2470,"phylaxis":2471,"Ġcompon":2472,"Ġdistrib":2473,"Ġflow":2474,"CR":2475,"ides":2476,"Ġdefin":2477,".\"":2478,"effec":2479,"ensus":2480,"vement":2481,"arb":2482,"Ġfrequency":2483,"Ġmaterial":2484,"Ġcharacteristics":2485,"pecific":2486,"Ġdelivery":2487,"hological":2488,"Ġaccur":2489,"Ġmanufact":2490,"fig":2491,"Ġrelevant":2492,"Ġsal":2493,"enced":2494,"control":2495,"mitted":2496,"Ġintravenous":2497,"Ġexamination":2498,"Ġdepression":2499,"Ġsuccess":2500,"omet":2501,"60":2502,"Ġrapid":2503,"Ġinflamm":2504,"Ġorder":2505,"Ġdemonstrated":2506,"och":2507,"Ġbiop":2508,"ext":2509,"cet":2510,"Ġfacil":2511,"Ġinvolved":2512,"Ġconcluded":2513,"Ġassociation":2514,"40":2515,"Ġadequ":2516,"iciency":2517,"Ġmembers":2518,"Ġiss":2519,"Ġmaxim":2520,"Ġdetail":2521,"âĢī":2522,"Ġproper":2523,"yroid":2524,"PA":2525,"Ġobjec":2526,"Ġblock":2527,"Ġpsyc":2528,"Ġopen":2529,"ache":2530,"yst":2531,"Ġdecrease":2532,"Ġpoor":2533,"Ġregion":2534,"ĠStates":2535,"plic":2536,"gin":2537,"ĠBecause":2538,"abor":2539,"Ġremo":2540,"Ġanalyses":2541,"Ġreceptor":2542,"Ġbasis":2543,"ourse":2544,"ES":2545,"IC":2546,"Ġtypes":2547,"ensity":2548,"Ġvent":2549,"Ġpropor":2550,"estinal":2551,"Ġneeds":2552,"reed":2553,"Ġcri":2554,"Ġlight":2555,"patitis":2556,"dications":2557,"okine":2558,"Ġdon":2559,"Ġtransmission":2560,"Ġconcern":2561,"Ġ28":2562,"reg":2563,"azole":2564,"Ġfull":2565,"Ġmale":2566,"ĠTB":2567,"ĠCl":2568,"Ġstill":2569,"utaneous":2570,"ask":2571,"23":2572,"Ġlen":2573,"Ġsystems":2574,"Ġsensitivity":2575,"elling":2576,"eutic":2577,"ician":2578,"Ġonce":2579,"ĠDNA":2580,"Label":2581,"Ġphase":2582,"Ġwa":2583,"ivers":2584,"Ġmedian":2585,"ware":2586,"hood":2587,"Ġflu":2588,"Ġhepatic":2589,"cho":2590,"rence":2591,"Ġrare":2592,"Ġhal":2593,"ĠCons":2594,"Ġkidne":2595,"Ġthough":2596,"Ġclinically":2597,"Ġmedications":2598,"ember":2599,"ygen":2600,"inib":2601,"Ġdiet":2602,"ĠÂ£":2603,"Ġ<":2604,"Ġfoc":2605,"GA":2606,"odes":2607,"Ġresistance":2608,"Ġexerc":2609,"Ġdirection":2610,"Ġanother":2611,"ema":2612,"dominal":2613,"illin":2614,"Ġhepatitis":2615,"Ġseverity":2616,"Ġreceive":2617,"Ġobtained":2618,"Ġright":2619,"ET":2620,"ographic":2621,"Ġdiscontinu":2622,"Ġtemper":2623,"ĠAfter":2624,"Ġcannot":2625,"Ġstroke":2626,"ĠmL":2627,"Ġelev":2628,"Ġcoronary":2629,"Ġsecondary":2630,"Sup":2631,"Ġsurface":2632,"Ġadoles":2633,"Ġrecogn":2634,"Ġmental":2635,"ĠDo":2636,"Ġcountries":2637,"lying":2638,"Ġincreasing":2639,"Ġillness":2640,"rosis":2641,"Ġassum":2642,"Ġrepresent":2643,"Ġcontrib":2644,"Ġepid":2645,"output":2646,"Ġterm":2647,"Ġcarb":2648,"mw":2649,"Ġuseful":2650,"Ġgood":2651,"Ġsettings":2652,"esis":2653,"Ġrepe":2654,"ĠOff":2655,"formation":2656,"parser":2657,"ored":2658,"Ġver":2659,"Ġcommonly":2660,"isted":2661,"Ġoccurs":2662,"Ġhypot":2663,"Ġemergency":2664,"28":2665,"Ġaverage":2666,"%.":2667,"%).":2668,"ways":2669,"Ġpa":2670,"nel":2671,"onic":2672,"ricular":2673,"Ġrecent":2674,"Ġincreases":2675,"iology":2676,"arily":2677,"raw":2678,"den":2679,"uk":2680,"ĠAb":2681,"ĠĠĠĠ":2682,"ones":2683,"Ġisol":2684,"Ġpostoperative":2685,"valent":2686,"Ġsolution":2687,"week":2688,"ĠÎ":2689,"Ġbo":2690,"alk":2691,"Ġvarious":2692,"hesis":2693,"ocyt":2694,"Ġproducts":2695,"Ġobserv":2696,"tle":2697,"eri":2698,"Ġsk":2699,"pir":2700,"Ġpattern":2701,"rast":2702,"Ġanaly":2703,"Ġfil":2704,"Ġstim":2705,"Supported":2706,"Ġsitu":2707,"Ġdetermined":2708,"rane":2709,"Ġpros":2710,"Ġsince":2711,"'-":2712,"Ġrats":2713,"Ġrespond":2714,"IN":2715,"lex":2716,"dis":2717,"Ġinhibitors":2718,"Ġsafe":2719,"Ġrisks":2720,"atures":2721,"Ġdam":2722,"Ġwide":2723,"Ġpoint":2724,"oral":2725,"Ġthromb":2726,"Ġestimated":2727,"Ġ>":2728,"Ġsample":2729,"ustr":2730,"Ġphen":2731,"Ġtraum":2732,"Ġstatistically":2733,"ili":2734,"Ġsubsequ":2735,"Ġprogn":2736,"Ġevent":2737,"ering":2738,"Ġâī¥":2739,"Ġuncertain":2740,"rans":2741,"erve":2742,"Ġstaff":2743,"Ġenergy":2744,"leep":2745,"Ġbecome":2746,"here":2747,"Ġperformance":2748,"istic":2749,"Ġrecurren":2750,"Ġbase":2751,"urer":2752,"Ġsci":2753,"Ġnurs":2754,"Â®":2755,"Ġsystemic":2756,"Ġcur":2757,"Ġdelay":2758,"Ġwhat":2759,"Ġsumm":2760,"tivi":2761,"olar":2762,"Ġevaluate":2763,"ĠOf":2764,"ĠTherefore":2765,"Ġeth":2766,"cs":2767,"Ġagreed":2768,"ĠST":2769,"Ġmid":2770,"oplas":2771,"Ġspecies":2772,"Ġcorrel":2773,"Ġliter":2774,"Ġstop":2775,"enic":2776,"Ġact":2777,"Ġcontrac":2778,"Ġappl":2779,"ĠApp":2780,"Ġmagn":2781,"ings":2782,"inue":2783,"Ġfree":2784,"rin":2785,"Ġelect":2786,"rams":2787,"ĠERG":2788,"Ġocc":2789,"olution":2790,"amide":2791,"ĠNational":2792,"21":2793,"yme":2794,"Ġear":2795,"Ġap":2796,"ture":2797,"Ġlip":2798,"Ġseries":2799,"Do":2800,"ĠWith":2801,"Ġsupp":2802,"ray":2803,"ean":2804,"arc":2805,"pho":2806,"Ġposition":2807,"Ġi":2808,"ancre":2809,"Ġmil":2810,"ĠCan":2811,"fusion":2812,"free":2813,"ortic":2814,"Ġpsych":2815,"ird":2816,"Ġworkers":2817,"ministration":2818,"Ġhis":2819,"Ġcardiovascular":2820,"Ġacross":2821,"Ġfat":2822,"Ġoptim":2823,"opathy":2824,"Ġsuspected":2825,"Ġalternative":2826,"Ġclose":2827,"ostic":2828,"Ġadvanced":2829,"80":2830,"dium":2831,"70":2832,"Ġpotenti":2833,"rine":2834,"ash":2835,"omp":2836,"Ġaffected":2837,"75":2838,"Ġhorm":2839,"Ġantic":2840,"Ġfever":2841,"tid":2842,"ergic":2843,"Ġpath":2844,"ula":2845,"Ġunderwent":2846,"Ġread":2847,"Ġreports":2848,"Ġreli":2849,"Ġsepar":2850,"icial":2851,"Ġscho":2852,"asive":2853,"uration":2854,"Ġeducation":2855,"Ġgenetic":2856,"mg":2857,"Ġscores":2858,"oglob":2859,"Ġana":2860,"Ġsexual":2861,"Ġaround":2862,"ĠNHS":2863,"Ġindex":2864,"wo":2865,"Ġpresented":2866,"ints":2867,"ĠAr":2868,"inated":2869,"mL":2870,"Ġconsensus":2871,"Ġcourse":2872,"phal":2873,"Ġhome":2874,"Ġemplo":2875,"Ġcarcinoma":2876,"amic":2877,"function":2878,"Ġparame":2879,"Ġplac":2880,"ĠWHO":2881,"Ġultr":2882,"Ġoxygen":2883,"Ġmild":2884,"rospective":2885,"stit":2886,"Ġensure":2887,"Ġimprovement":2888,"Ġkey":2889,"--":2890,"Ġdem":2891,"Ġparticipants":2892,"Ġster":2893,"Ġmuch":2894,"Ġprec":2895,"Ġpneumonia":2896,"PD":2897,"Ġsuper":2898,"opro":2899,"itant":2900,"Ġmanufacturer":2901,"Ġimproved":2902,"hal":2903,"Ġprefer":2904,"Ġsee":2905,"26":2906,"Ġstudied":2907,"Ġcomparison":2908,"Ġmother":2909,"RA":2910,"struction":2911,"CO":2912,"ĠGen":2913,"isation":2914,"Ġpatho":2915,"ĠMet":2916,"Ġmyocardi":2917,"Ġdiagnosed":2918,"Ġtherapeutic":2919,"Ġrev":2920,"Ġemb":2921,"200":2922,"ĠMon":2923,"known":2924,"Ġarm":2925,"anel":2926,"treated":2927,"eli":2928,"Ġhypertension":2929,"ĠOverview":2930,"range":2931,"ites":2932,"Ġkidney":2933,"YP":2934,"Ġmeta":2935,"Ġ23":2936,"osed":2937,"ĠPO":2938,"over":2939,"Ġchrom":2940,"Ġbr":2941,"ledge":2942,"Ġcohort":2943,"Ġexperts":2944,"Ġstress":2945,"hold":2946,"Ġfocus":2947,"get":2948,"ococc":2949,"ames":2950,"uture":2951,"pha":2952,"Ġfemale":2953,"Ġvalid":2954,"Ġwar":2955,"Ġsodium":2956,"Ġproduct":2957,"Ġrecurrence":2958,"Ġprovider":2959,"taining":2960,"ereb":2961,"',":2962,"atitis":2963,"Ġproduced":2964,"Ġgly":2965,"Ġlink":2966,"asound":2967,"aryn":2968,"Ġsuggested":2969,"ditional":2970,"Ġdosage":2971,"Ġfrequently":2972,"ĠEvidence":2973,"Ġdomain":2974,"ĠDiagn":2975,"Ġmic":2976,"Ġresources":2977,"Ġven":2978,"teg":2979,"Ġconsult":2980,"anti":2981,"Ġcontrast":2982,"lind":2983,"Ġminutes":2984,"Ġhalf":2985,"omas":2986,"acin":2987,"Ġgastro":2988,"Ġoste":2989,"udies":2990,"Ġpreviously":2991,"oly":2992,"resp":2993,"patient":2994,"atural":2995,"Ġinsulin":2996,"SS":2997,"tivities":2998,"Ġliterature":2999,"Ġnutri":3000,"Ġlength":3001,"Ġproteins":3002,"HD":3003,"Ġincludes":3004,"ĠEurop":3005,"Ġbiopsy":3006,"Ġexpected":3007,"Ġaccount":3008,"Ġpredict":3009,"Ġaction":3010,"Ġpolic":3011,"ising":3012,"ceptib":3013,"01":3014,"omes":3015,"Ġchemical":3016,"Ġleg":3017,"times":3018,"Ġcircum":3019,"Ġdone":3020,"Ġhumans":3021,"fe":3022,"Ġarth":3023,"ĠReg":3024,"acement":3025,"rogen":3026,"roscopic":3027,"Ġradiation":3028,"Ġ26":3029,"GC":3030,"lot":3031,"Ġneut":3032,"Ġmalign":3033,"Ġ35":3034,"onal":3035,"ĠCA":3036,"In":3037,"ĠGuideline":3038,"ĠCo":3039,"ixed":3040,"Ġglucose":3041,"usted":3042,"oxic":3043,"27":3044,"Ġaware":3045,"ĠÂ±":3046,"ĠOr":3047,"risk":3048,"Ġapplied":3049,"ground":3050,"Ġfive":3051,"ĠFurther":3052,"Ġcateg":3053,"ĠAmerican":3054,"PV":3055,"Ġonset":3056,"Ġaccept":3057,"Ġtablets":3058,"ĠSp":3059,"Ġtract":3060,"Ġabsence":3061,"Ġlast":3062,"Ġupper":3063,"GF":3064,"Ġproviders":3065,"Ġurine":3066,"tenance":3067,"hology":3068,"36":3069,"Ġunderstand":3070,"artment":3071,"ĠMost":3072,"omal":3073,"45":3074,"hot":3075,"Ġtemperature":3076,"Ġcombined":3077,"100":3078,"Ġtoxicity":3079,"Ġpow":3080,"Ġeye":3081,"oscopy":3082,"ĠMan":3083,"Ġconfidence":3084,"Ġchest":3085,"Ġlimit":3086,"âĢĻ":3087,"tention":3088,"hea":3089,"35":3090,"Ġurinary":3091,"Ġpancre":3092,"Ġcathe":3093,"ĠMRI":3094,"The":3095,"iki":3096,"ĠHy":3097,"Ġactivities":3098,"derly":3099,"chem":3100,"Ġresulting":3101,"illance":3102,"Ġsix":3103,"Ġprolong":3104,"Ġadequate":3105,"Ġview":3106,"Ġterms":3107,"Ġexposed":3108,"Ġrather":3109,"Ġcentral":3110,"Ġconsistent":3111,"bidity":3112,"ĠHCV":3113,"Ġmaximum":3114,"light":3115,"Ġproportion":3116,"rate":3117,"comitant":3118,"controlled":3119,"Ġintere":3120,"Ġmedicine":3121,"Ġdistribution":3122,"ify":3123,"Ġind":3124,"ci":3125,"Ġhighly":3126,"orrh":3127,"ills":3128,"Ġlater":3129,"trac":3130,"Ġsleep":3131,"Ġimmune":3132,"Ġ+/-":3133,"tide":3134,"ĠPharmac":3135,"pose":3136,"ĠHist":3137,"Ġabdominal":3138,"ĠPregn":3139,"Ġdeveloping":3140,"CER":3141,"Ġability":3142,"CD":3143,"isions":3144,"Ġcross":3145,"Ġreason":3146,"Ġconfirmed":3147,"Ġmodels":3148,"ĠInt":3149,"MP":3150,"Ġdown":3151,"Ġred":3152,"Ġbal":3153,"Ġinfusion":3154,"29":3155,"Ġlarg":3156,"ĠCYP":3157,"tious":3158,"ĠUK":3159,"Ġsupple":3160,"izing":3161,"amily":3162,"Ġreviewed":3163,"Ġinhibitor":3164,"Ġteam":3165,"ALY":3166,"Ġexpression":3167,"posed":3168,"Ġtrauma":3169,"lish":3170,"Ġrequ":3171,"US":3172,"ĠIs":3173,"Ġess":3174,"Ġx":3175,"Ġreproduc":3176,"ĠMedic":3177,"EP":3178,"ble":3179,"Ġupd":3180,"orph":3181,"Ġgu":3182,"eration":3183,"Ġ21":3184,"Ġdamage":3185,"Ġtumors":3186,"ril":3187,"ethyl":3188,"Ġauthor":3189,"ancer":3190,"Ġobes":3191,"Ġviral":3192,"Ġadolesc":3193,"ĠHB":3194,"Ġupon":3195,"CS":3196,"Ġbro":3197,"apa":3198,"Ġ\\":3199,"vant":3200,"Ġrecord":3201,"hel":3202,"NF":3203,"Ġstrategies":3204,"ipher":3205,"Ġnerve":3206,"viral":3207,"ounds":3208,"Ġexercise":3209,"Ġinser":3210,"iness":3211,"Ġtechnique":3212,"Ġfunctional":3213,"ĠAD":3214,"ĠSer":3215,"Ġmeth":3216,"Ġprotoc":3217,"Ġsubgroup":3218,"Ġtoler":3219,"Ġ90":3220,"ĠâĨ":3221,"Ġdouble":3222,"Ġresection":3223,"enia":3224,"asal":3225,"ĠWiki":3226,"Ġdegree":3227,"Doc":3228,"Ġphosph":3229,"90":3230,"Ġthyroid":3231,"Ġadjust":3232,"ĠCol":3233,"Ġangi":3234,"plas":3235,"Ġinterp":3236,"positive":3237,"Ġregular":3238,"Ġenh":3239,"Ġamount":3240,"ending":3241,"Ġprograms":3242,"ĠStudies":3243,"Ġsamples":3244,"Ġcontent":3245,"OS":3246,"ense":3247,"uter":3248,"Ġphysician":3249,"intestinal":3250,"Ġcurrently":3251,"Ġcontaining":3252,"Ġow":3253,"Ġ80":3254,"Ġcoll":3255,"ĠAssess":3256,"pite":3257,"nai":3258,"hest":3259,"Ġdetected":3260,"years":3261,"Ġstructure":3262,"65":3263,"Ġvary":3264,"Ġrang":3265,"Ġventi":3266,"NS":3267,"ĠPe":3268,"Ġvisual":3269,"bre":3270,"Ġtool":3271,"Ġmaternal":3272,"33":3273,"Ġcolon":3274,"Ġtechniques":3275,"ternal":3276,"Ġindependent":3277,"esthes":3278,"Ġdetection":3279,"Ġtwice":3280,"ĠWikiDoc":3281,"Ġconsum":3282,"ĠMedical":3283,"Ġcr":3284,"Ġsmoking":3285,"ĠNew":3286,"Ġsubsequent":3287,"hyth":3288,"Ġdysfunction":3289,"ier":3290,"rup":3291,"Ġcortic":3292,"Ġway":3293,"Ġcontrols":3294,"Ġdetect":3295,"Ġepis":3296,"roc":3297,"\".":3298,"Ġstren":3299,"Ġfeatures":3300,"encies":3301,"ercul":3302,"Ġmaking":3303,"Ġprophylaxis":3304,"Ġknowledge":3305,"Ġprovides":3306,"ĠPer":3307,"Ġcontains":3308,"istry":3309,"Ġinfected":3310,"raz":3311,"Ġstud":3312,"Ġaden":3313,"Ġinjec":3314,"Ġvag":3315,"Ġelderly":3316,"ervical":3317,"Ġbreat":3318,"Ġabsor":3319,"ifest":3320,"cutaneous":3321,"ximab":3322,"adder":3323,"be":3324,"Ġthird":3325,"sc":3326,"oman":3327,"utive":3328,"Ġroom":3329,"MA":3330,"Ġcarri":3331,"IT":3332,"Ġscan":3333,"Ġnational":3334,"Ġstrand":3335,"ners":3336,"ream":3337,"ĠIndications":3338,"Ġmeans":3339,"Ġdevice":3340,"back":3341,"Ġpass":3342,"Ġimmediately":3343,"Ġecon":3344,"els":3345,"dies":3346,"ems":3347,"arri":3348,"Ġunknown":3349,"Ġmaintenance":3350,"Ġtechnology":3351,"Ġcereb":3352,"xi":3353,"Ġsulf":3354,"ĠDep":3355,"Ġothers":3356,"ouse":3357,"Ġdirectly":3358,"Ġ27":3359,"Ġinfluence":3360,"Ġspecim":3361,"Ġmyocardial":3362,"Ġasth":3363,"aches":3364,"active":3365,"ĠDise":3366,"Ġpractic":3367,"itable":3368,"Ġfetal":3369,"iversity":3370,"Ġsa":3371,"allen":3372,"Ġbeli":3373,"Ġdefec":3374,"Ġventricular":3375,"Ġhydroch":3376,"ister":3377,"ĠIII":3378,"includ":3379,"ognitive":3380,"Ġexcess":3381,"ĠDuring":3382,"ipheral":3383,"work":3384,"ĠEng":3385,"Ġ48":3386,"umb":3387,"Ġforms":3388,"Ġundergoing":3389,"UC":3390,"overy":3391,"Ġsource":3392,"ĠICER":3393,"Ġparameters":3394,"Ġprospective":3395,"last":3396,"ociety":3397,"ĠSub":3398,"aring":3399,"Ġvascular":3400,"Ġproblem":3401,"34":3402,"Ġanimals":3403,"idine":3404,"Ġvia":3405,"Ġsusceptib":3406,"ĠSup":3407,"Ġestimates":3408,"MS":3409,"Ġtreating":3410,"Ġdosing":3411,"clus":3412,"Ġinsu":3413,"DG":3414,"arning":3415,"Ġwhom":3416,"sel":3417,"ĠStudy":3418,"Ġcreat":3419,"rais":3420,"Ġfracture":3421,"Ġlog":3422,"Ġneon":3423,"ĠImmun":3424,"Ġ29":3425,"Ġinstit":3426,"ĠCent":3427,"time":3428,"Ġsurvey":3429,"thal":3430,"Ġ36":3431,"Ġwhose":3432,"Ġlate":3433,"side":3434,"Ġproduction":3435,"Ġproduce":3436,"Ġhaz":3437,"Ġthus":3438,"Ġtend":3439,"Ġweak":3440,"ecutive":3441,"Ġmajority":3442,"ION":3443,"Ġtested":3444,"Ġenzyme":3445,"ĠPregnancy":3446,"Ġachieved":3447,"Ġquan":3448,"bial":3449,"Ġagent":3450,"ulate":3451,"ME":3452,"Ġrespect":3453,"Ġenti":3454,"Ġdiarr":3455,"hyd":3456,"Ġindicate":3457,"Ġadolescents":3458,"specific":3459,"Ġbeta":3460,"Ġregression":3461,"Ġliving":3462,"Ġmuc":3463,"ventional":3464,"including":3465,"iological":3466,"ĠInformation":3467,"lox":3468,"ĠQALY":3469,"Ġsurveillance":3470,"Ġcorticoster":3471,"ipment":3472,"atives":3473,"itals":3474,"Ġultrasound":3475,"Ġextre":3476,"tition":3477,"Ġunit":3478,"Ġexperim":3479,"Ġexperienced":3480,"requency":3481,"xt":3482,"Ġsuggests":3483,"Ġhaem":3484,"Ġfield":3485,"Ġcop":3486,"ĠTwo":3487,"Ġinterest":3488,"Ġvaccines":3489,"Ġservice":3490,"analysis":3491,"Ġsites":3492,"bodies":3493,"hydro":3494,"Ġdiscussed":3495,"section":3496,"37":3497,"xiety":3498,"Ġprofessional":3499,"Ġ198":3500,"met":3501,"PE":3502,"Ġhazard":3503,"Ġstrain":3504,"ider":3505,"ella":3506,"ĠPost":3507,"Ġgender":3508,"Ġpref":3509,"Ġantibiotics":3510,"Ġpharmacokine":3511,"rag":3512,"refer":3513,"Ġexamined":3514,"38":3515,"Ġ65":3516,"aling":3517,"Ġreve":3518,"ĠWhat":3519,"ulted":3520,"Ġpromo":3521,"Ġphysicians":3522,"Ġann":3523,"Ġcalcium":3524,"apse":3525,"cers":3526,"erculosis":3527,"Ġinteg":3528,"ars":3529,"Ġleuk":3530,"Ġestimate":3531,"Ġcritical":3532,"arrow":3533,"Ġrepair":3534,"Ġunc":3535,"Ġasthma":3536,"ĠUs":3537,"ĠAT":3538,"Ġconcomitant":3539,"ĠData":3540,"terol":3541,"ĠImp":3542,"Ġstrategy":3543,"Ġstep":3544,"Ġ22":3545,"inant":3546,"ĠChild":3547,"aired":3548,"plate":3549,"Ġdil":3550,"Ġdr":3551,"ton":3552,"infected":3553,"Ġequi":3554,"Ġable":3555,"Ġcollected":3556,"inations":3557,"rs":3558,"Ġacet":3559,"Ġmill":3560,"Ġselected":3561,"Ġpack":3562,"Ġdisch":3563,"ensitivity":3564,"Ã©":3565,"Ġwhite":3566,"des":3567,"CL":3568,"ĠPhys":3569,"ĠAdministration":3570,"Ġreplacement":3571,"Ġelim":3572,"Ġeas":3573,"Ġnor":3574,"Ġcm":3575,"odyn":3576,"Ġsurge":3577,"Ġname":3578,"ĠIg":3579,"Ġcomm":3580,"49":3581,"ĠStr":3582,"Ġseiz":3583,"Ġ75":3584,"Ġculture":3585,"Ġprofessionals":3586,"Ġpotentially":3587,"ĠEffec":3588,"Ġvar":3589,"Ġabnormalities":3590,"Ġclearance":3591,"fully":3592,"Ġcontrain":3593,"Ġdivid":3594,"Ġdifferenti":3595,"Ġantibiotic":3596,"Ġremains":3597,"Ġschool":3598,"bs":3599,"Ġmolecular":3600,"Ġoptions":3601,"Ġ70":3602,"Ġworking":3603,"Ġquestions":3604,"48":3605,"sis":3606,"ĠDes":3607,"Ġshe":3608,"Ġplate":3609,"oh":3610,"IS":3611,"ĠAssoci":3612,"ori":3613,"Ġax":3614,"ogenic":3615,"ave":3616,"Ġanimal":3617,"Ġbu":3618,"Ġtransplantation":3619,"rent":3620,"Ġdeficiency":3621,"imer":3622,"Ġwhereas":3623,"Ġissues":3624,"esthesia":3625,"Ġdescrib":3626,"Ġmonth":3627,"ĠRecommendations":3628,"Ġregimens":3629,"Ġinst":3630,"Ġprinc":3631,"ĠSystem":3632,"ĠPar":3633,"ophil":3634,"oscopic":3635,"Ġessential":3636,"gens":3637,"Ġcenter":3638,"ĠWhile":3639,"ĠEp":3640,"}.":3641,"Ġfamil":3642,"Ġaspir":3643,"Ġchoice":3644,"Ġamin":3645,"Ġaddress":3646,"Ġcatheter":3647,"cg":3648,"Ġrequires":3649,"Ġcontracep":3650,"ovir":3651,"Ġmilk":3652,"Ġreducing":3653,"Ġcry":3654,"Ġfuture":3655,"Ġfer":3656,"activ":3657,"Ġ45":3658,"erences":3659,"months":3660,"uria":3661,"Ġunits":3662,"raisal":3663,"omiting":3664,"Ġbacteria":3665,"Ġauthors":3666,"ospitals":3667,"Ġopi":3668,"mark":3669,"Ġantibody":3670,"Ġsometimes":3671,"Ġtypically":3672,"RS":3673,"ience":3674,"AP":3675,"Ġbur":3676,"46":3677,"CP":3678,"right":3679,"ective":3680,"acts":3681,"ĠRNA":3682,"Ġeng":3683,"Ġequipment":3684,"Ġlapa":3685,"Ġstates":3686,"otype":3687,"ĠFamily":3688,"Ġinteraction":3689,"Ġworld":3690,"ĠExper":3691,"trans":3692,"ulatory":3693,"ories":3694,"Ġov":3695,"Ġretrospective":3696,"Ġoption":3697,"Ġnet":3698,"ank":3699,"39":3700,"Ġreporting":3701,"ump":3702,"Ġexce":3703,"Ġbinding":3704,"Ġbacterial":3705,"mal":3706,"clusion":3707,"Ġslow":3708,"Ġexpert":3709,"Ġfrequent":3710,"ients":3711,"Ġang":3712,"ĠCont":3713,"Ġsequence":3714,"ĠFollow":3715,"Ġ500":3716,"herence":3717,"ĠTrans":3718,"life":3719,"Ġdig":3720,"Ġrestric":3721,"ĠSurg":3722,"Ġvitro":3723,"Ġyounger":3724,"Ġprostate":3725,"Ġbehavior":3726,"Ġcolo":3727,"ĠInf":3728,"Ġartic":3729,"Ġmac":3730,"uls":3731,"ĠAssessment":3732,"Ġcervical":3733,"ĠMore":3734,"Ġprotection":3735,"Ġperipheral":3736,"Ġimportance":3737,"ock":3738,"mptomatic":3739,"Ġgenes":3740,"Ġchallen":3741,"most":3742,"ĠAND":3743,"Ġmales":3744,"ĠRisk":3745,"rid":3746,"acity":3747,"ĠDec":3748,"Ġimplementation":3749,"Ġalong":3750,"Ġmorbidity":3751,"Ġhere":3752,"Ġbron":3753,"draw":3754,"Ġreferred":3755,"Ġvess":3756,"no":3757,"inine":3758,"mentation":3759,"ĠâĢĵ":3760,"Ġsched":3761,"Ġelevated":3762,"ausea":3763,"Does":3764,"Ġthor":3765,"Ġenvironment":3766,"table":3767,"itary":3768,"actic":3769,"Ġvitamin":3770,"Ġnumb":3771,"Ġcontext":3772,"Ġextent":3773,"Ġgrade":3774,"Ġmembrane":3775,"itu":3776,"arian":3777,"Ġintern":3778,"ĠEm":3779,"Ġnatural":3780,"aled":3781,"ulating":3782,"Ġpractices":3783,"Ġeconomic":3784,"Ġneck":3785,"referred":3786,"Ġmes":3787,"Ġgained":3788,"Ġspe":3789,"Ġcontinue":3790,"otor":3791,"ze":3792,"Ġnit":3793,"icrobial":3794,"Ġclassified":3795,"Ġtransfer":3796,"Ġexcre":3797,"igure":3798,"Ġrelatively":3799,"Ġask":3800,"wh":3801,"ĠMul":3802,"Ġpor":3803,"ords":3804,"ĠPl":3805,"MR":3806,"Ġprepar":3807,"Ġconst":3808,"Ġmcg":3809,"AG":3810,"plications":3811,"Ġappears":3812,"iring":3813,"Ġcarbon":3814,"Ġischem":3815,"Ġiron":3816,"Ġlist":3817,"ets":3818,"Ġresponses":3819,"Ġunderlying":3820,"Ġneurolog":3821,"Ġtoward":3822,"Ġtit":3823,"Ġquestionnai":3824,"enal":3825,"abine":3826,"Ġresulted":3827,"feeding":3828,"oxide":3829,"Ġcaps":3830,"itus":3831,"loxacin":3832,"Ġharm":3833,"Ġproviding":3834,"Ġantibodies":3835,"Ġenrol":3836,"Ġmel":3837,"Ġmechanism":3838,"Ġeducational":3839,"onazole":3840,"Ġutility":3841,"Ġmiss":3842,"99":3843,"DL":3844,"Ġconsequ":3845,"Ġhydrochloride":3846,"Ġwall":3847,"nia":3848,"Ġdetails":3849,"Ġdri":3850,"Ġ/":3851,"Ġcomponents":3852,"Ġpreferred":3853,"Ġste":3854,"Ġapproved":3855,"Ġcheck":3856,"Ġvomiting":3857,"Ġ37":3858,"Ġure":3859,"Ġcognitive":3860,"44":3861,"Ġhormone":3862,"Ġnow":3863,"Ġnursing":3864,"RO":3865,"LE":3866,"duced":3867,"Ġformation":3868,"ĠMR":3869,"Ġdat":3870,"Ġpolym":3871,"32":3872,"ina":3873,"Ġfacilities":3874,"Ġcompleted":3875,"Ġleading":3876,"Ġcontinuous":3877,"Ġinhal":3878,"ĠLabor":3879,"Ġgastrointestinal":3880,"Ġantim":3881,"icit":3882,"ĠHep":3883,"autions":3884,"ustral":3885,"Ġheadache":3886,"Ġ38":3887,"ching":3888,"hout":3889,"Ġ&":3890,"Ġanxiety":3891,"Ġcorrelation":3892,"Ġintake":3893,"Ġstudents":3894,"Ġanalyzed":3895,"ĠSim":3896,"PS":3897,"ĠPatient":3898,"Ġintroduc":3899,"ned":3900,"Ġalways":3901,"Ġpol":3902,"orage":3903,"Ġmeasurement":3904,"Ġrecurrent":3905,"31":3906,"Ġvariables":3907,"version":3908,"Ġcycle":3909,"son":3910,"Ġagree":3911,"Ġmeeting":3912,"azep":3913,"Ġchromos":3914,"Ġtherapies":3915,"ĠAf":3916,"ĠPreferred":3917,"Ġmis":3918,"Ġgest":3919,"47":3920,"ĠBe":3921,"Ġfo":3922,"ĠCa":3923,"Ġsymptomatic":3924,"arction":3925,"Ġrecip":3926,"Ġprescribed":3927,"que":3928,"ands":3929,"Ġlat":3930,"Ġmutation":3931,"ĠIntern":3932,"Ġwoman":3933,"owel":3934,"effectiveness":3935,"Ġconventional":3936,"Ġpreoperative":3937,"Ġgas":3938,"55":3939,"ada":3940,"ĠSur":3941,"Ġhighest":3942,"Ġlarger":3943,"ilateral":3944,"ids":3945,"ged":3946,"Ġvolun":3947,"arin":3948,"amination":3949,"Ġemploy":3950,"Ġinvasive":3951,"Ġmice":3952,"Ġinjuries":3953,"Ġlittle":3954,"Ġey":3955,"Ġassay":3956,"TE":3957,"ude":3958,"Ġmig":3959,"uscular":3960,"MD":3961,"Ġful":3962,"ias":3963,"Ġbehaviour":3964,"asion":3965,"Ġhom":3966,"Ġsynt":3967,"Ġhospitals":3968,"gue":3969,"Ġinvolvement":3970,"Ġery":3971,".)":3972,"oag":3973,"pared":3974,"ĠHow":3975,"Ġtuberculosis":3976,"cemia":3977,"SD":3978,"ochem":3979,"lim":3980,"Ġfav":3981,"orrhage":3982,"inus":3983,"earch":3984,"AB":3985,"Ġstable":3986,"Ġappraisal":3987,"Ġfinal":3988,"ibr":3989,"Ġinflammatory":3990,"Ġwithdraw":3991,"Ġjoint":3992,"portive":3993,"Ġsufficient":3994,"Ġpanel":3995,"Ġpel":3996,"Ġreference":3997,"Ġpurpose":3998,"ĠAustral":3999,"Ġdecisions":4000,"feron":4001,"Ġmutations":4002,"rected":4003,"ĠPers":4004,"Ġcapacity":4005,"ĠCancer":4006,"yle":4007,"Ġwidely":4008,"ĠAmong":4009,"Ġmit":4010,"ĠAdv":4011,"Ġgastric":4012,"ĠRet":4013,"Ġwrit":4014,"Ġattem":4015,"Ġdivided":4016,"Ġpredictive":4017,"rectal":4018,"Ġcomponent":4019,"ĠAdverse":4020,"Ġexternal":4021,"oz":4022,"ĠSociety":4023,"ĠSec":4024,"Ġspecificity":4025,"Ġaccuracy":4026,"Ġprov":4027,"pan":4028,"ĠCare":4029,"ĠAL":4030,"romised":4031,"Ġphot":4032,"radi":4033,"ire":4034,"Ġdevices":4035,"ymptomatic":4036,"ĠUniversity":4037,"Ġnorm":4038,"otic":4039,"Ġtoxic":4040,"ĠRE":4041,"Ġinflammation":4042,"ĠAR":4043,"Ġstart":4044,"Ġmetabolic":4045,"Ġoptimal":4046,"position":4047,"Ġplay":4048,"agon":4049,"Ġglob":4050,"Ġdepending":4051,"Ġpathway":4052,"uvant":4053,"ĠNor":4054,"ĠClass":4055,"Ġmeasurements":4056,"Ġnausea":4057,"mes":4058,"Ġspinal":4059,"illary":4060,"ociated":4061,"Ġcalculated":4062,"Ġorigin":4063,"rex":4064,"month":4065,"Ġselection":4066,"77":4067,"Ġpersonal":4068,"Ġprimarily":4069,"Ġstarting":4070,"edic":4071,"Ġparents":4072,"ights":4073,"Ġgain":4074,"Ġcut":4075,"Ġprolonged":4076,"Ġdim":4077,"mm":4078,"ughout":4079,"TC":4080,"Ġhemat":4081,"lit":4082,"Ġinfant":4083,"ĠAg":4084,"sp":4085,"ises":4086,"Ġlic":4087,"Ġkg":4088,"Ġheter":4089,"Ġventilation":4090,"hetic":4091,"Ġmonit":4092,"ĠIndi":4093,"ched":4094,"68":4095,"born":4096,"istant":4097,"umin":4098,"hers":4099,"lear":4100,"Ġbot":4101,"Ġshows":4102,"Ġexist":4103,"adj":4104,"ĠRCT":4105,"Ġdiscussion":4106,"Ġinitiation":4107,"ĠPediatric":4108,"Ġsatis":4109,"Ġlympho":4110,"Ġmetastatic":4111,"Ġsuitable":4112,"Ġrecovery":4113,"Ġcontinued":4114,"Ġintended":4115,"heum":4116,"Ġoffer":4117,"entific":4118,"Ġdeaths":4119,"Ġscale":4120,"ĠMD":4121,"Ġnode":4122,"67":4123,"Ġelectro":4124,"Co":4125,"by":4126,"tives":4127,"Ġstay":4128,"Ġulcer":4129,"quired":4130,"gu":4131,"ĠGuidelines":4132,"ervous":4133,"Ġsimple":4134,"ĠMany":4135,"Ġimplant":4136,"Ġown":4137,"ocal":4138,"phosph":4139,"ologists":4140,"Ġpoints":4141,"Ġclean":4142,"Ġconj":4143,"iop":4144,"part":4145,"Ġcomparing":4146,"ĠEvalu":4147,"OL":4148,"inf":4149,"Ġreal":4150,"ocomp":4151,"ĠCardi":4152,"bor":4153,"Ġvalve":4154,"ophage":4155,"ct":4156,"ĠThus":4157,"Ġsources":4158,"Ġnod":4159,"Ġwhole":4160,"Ġvas":4161,"Ġfeas":4162,"HC":4163,"cal":4164,"aces":4165,"Ġfractures":4166,"Ġoriginal":4167,"ĠCDC":4168,"Ġbiological":4169,"Ġlaw":4170,"Ġderi":4171,"Ġdiarrhea":4172,"portun":4173,"Ġimage":4174,"Ġold":4175,"ident":4176,"Ġinvolving":4177,"Ġfall":4178,"Ġprognosis":4179,"oform":4180,"ened":4181,"rest":4182,"Ġprop":4183,"Ġminor":4184,"Ġnature":4185,"break":4186,"upp":4187,"Ġstrength":4188,"Ġapproaches":4189,"Ġmouth":4190,"ogly":4191,"Ġload":4192,"arent":4193,"Ġhepat":4194,"Ġviol":4195,"ĠCR":4196,"Ġapplication":4197,"Ġtranscription":4198,"omer":4199,"Ġwound":4200,"Ġintrac":4201,"Ġadvice":4202,"Ġconcerns":4203,"Ġinfectious":4204,"HA":4205,"Ġinternal":4206,"ariate":4207,"Ġutil":4208,"associated":4209,"Ġpal":4210,"itions":4211,"Guid":4212,"Ġaortic":4213,"ĠCommon":4214,"Ġvenous":4215,"Ġprocesses":4216,"Ġdelayed":4217,"ophageal":4218,"asons":4219,"Ġthought":4220,"Ġbowel":4221,"Ġperce":4222,"ĠSince":4223,"rep":4224,"ĠGra":4225,"used":4226,"Ġinfarction":4227,"Ġneph":4228,"ED":4229,"Ġthres":4230,"ypes":4231,"Ġconsultation":4232,"Ġmaintain":4233,"ĠAfric":4234,"Ġshor":4235,"ifically":4236,"Ġchlor":4237,"ĠMe":4238,"Ġdrink":4239,"Ch":4240,"take":4241,"Ġnumbers":4242,"Ġdesigned":4243,"Ġbed":4244,"ĠLo":4245,"ellow":4246,"Ġthroughout":4247,"Ġfin":4248,"Ġface":4249,"angu":4250,"erb":4251,"Ġfemales":4252,"Ġreturn":4253,")-":4254,"rated":4255,"Ġslight":4256,"play":4257,"Ġbab":4258,"Ġepidem":4259,"ĠSymptom":4260,"LA":4261,"ercial":4262,"sor":4263,"hens":4264,"Ġantimicrobial":4265,"Ġbelie":4266,"romycin":4267,"gl":4268,"Ġexc":4269,"78":4270,"habil":4271,"Ġintensive":4272,"aria":4273,"Ġant":4274,"Ġsupportive":4275,"BC":4276,"Ġheat":4277,"Ġfacilit":4278,"yte":4279,"ategory":4280,"96":4281,"Ġoccup":4282,"HR":4283,"ĠPM":4284,"induced":4285,"Ġresponsible":4286,"ĠâĨĳ":4287,"PT":4288,"Ġuter":4289,"ĠMonitoring":4290,"Ġproposed":4291,"cardi":4292,"Ġrib":4293,"Ġbladder":4294,"Ġreviews":4295,"Ġcontraindic":4296,"Ġobesity":4297,"Ġcompare":4298,"ime":4299,"dle":4300,"osa":4301,"Ġspace":4302,"Ġreach":4303,"ĠAcc":4304,"Ġconsecutive":4305,"ĠSyn":4306,"Ġanterior":4307,"BP":4308,"ĠOb":4309,"ptions":4310,"more":4311,"urb":4312,"Ġdischarge":4313,"%;":4314,"ta":4315,"orts":4316,"Ġmedi":4317,"Ġlesion":4318,"ĠART":4319,"ĠRep":4320,"42":4321,"Ġantigen":4322,"Ġrepeated":4323,"Ġrelease":4324,"ococcal":4325,"Ġcarried":4326,"Ġvein":4327,"Ġattack":4328,"Ġtravel":4329,"ready":4330,"Ġuses":4331,"Ġpy":4332,"off":4333,"Ġobjective":4334,"type":4335,"Ġminimum":4336,"Ġimmediate":4337,"ĠResearch":4338,"Ġpsychological":4339,"ĠBoth":4340,"Ġ2007":4341,"Ġpeak":4342,"Ġinvestigated":4343,"bility":4344,"onding":4345,"Ġattrib":4346,"ĠDiff":4347,"oin":4348,"Ġbegin":4349,"lam":4350,"Ġopportun":4351,"aine":4352,"Ġderm":4353,"Ġuns":4354,"Ġcharacterized":4355,"itone":4356,"antial":4357,"EC":4358,"Ġencour":4359,"Ġimages":4360,"Ġadherence":4361,"ĠMA":4362,"Ġdrain":4363,"Ġmonitored":4364,"Ġtube":4365,"ĠEach":4366,"Ġarthritis":4367,"Ġtrig":4368,"Ġpolicy":4369,"Ġreflec":4370,"ĠEuropean":4371,"teb":4372,"Ġdefinition":4373,"Ġrecorded":4374,"arth":4375,"Ġoffered":4376,"Ġasymptomatic":4377,"Ġsummary":4378,"immun":4379,"73":4380,"ĠAUC":4381,"Ġachieve":4382,"Ġearli":4383,"Ġtumour":4384,"Ġele":4385,"habilitation":4386,"Ġalready":4387,"Ġbox":4388,"Ġtoget":4389,"Ġtogether":4390,"Ġtissues":4391,"ĠPat":4392,"Ġide":4393,"Ġstopp":4394,"Ġinstr":4395,"treatment":4396,"Ġvaginal":4397,"ighted":4398,"Guideline":4399,"Ġgive":4400,"Ġincor":4401,"such":4402,"negative":4403,"lesterol":4404,"ats":4405,"ror":4406,"Ġexisting":4407,"Ġ2006":4408,"Ġarterial":4409,"Ġderived":4410,"Ġequal":4411,"raction":4412,"ounts":4413,"Ġfamilies":4414,"athic":4415,"rox":4416,"unding":4417,"mb":4418,"ĠHistory":4419,"TA":4420,"ern":4421,"Ġspecialist":4422,"Ġneur":4423,"Ġairway":4424,"asone":4425,"loid":4426,"ĠRecommendation":4427,"Ġpast":4428,"Ġpreventing":4429,"Ġadded":4430,"Ġconsideration":4431,"Ġtell":4432,"Ġbroad":4433,"Ġoutside":4434,"Ġclo":4435,"Ġpractition":4436,"Ġclassification":4437,"Ġsuff":4438,"izations":4439,"Ġpartners":4440,"Ġcorrect":4441,"vern":4442,"assium":4443,"Ġatrial":4444,"Ġreceptors":4445,"Ġfibrosis":4446,"Ġequivalent":4447,"Ġpercentage":4448,"Ġlocation":4449,"Ġinteractions":4450,"Ġscler":4451,"Ġthick":4452,"Ġsed":4453,"IL":4454,"ĠOur":4455,"Ġprescrib":4456,"oring":4457,"ĠDisease":4458,"Ġaway":4459,"Ġentire":4460,"Ġbarri":4461,"Ġexplained":4462,"rehens":4463,"BG":4464,"ived":4465,"Ġprem":4466,"Ġdiscontinuation":4467,"76":4468,"Ġfetus":4469,"Ġagg":4470,"Ġ39":4471,"Ġsubstance":4472,"genital":4473,"Ġsubject":4474,"Ġtempor":4475,"Ġradiotherapy":4476,"Ġanticoag":4477,"Ġchain":4478,"Ġinduction":4479,"Ġlymphoma":4480,"Ġcorresp":4481,"ancies":4482,"Ġlik":4483,"Ġsuic":4484,"oute":4485,"ardia":4486,"izes":4487,"Ġpen":4488,"Ġten":4489,"aemia":4490,"ĠIL":4491,"Ġsearch":4492,"Ġjud":4493,"Ġreferral":4494,"Ġreflect":4495,"Ġpap":4496,"enari":4497,"bal":4498,"59":4499,"Ġsuperior":4500,"ĠPD":4501,"Ġmetabolism":4502,"minister":4503,"ĠInfec":4504,"Ġbronch":4505,"stances":4506,"nea":4507,"Ġsoft":4508,"plan":4509,"Ġlooking":4510,"Ġfeel":4511,"Ġfully":4512,"\",":4513,"ĠCategory":4514,"Ġfluor":4515,"Ġoutbreak":4516,"Ġvariety":4517,"ĠInstit":4518,"osin":4519,"Ġsubstantial":4520,"Ġremoved":4521,"ĠMod":4522,"Ġconn":4523,"Ġenough":4524,"patients":4525,"Ġod":4526,"ying":4527,"ĠPrevention":4528,"ĠBased":4529,"Ġmedicines":4530,"level":4531,"Ġadjustment":4532,"Ġclinicians":4533,"Ġassist":4534,"Ġsoci":4535,"ĠMedicine":4536,"Ġrevealed":4537,"Ġoxid":4538,"ĠAssociation":4539,"ĠCV":4540,"max":4541,"Ġcorticosteroids":4542,"axel":4543,"ĠChildren":4544,"Ġund":4545,"ices":4546,"ĠDevelop":4547,"Frequency":4548,"akes":4549,"EL":4550,"phys":4551,"Duration":4552,"olute":4553,"grade":4554,"ranial":4555,"Ġpathogen":4556,"Ġdry":4557,"Ġadmission":4558,"rophy":4559,"ĠCor":4560,"Route":4561,"Ġ400":4562,"rhosis":4563,"Ġcore":4564,"ĠDosageRoute":4565,"FrequencyDuration":4566,"ĠDosageRouteFrequencyDuration":4567,"enicillin":4568,"Ġtet":4569,"ĠHyp":4570,"Ġliqu":4571,"Ġallergic":4572,"Ġdatab":4573,"Ġsignificance":4574,"Ġcommercial":4575,"Ġquantit":4576,"Ġrequirements":4577,"Â±":4578,"ĠHBV":4579,"Ġskills":4580,"yond":4581,"ĠLi":4582,"Ġprobability":4583,"nee":4584,"wise":4585,"Ġrequiring":4586,"Ġnext":4587,"Ġcomplement":4588,"Ġsensitive":4589,"Ġ2000":4590,"ĠInternational":4591,"Ġget":4592,"III":4593,"Ġcre":4594,"Ġrab":4595,"Ġkin":4596,"ĠEvaluation":4597,"Ġvariable":4598,"Ġuncertainty":4599,"BS":4600,"Ġstandards":4601,"Ġdiscontinued":4602,"âĢĿ":4603,"Ġlocated":4604,"Ġplaced":4605,"Ġmarg":4606,"iaz":4607,"85":4608,"unctions":4609,"illed":4610,"Ġsampl":4611,"onin":4612,"olism":4613,"Ġmillion":4614,"Ġplanning":4615,"hythm":4616,"02":4617,"79":4618,"Ġnervous":4619,"Ġspecimens":4620,"Ġremoval":4621,"Ġmaterials":4622,"Ġ2005":4623,"ĠSymptoms":4624,"Ġrash":4625,"ject":4626,"acic":4627,"Ġexplain":4628,"Ġ33":4629,"fold":4630,"Ġaccom":4631,"Ġthrombo":4632,"Ġspread":4633,"Ġpredicted":4634,"Ġadjusted":4635,"ĠDiagnosis":4636,"Ġalpha":4637,"Ġ34":4638,"Ġcolorectal":4639,"Ġdistal":4640,"Ġattention":4641,"64":4642,"Ġpi":4643,"Ġ32":4644,"Ġstatement":4645,"Ġconsiderations":4646,"enosis":4647,"uman":4648,"try":4649,"seling":4650,"arcin":4651,"ocompromised":4652,"Ġstated":4653,"Ġqual":4654,"ogene":4655,"ensed":4656,"Ġbias":4657,"Ġlaparoscopic":4658,"Ġprotocol":4659,"Ġpower":4660,"Ġexposures":4661,"Ġimpaired":4662,"Ġsusp":4663,"ĠOut":4664,"Ġhip":4665,"blind":4666,"Ġdeb":4667,"atinib":4668,"Ġdocumented":4669,"Ġpatterns":4670,"Ġcomor":4671,"Ġsecre":4672,"SM":4673,"icin":4674,"ersensitivity":4675,"Ġlig":4676,"ĠAlternative":4677,"atigue":4678,"Ġpromote":4679,"Ġextreme":4680,"Ġdate":4681,"Ġleads":4682,"ĠSever":4683,"Ġscientific":4684,"Ġanat":4685,"apt":4686,"Ġexpressed":4687,"RNA":4688,"Ġnetwork":4689,"plasia":4690,"Ġcommunication":4691,"ĠBr":4692,"Ġsituations":4693,"encing":4694,"Ġestablish":4695,"88":4696,"Ġdiame":4697,"FS":4698,"Ġregions":4699,"Ġcreatinine":4700,"Ġcaution":4701,"Ġshall":4702,"ĠJan":4703,"osupp":4704,"Ġisolated":4705,"ycardia":4706,"ĠâĢľ":4707,"Ġabuse":4708,"overed":4709,"Ġdialysis":4710,"lol":4711,"pert":4712,"Ġ31":4713,"Ġneurop":4714,"ester":4715,"Ġtermin":4716,"Ġextrac":4717,"Ġ).":4718,"ĠImpairment":4719,"eti":4720,"Ġexcluded":4721,"Ġinformed":4722,"organ":4723,"ĠPlease":4724,"kele":4725,"etric":4726,"Ġseg":4727,"itinib":4728,"encephal":4729,"elihood":4730,"Ġaer":4731,"Ġpartial":4732,"Ġcarers":4733,"Ġsinus":4734,"Ġrecords":4735,"Ġalmost":4736,"Ġeyes":4737,"ĠAnti":4738,"Ġfram":4739,"ĠNO":4740,"Ġfit":4741,"enter":4742,"retro":4743,"iatric":4744,"Ġprescription":4745,"Ġenvironmental":4746,"Ġinternational":4747,"Ġinvestigate":4748,"53":4749,"Ġstem":4750,"plied":4751,"apan":4752,"Ġadvant":4753,"Ġalter":4754,"Ġpharmacist":4755,"Ġlay":4756,"Ġemo":4757,"Ġrecently":4758,"EN":4759,"with":4760,"Ġcirrhosis":4761,"ĠSaf":4762,"Ġinvestigation":4763,"omycin":4764,"ĪĴ":4765,"igible":4766,"fort":4767,"astatin":4768,"Ġexplo":4769,"po":4770,"Ġyet":4771,"ught":4772,"Ġcongenital":4773,"Ġapply":4774,"Ġisoform":4775,"Ġtransport":4776,"Ġtask":4777,"Ġmetastases":4778,"Ad":4779,"point":4780,"Ġprotective":4781,"Ġmechanisms":4782,"Ġintervals":4783,"los":4784,"openia":4785,"Ġseizures":4786,"Ġdiffer":4787,"Ġdespite":4788,"Ġprognostic":4789,"xy":4790,"Ġconsumption":4791,"Ġprogress":4792,"Ġproperties":4793,"resistant":4794,"Ġmamm":4795,"iplin":4796,"rehensive":4797,"rees":4798,"ĠIC":4799,"Ġcancers":4800,"Ġled":4801,"ĠSh":4802,"Ġbreastfeeding":4803,"Ġblack":4804,"Ġnasal":4805,"ĠHospital":4806,"phy":4807,"Ġextended":4808,"41":4809,"Ġcal":4810,"Ġclos":4811,"Ġtoo":4812,"seud":4813,"Ġquestionnaire":4814,"66":4815,"Ġreasons":4816,"ĠGDG":4817,"MT":4818,"ĠManagement":4819,"vascular":4820,"Ġlikelihood":4821,"Ġrehabilitation":4822,"andemic":4823,"Ġvisits":4824,"Ġproxim":4825,"Ġsoon":4826,"Ġmothers":4827,"72":4828,"Ġacceptable":4829,"Ġedema":4830,"stead":4831,"Ġguide":4832,"Ġbenz":4833,"col":4834,"uz":4835,"acet":4836,"Ġbeyond":4837,"Ġacids":4838,"Ġreproductive":4839,"ii":4840,"ontaneous":4841,"gor":4842,"Ġoperation":4843,"keletal":4844,"ished":4845,"Ġextensive":4846,"ĠAcute":4847,"Ġvial":4848,"disc":4849,"Ġinterview":4850,"Ġrapidly":4851,"ĠPub":4852,"Ġ300":4853,"Ġenrolled":4854,"Ġexpect":4855,"ĠOc":4856,"Ġencod":4857,"oglobin":4858,"Ġbreathing":4859,"43":4860,"Ġactivation":4861,"Ġpac":4862,"mean":4863,"Ġelements":4864,"ĠExperience":4865,"wide":4866,"Ġmonitor":4867,"gly":4868,"pects":4869,"Ġpossibility":4870,"Ġbreak":4871,"Ġfol":4872,"iliary":4873,"idal":4874,"Ġpersonnel":4875,"ĠCanada":4876,"ibly":4877,"ira":4878,"Ġongoing":4879,"Ġidentification":4880,"69":4881,"Ġchol":4882,"rimary":4883,"Ġcircumstances":4884,"eg":4885,"ilep":4886,"Ġdeep":4887,"Ġinvolves":4888,"IP":4889,"udine":4890,"ĠBl":4891,"ĠTri":4892,"Ġspecifically":4893,"Ġscenari":4894,"titis":4895,"Ġpersistent":4896,"ĠEnd":4897,"Ġposterior":4898,"orld":4899,"Ġlisted":4900,"Ġfind":4901,"igned":4902,"annel":4903,"ĠSee":4904,"74":4905,"Ġmening":4906,"Ġcord":4907,"ded":4908,"Ġmotor":4909,"Ġsatisf":4910,"Ġavailability":4911,"ĠFe":4912,"Ġassumed":4913,"Ġanemia":4914,"Ġtom":4915,"illation":4916,"gorith":4917,"Ġsuccessful":4918,"ards":4919,"Ġmainly":4920,"Ġlangu":4921,"\"\"":4922,"Ġmanifest":4923,"current":4924,"erved":4925,"Ġcausing":4926,"aster":4927,"ticular":4928,"Ġcerebral":4929,"Ġanalges":4930,"Ġce":4931,"Ġvisit":4932,"retroviral":4933,"ĠKe":4934,"uary":4935,"idae":4936,"Ġtheory":4937,"ĠConsider":4938,"Ġamino":4939,"orr":4940,"Ġshock":4941,"Ġwritten":4942,"Ġturn":4943,"Ġmalignant":4944,"sub":4945,"Ġhelpful":4946,"Ġhar":4947,"Ġendoscopic":4948,"Ġfast":4949,"oglobulin":4950,"Ġearlier":4951,"Ġneonatal":4952,"GFR":4953,"rept":4954,"ycline":4955,"Ġdensity":4956,"fa":4957,"acerb":4958,"ĠEd":4959,"Ġseparate":4960,"ĠRenal":4961,"Ġopioid":4962,"ĠSte":4963,"Ġusers":4964,"inol":4965,"Ġconsist":4966,"Ġunderstanding":4967,"Ġplant":4968,"Ġstatistical":4969,"Ġmelan":4970,"Ġaltern":4971,"Ġadop":4972,"Ġtrue":4973,"Ġcolor":4974,"Ġobstruction":4975,"dos":4976,"ymes":4977,"Ġcys":4978,"Ġlearning":4979,"Ġcorrelated":4980,"Ġmatter":4981,"Ġstom":4982,"Ġpelvic":4983,"amics":4984,"Ġinfer":4985,"erous":4986,"Ġlact":4987,"Ġagreement":4988,"Ġwithdrawal":4989,"ĠResp":4990,"tile":4991,"Ġmix":4992,"Ġmethyl":4993,"Ġstatements":4994,"ulmonary":4995,"Ġlas":4996,"Ġecho":4997,"ĠGeneral":4998,"Ġmixed":4999,"Ġlive":5000,"Ġindirect":5001,"ĠInjection":5002,"Ġexamine":5003,"ape":5004,"Ġrheum":5005,"Ġseek":5006,"71":5007,"Ġsun":5008,"iasis":5009,"agen":5010,"Ġmedia":5011,"ĠOrgan":5012,"Ġdonor":5013,"au":5014,"Ġfal":5015,"ĠFigure":5016,"ĠTherapy":5017,"oled":5018,"clusive":5019,"Ġinterpret":5020,"ogenesis":5021,"Ġperiods":5022,"Ġ2010":5023,"Ġtren":5024,"Ġcompounds":5025,"Ġirrit":5026,"Ġcollection":5027,"ope":5028,"opic":5029,"Ġfore":5030,"Ġpresentation":5031,"Ġclinic":5032,"98":5033,"Ġhypotension":5034,"ĠAccording":5035,"geal":5036,"Ps":5037,"Ġallows":5038,"tered":5039,"Ġprobably":5040,"Ġvision":5041,"Ġfatigue":5042,"Ġorganisms":5043,"ytic":5044,"Ġdisability":5045,"ĠAG":5046,"03":5047,"Ġneedle":5048,"men":5049,"Ġcoord":5050,"Ġprogressive":5051,"Ġcontraindicated":5052,"dL":5053,"ĠCurrent":5054,"Ġfewer":5055,"Ġprofile":5056,"Ġoccurring":5057,"Ġpharmacokinetics":5058,"ĠMulti":5059,"Ġnear":5060,"obacter":5061,"Ġdietary":5062,"ologist":5063,"Ġaff":5064,"ĠRed":5065,"Ġrelapse":5066,"trum":5067,"ĠMin":5068,"Ġfollows":5069,"Ġgovern":5070,"Ġcompos":5071,"Ġmechanical":5072,"itoneal":5073,"ĠHigh":5074,"Ġupdated":5075,"Ġembry":5076,"Ġmagnetic":5077,"58":5078,"Ġunless":5079,"Ġrandomised":5080,"mediate":5081,"tors":5082,"Ġge":5083,"ĠAdditional":5084,"rot":5085,"Ġapparent":5086,"na":5087,"ĠJapan":5088,"gia":5089,"olid":5090,"Ġunlike":5091,"renal":5092,"pass":5093,"ĠAlso":5094,"Ġincorpor":5095,"62":5096,"rig":5097,"Ġsmo":5098,"Ġindicates":5099,"weight":5100,"ĠIncre":5101,"ĠTA":5102,"Ġsubstit":5103,"Ġrelation":5104,"ĠFurthermore":5105,"Ġcand":5106,"ĠNames":5107,"Ġdepends":5108,"ift":5109,"63":5110,"Ġslightly":5111,"Ġvul":5112,"apted":5113,"ĠOp":5114,"Ġsynthesis":5115,"Ġdiameter":5116,"Ġrecipients":5117,"cript":5118,"zing":5119,"Ġcla":5120,"Ġstent":5121,"ĠOnly":5122,"weeks":5123,"Ġpandemic":5124,"idem":5125,"Ġundergo":5126,"IA":5127,"Ġetc":5128,"Ġintensity":5129,"ARS":5130,"Ġ)":5131,"ubation":5132,"acial":5133,"azine":5134,"atology":5135,"Ġauto":5136,"Ġbalance":5137,"imumab":5138,"ĠUsing":5139,"Ġdefects":5140,"Ġcontribute":5141,"inence":5142,"Ġcomparable":5143,"Ġadvised":5144,"inter":5145,"ĠSecond":5146,"ĠBMI":5147,"la":5148,"pre":5149,"Ġcholesterol":5150,"ert":5151,"Ġfoot":5152,"Ġmove":5153,"ĠHS":5154,"Ġformula":5155,"Ġprogrammes":5156,"ĠpH":5157,"ĠJanuary":5158,"Ġobservational":5159,"TB":5160,"Ġbuild":5161,"Ġindication":5162,"Ġsem":5163,"Ġexacerb":5164,"Ġusual":5165,"phylactic":5166,"Ġconsent":5167,"adequ":5168,"aryngeal":5169,"Ġstrongly":5170,"Ġsmaller":5171,"Ġvariation":5172,"ĠCoun":5173,"Ġincl":5174,"icardi":5175,"ĠFrom":5176,"Ġcarefully":5177,"Ġregardless":5178,"Ġprogramme":5179,"Ġdental":5180,"Ġheard":5181,"natal":5182,"Ġitself":5183,"Ġrad":5184,"Ġspontaneous":5185,"Ġfacility":5186,"Ġpotassium":5187,"Ġion":5188,"Ġarr":5189,"ĠSm":5190,"Ġtablet":5191,"ĠWomen":5192,"Ġalgorith":5193,"onomic":5194,"ĠEngland":5195,"Ġpep":5196,"Ġabsorption":5197,"Ġsqu":5198,"Ġbasic":5199,"Ġstimulation":5200,"Ġepisodes":5201,"Ġinsufficient":5202,"Ġ44":5203,"Ġtools":5204,"Ġassessing":5205,"Ġmolecules":5206,"ining":5207,"Ġburden":5208,"ĠPeople":5209,"phthal":5210,"Ġstrains":5211,"asc":5212,"Ġwors":5213,"ĠPrac":5214,"Ġfunctions":5215,"inate":5216,"vastatin":5217,"otal":5218,"ĠFinding":5219,"89":5220,"ĠDr":5221,"amb":5222,"ĠUSP":5223,"Ġabsolute":5224,"Ġsummar":5225,"ils":5226,"Ġrot":5227,"Ġparticles":5228,"IF":5229,"ĠÃ":5230,"opor":5231,"Ġdiss":5232,"Ġrarely":5233,"Ġstenosis":5234,"gal":5235,"olved":5236,"Ġrevers":5237,"Ġsubcutaneous":5238,"eds":5239,"Ġtrim":5240,"Ġindications":5241,"Ġstructures":5242,"Ġenhance":5243,"Ġthreshold":5244,"omb":5245,"atur":5246,"urance":5247,"Ġdistinc":5248,"Ġsusceptibility":5249,"sm":5250,"Ġsom":5251,"Ġregional":5252,"Ġrecon":5253,"Ġcough":5254,"Ġthrombosis":5255,"rof":5256,"Ġhouse":5257,"Ġdistress":5258,"Ġfibr":5259,"Ġsituation":5260,"Ġlateral":5261,"kal":5262,"imus":5263,"ĠControl":5264,"Ġmaintained":5265,"Ġdependent":5266,"Ġaccurate":5267,"Ġchannel":5268,"Ġpresenting":5269,"Ġshorter":5270,"Ġmodified":5271,"04":5272,"urse":5273,"Ġ2004":5274,"poses":5275,"Ġconflic":5276,"tra":5277,"plete":5278,"ger":5279,"ml":5280,"Ġunclear":5281,"Ġorally":5282,"Ġjust":5283,"Ġimmunosupp":5284,"load":5285,"Ġfatal":5286,",.":5287,"56":5288,"Ġinstruc":5289,"ese":5290,"Ġantagon":5291,"Ġamb":5292,"52":5293,"Ds":5294,"otomy":5295,"Ġalb":5296,"Ġclosely":5297,"ĠAlcohol":5298,"Ġstructural":5299,"ĠRadi":5300,"iplinary":5301,"marketing":5302,"Ġcomprehensive":5303,"Ġextra":5304,"Ġepit":5305,"0001":5306,"containing":5307,"effective":5308,"ĠSurgery":5309,"vis":5310,"Ġaspects":5311,"reen":5312,"Ġfing":5313,"Ġconver":5314,"ĠCH":5315,"Ġpreparation":5316,"Ġket":5317,"Ġplatelet":5318,"undred":5319,"Ġlicensed":5320,"IG":5321,"ivir":5322,"Ġgon":5323,"Ġdifficulty":5324,"ĠPE":5325,"Ġpancreatic":5326,"ĠPr":5327,"Ġdescribe":5328,"Ġwalk":5329,"Ġelement":5330,"Ġinterf":5331,"ĠSeveral":5332,"Ġfeeding":5333,"ĠPot":5334,"tes":5335,"ĠLow":5336,"Ġmarkers":5337,"__":5338,"Ġoccurrence":5339,"Ġmiddle":5340,"ging":5341,"Ġresidents":5342,"Ġcandid":5343,"Ġmeet":5344,"AAA":5345,"Ġstimul":5346,"ĠâĢł":5347,"Ġmultiv":5348,"clinical":5349,"ĠVacc":5350,"ĠLaboratory":5351,"Ġput":5352,"Ġaccep":5353,"erate":5354,"Ġchloride":5355,"ilis":5356,"Ġ42":5357,"background":5358,".#":5359,"Ġrh":5360,"Ġstages":5361,"IDS":5362,"Ġgraft":5363,"ĠSafety":5364,"ĠAv":5365,"PR":5366,"Ġexcreted":5367,"ucture":5368,"Ġaffects":5369,"pat":5370,"Ġalfa":5371,"Ġcover":5372,"acco":5373,"emplate":5374,"Ġreduces":5375,"Ġminimal":5376,"Ġexcept":5377,"ĠInstitute":5378,"Ġspl":5379,"ĠLong":5380,"Ġcav":5381,"Ġple":5382,"ĠFollowing":5383,"86":5384,"Ġsupported":5385,"ĠOverall":5386,"Ġnurses":5387,"ĠFindings":5388,"Ġknee":5389,"Ġbenign":5390,"Ġexact":5391,"Ġviruses":5392,"Ġtransfusion":5393,"Ġrun":5394,"reatening":5395,"Ġforce":5396,"ĠSARS":5397,"Ġ2008":5398,"Ġnewborn":5399,"Ġliquid":5400,"Ġinduced":5401,"Ġexhib":5402,"Ġclearly":5403,"tification":5404,"ĠGCC":5405,"Ġfar":5406,"ĠThree":5407,"ophag":5408,"Ġsil":5409,"box":5410,"ellular":5411,"depress":5412,"Ġ2009":5413,"Ġvariant":5414,"disciplinary":5415,"ĠGene":5416,"iples":5417,"atif":5418,"Ġinstitution":5419,"Ġhearing":5420,"Ġsupply":5421,"54":5422,"Ġmember":5423,"tration":5424,"roscopy":5425,"Ġovarian":5426,"Ġstandardi":5427,"ĠDiagnostic":5428,"Ġcomplication":5429,"Ġverteb":5430,"Ġhyd":5431,"Ġvessels":5432,"61":5433,"ĠPrec":5434,"ĠOral":5435,"ĠDef":5436,"Ġ%":5437,"Ġdepartment":5438,"Ġcurve":5439,"Ġdiabetic":5440,"ĠState":5441,"def":5442,"Ġmovement":5443,"Ġvolunte":5444,"Ġ150":5445,"vate":5446,"RR":5447,"Ġchromosome":5448,"anol":5449,"Ġder":5450,"ĠInc":5451,"ĠĠĠĠĠĠĠĠ":5452,"ventive":5453,"pine":5454,"Ġinadequ":5455,"Ġkeep":5456,"ationale":5457,"ĠRo":5458,"ĠBy":5459,"Ġtransition":5460,"Ġsurro":5461,"SC":5462,"IM":5463,"onavir":5464,"Ġrepeat":5465,"Ġnodes":5466,"Ġremained":5467,"ĠFact":5468,"ĠNot":5469,"Ġobservation":5470,"ĠAp":5471,"ĠTest":5472,"lege":5473,"Ġanesthesia":5474,"Ġpsycho":5475,"Ġstomach":5476,"ĠIN":5477,"<.":5478,"51":5479,"57":5480,"Ġresource":5481,"ush":5482,"Ġpaper":5483,"ĠSw":5484,"Ġneoplas":5485,"Ġadminister":5486,"mod":5487,"une":5488,"Ġstarted":5489,"Ġfalse":5490,"Ġaccepted":5491,"Ġseason":5492,"Ġeight":5493,"ĠâĢĶ":5494,"Ġaspirin":5495,"ĠNote":5496,"Ġpractitioners":5497,"SI":5498,"Ġoverdose":5499,"Ġnutrition":5500,"Ġneurological":5501,"Ġneu":5502,"ique":5503,"ĠRef":5504,"unt":5505,"aced":5506,"ĠEurope":5507,"Ġhemorrhage":5508,"romb":5509,"PC":5510,"posure":5511,"ipp":5512,"ĠStand":5513,"ĠBet":5514,"Ġproximal":5515,"iologic":5516,"ditionally":5517,"ĠTT":5518,"Ġuptake":5519,"Ġsubstanti":5520,"Ġlanguage":5521,"adian":5522,"Ġextr":5523,"opat":5524,"Ġhundred":5525,"tivity":5526,"94":5527,"ĠPrimary":5528,"Ġexcessive":5529,"Ġfibrillation":5530,"Ġorg":5531,"Ġuntreated":5532,"Ġchildhood":5533,"tingu":5534,"oxicity":5535,"ĠBo":5536,"lysis":5537,"Ġremaining":5538,"Ġ43":5539,"Ġsignal":5540,"Ġradio":5541,"Ġmanaged":5542,"ĠResults":5543,"Ġschem":5544,"ĠProg":5545,"Ġdecreases":5546,"ATA":5547,"97":5548,"etal":5549,"Ġgoal":5550,"stim":5551,"Ġoperating":5552,"ĠQT":5553,"Ġmarked":5554,"ĠED":5555,"label":5556,"Ġparts":5557,"Ġcyst":5558,"ractory":5559,"teral":5560,"Ġenter":5561,"Ġhypogly":5562,"Ġcountry":5563,"Ġcomorbid":5564,"earing":5565,"Ġantiretroviral":5566,"osterone":5567,"VA":5568,"93":5569,"miss":5570,"82":5571,"Ġtob":5572,"Ġconstant":5573,"zz":5574,"Ġbound":5575,"Ġden":5576,"Ġhair":5577,"Ġbecomes":5578,"Ġcertainty":5579,"ĠPhysical":5580,"Ġtopical":5581,"aken":5582,"Ġimm":5583,"Ġindepend":5584,"ĠComp":5585,"Ġsolid":5586,"%-":5587,"dix":5588,"Ġmask":5589,"Ġhypersensitivity":5590,"lovir":5591,"Ġflex":5592,"Ġhour":5593,"ĠBlood":5594,"Ġseven":5595,"Ġopin":5596,"Ġperi":5597,"sw":5598,"ee":5599,"Ġther":5600,"Ġpage":5601,"ithromycin":5602,"Ġviolence":5603,"isons":5604,"ĠNS":5605,"Ġpreterm":5606,"Ġfailed":5607,"Ġmem":5608,"Ġenzymes":5609,"PP":5610,"Ġcompletely":5611,"Ġdetailed":5612,"osal":5613,"Ġlines":5614,"roximately":5615,"Ġ2003":5616,"Ġlimitations":5617,"ochemical":5618,"uments":5619,"Ġfund":5620,"Ġmonotherapy":5621,"Ġroutinely":5622,"Ġglobal":5623,"ĠPop":5624,"oxin":5625,"Ġla":5626,"ĠHem":5627,"Ġprincip":5628,"Ġremission":5629,"Ġconsequences":5630,"Ġhospitalization":5631,"clude":5632,"Ġmeaning":5633,"farin":5634,"Ġdemonstrate":5635,"amma":5636,"abilities":5637,"phas":5638,"Ġannual":5639,"odium":5640,"Ġtach":5641,"ww":5642,"ĠID":5643,"ĠPT":5644,"Ġbiom":5645,"CoV":5646,"Ġgran":5647,"Ġaccum":5648,"Ġcryst":5649,"raft":5650,"ĠChronic":5651,"Ġfeed":5652,"Ġlymphoc":5653,"raine":5654,"angi":5655,"Ġec":5656,"Labeled":5657,"Ġnormally":5658,"ls":5659,"92":5660,"endix":5661,"Ġtomography":5662,"liance":5663,"Ġsampling":5664,"Ġdistingu":5665,"usions":5666,"Ġhands":5667,"Ġprotect":5668,"Ġnutritional":5669,"partum":5670,"Ġrule":5671,"Ġcounts":5672,"Ġunderst":5673,"immune":5674,"Ġnames":5675,"Ġ72":5676,"Ġlimb":5677,"ocytes":5678,"ituximab":5679,"Ġperman":5680,"Ġinclusion":5681,"Ġrif":5682,"Ġsch":5683,"Ġmarrow":5684,"Ġlinked":5685,"Ġren":5686,"herit":5687,"Ġaz":5688,"Ġpolicies":5689,"IR":5690,"Ġadjuvant":5691,"Ġeti":5692,"PH":5693,"rough":5694,"Ġanalog":5695,"arged":5696,"ĠGu":5697,"Ġtechnical":5698,"Can":5699,"84":5700,"ilarly":5701,"borne":5702,"Ġnever":5703,"ogram":5704,"Ġinitiated":5705,"ĠECG":5706,"ĠCS":5707,"Ġconstit":5708,"ycho":5709,"Ġinverse":5710,"Ġpredom":5711,"structive":5712,"ecting":5713,"ĠWorld":5714,"Ġhydrogen":5715,"ĠSpecial":5716,"Ġregist":5717,"rolog":5718,"rief":5719,"osing":5720,"ĠPA":5721,"Ġclus":5722,"ĠSuch":5723,"Ġdistance":5724,"ĠGi":5725,"Ġalle":5726,"quality":5727,"ĠLevel":5728,"Ġhypothesis":5729,"Ġschedule":5730,"Ġintermediate":5731,"Ġatom":5732,"Ġfraction":5733,"ired":5734,"Ġclaim":5735,"bu":5736,"adjusted":5737,"ĠSign":5738,"uzumab":5739,"Ġrecru":5740,"utrition":5741,"Ġbypass":5742,"+/-":5743,"Ġfung":5744,"Ġmuscles":5745,"ĠOF":5746,"ĠInteractions":5747,"Ġendomet":5748,"vasive":5749,"avirin":5750,"Ġprescribing":5751,"Ġ|":5752,"ah":5753,"Ġtowards":5754,"udit":5755,"udden":5756,"Ġgenotype":5757,"Ġbul":5758,"Ġrele":5759,"Ġresistant":5760,"83":5761,"Ġprepared":5762,"Ġpathology":5763,"ĠPs":5764,"Ġobtain":5765,"Ġbeneficial":5766,"Ġischemic":5767,"bed":5768,"Ġnone":5769,"Ġdisturb":5770,"Ġoccupational":5771,"bit":5772,"tified":5773,"giene":5774,"Ġ2012":5775,"ochrom":5776,"Ġcharacteristic":5777,"Ġpall":5778,"Ġelimination":5779,"lammatory":5780,"fficiency":5781,"Ġjus":5782,"Ġcompr":5783,"Ġdegrees":5784,"Ġsusceptible":5785,"onance":5786,"Ġpartner":5787,"Ġamounts":5788,"gent":5789,"Ġimproving":5790,"Ġexplan":5791,"sts":5792,"Ġmand":5793,"Ġmakes":5794,"Ġcef":5795,"ethasone":5796,"ML":5797,"Ġresearc":5798,"Ġdatabase":5799,"Ġsuggesting":5800,"ĠQual":5801,"itative":5802,"ĠPo":5803,"Ġlet":5804,"Ġunderstood":5805,"ĠIniti":5806,"Ġantidepress":5807,"ĠAV":5808,"Ġmolecule":5809,"Pediatric":5810,"Ġheight":5811,"Ġfrag":5812,"ĠCaus":5813,"Ġpenicillin":5814,"Ġmetal":5815,"Ġconsidering":5816,"ĠMean":5817,"Ġwhy":5818,"Ġsequences":5819,"Ġ55":5820,"Ġmedium":5821,"Ġsent":5822,"Ġclar":5823,"but":5824,"Ġopp":5825,"Ġunlikely":5826,"ĠHPV":5827,"87":5828,"Ġever":5829,"ĠReactions":5830,"Ġtele":5831,"Ġemploye":5832,"Ġpp":5833,"acting":5834,"ĠWork":5835,"ĠNurs":5836,"ĠDevelopment":5837,"ĠSouth":5838,"tex":5839,"Ġpurposes":5840,"Ġonc":5841,"cious":5842,"Ġmissed":5843,"Ġborn":5844,"Ġrecognized":5845,"ĠSpecific":5846,"Ġcontamin":5847,"ĠâĢİ":5848,"ĠEarly":5849,"Ġpoison":5850,"Ġlipid":5851,"Ġmultic":5852,"Ġfoods":5853,"91":5854,"ervative":5855,"Ġtumours":5856,"Ġosteopor":5857,"Ġweekly":5858,"rist":5859,"ĠAF":5860,"Ġdog":5861,"Ġpossibly":5862,"Ġpublication":5863,"Ġdu":5864,"Ġinitially":5865,"Ġlinear":5866,"Ġswelling":5867,"Ġpsychiatric":5868,"cler":5869,"rotid":5870,"ĠMay":5871,"Ġcenters":5872,"Ġsurgeon":5873,"ĠPET":5874,"ohn":5875,"dosage":5876,"ĠRT":5877,"Ġcoverage":5878,"ĠAnother":5879,"Ġbond":5880,"Ġ250":5881,"platin":5882,"elves":5883,"helial":5884,"Ġlook":5885,"rem":5886,"afen":5887,"celer":5888,"Ġorgans":5889,"Ġagon":5890,"Ġinstead":5891,"Ġotherwise":5892,"Ġstorage":5893,"Ġcategories":5894,"edema":5895,"psis":5896,"urys":5897,"UT":5898,"ĠFin":5899,"Ġortho":5900,"ĠQu":5901,"Ġselective":5902,"Ġtrained":5903,"Ġpreferences":5904,"Ġemotional":5905,"Ġitems":5906,"ĠDisc":5907,"Ġrepresents":5908,"Ġappearance":5909,"allow":5910,"ĠVari":5911,"ATION":5912,"Ġsubstantially":5913,"Ġsuperv":5914,"RAD":5915,"yan":5916,"otrop":5917,"Ġ52":5918,"atch":5919,"ĠFood":5920,"Ġepilep":5921,"SH":5922,"Ġundert":5923,"Ġdistinct":5924,"Ġencephal":5925,"Ġswit":5926,"Ġprotocols":5927,"ĠReview":5928,"ĠEpidem":5929,"them":5930,"Ġtypical":5931,"ĠDepartment":5932,"Ġeligible":5933,"Ġdex":5934,"vered":5935,"udes":5936,"Ġdonors":5937,"KD":5938,"Ġefforts":5939,"Ġsurgeons":5940,"ĠRA":5941,"amed":5942,"ĠGerm":5943,"ĠEffects":5944,"Ġcarry":5945,"Ġclosed":5946,"lux":5947,"Ġng":5948,"tise":5949,"change":5950,"Ġelectron":5951,"ĠDespite":5952,"rad":5953,"Ġviv":5954,"ĠVal":5955,"Ġresidual":5956,"81":5957,"ĠPres":5958,"Ġdecline":5959,"hour":5960,"Ġarms":5961,"Ġprinciples":5962,"Ġcaregi":5963,"ocrine":5964,"ologies":5965,"Ġhernia":5966,"ictim":5967,"Ġnecrosis":5968,"hospital":5969,"Ġduct":5970,"ĠHuman":5971,"trex":5972,"Ġaimed":5973,"lip":5974,"ivered":5975,"Ġechocardi":5976,"itude":5977,"Ġves":5978,"Ġacqu":5979,"eart":5980,"Ġpatholog":5981,"EV":5982,"osomal":5983,"yg":5984,"ĠATT":5985,"Ġacknow":5986,"Cs":5987,"inyl":5988,"Ġdeliver":5989,"Ġsupporting":5990,"cellular":5991,"uled":5992,"Ġthems":5993,"Ġ46":5994,"Ġspecialists":5995,"ĠGrade":5996,"Ġdizz":5997,"ĠLV":5998,"ypical":5999,"Ġformed":6000,"Ġassays":6001,"Ġreached":6002,"arn":6003,"amethasone":6004,"atories":6005,"stolic":6006,"Ġeasily":6007,"Ġthemselves":6008,"Ġsubstr":6009,"Ġfeasible":6010,"ochond":6011,"Ġacquired":6012,"ausal":6013,"orical":6014,"Ġinhibition":6015,"Ġconcurrent":6016,"Ġadmitted":6017,"Ġ2002":6018,"Ġ2001":6019,"ĠÂµ":6020,"ofovir":6021,"Ġpair":6022,"link":6023,"Ġyellow":6024,"ief":6025,"Ġ2011":6026,"Ġresponsibility":6027,"Ġ1000":6028,"Ġflo":6029,"ĠCL":6030,"pers":6031,"Ġfixed":6032,"Ġml":6033,"Ġprovision":6034,"Ġstain":6035,"Ġablation":6036,"ĠMechan":6037,"Ġcapt":6038,"Ġranged":6039,"tip":6040,"Ġweakness":6041,"bl":6042,"Ġexists":6043,"ĠHR":6044,"philis":6045,"cope":6046,"ĠAustralian":6047,"Ġing":6048,"ĠSevere":6049,"Ġquick":6050,"hoe":6051,"Ġhost":6052,"ras":6053,"oler":6054,"Ġyield":6055,"odynamics":6056,"making":6057,"Ġresolution":6058,"ĠIU":6059,"ĠBut":6060,"Ġane":6061,"Ġdysp":6062,"Ġnuclear":6063,"Ġvolunteers":6064,"BD":6065,"Ġcompound":6066,"Ġbackground":6067,"Ġallowed":6068,"Ġdraw":6069,"infection":6070,"opausal":6071,"Ġfertility":6072,"med":6073,"Ġinvolve":6074,"BT":6075,"Ġcompliance":6076,"ĠImages":6077,"semin":6078,"Ġmarketing":6079,"Ġrelationships":6080,"Ġsubt":6081,"Ġreasonable":6082,"otes":6083,"Ġkinase":6084,"ordance":6085,"Ġresonance":6086,"Ġcann":6087,"esare":6088,"ĠIntra":6089,"Ġreliable":6090,"Ġoil":6091,"ework":6092,"case":6093,"alpha":6094,"Ġpackage":6095,"Ġusage":6096,"Ġpump":6097,"ogenicity":6098,"Ġradical":6099,"Ġevaluating":6100,"Ġodds":6101,"Ġplacement":6102,"Ġexperiences":6103,"Ġsustained":6104,"Ġdied":6105,"Ġrecommends":6106,"Ġcycles":6107,"Ġidentifying":6108,"Ġconcept":6109,"aries":6110,"duction":6111,"plicated":6112,"ellitus":6113,"Ġtobacco":6114,"Ġrelaps":6115,"Ġimpl":6116,"rovers":6117,"ĠMy":6118,"ĠEl":6119,"ĠFour":6120,"Ġhygiene":6121,"aden":6122,"ĠType":6123,"Ġpancreatitis":6124,"formin":6125,"Ġsym":6126,"ript":6127,"Ġgland":6128,"Ġstric":6129,"ĠRel":6130,"Ġoutpatient":6131,"Ġcold":6132,"fl":6133,"aching":6134,"ĠDifferen":6135,"vents":6136,"stage":6137,"Ġtargeted":6138,"Ġspectrum":6139,"efore":6140,"stream":6141,"Ġarteries":6142,"odynamic":6143,"uting":6144,"Ġassociations":6145,"Ġtrache":6146,"Ġratios":6147,"Ġimmunocompromised":6148,"rant":6149,"Ġvictim":6150,"Ġplants":6151,"Ġeryth":6152,"oqu":6153,"Ġsyring":6154,"astro":6155,"Ġcorresponding":6156,"Ġmotion":6157,"mented":6158,"esarean":6159,"ided":6160,"Ġimplications":6161,"Ġdrainage":6162,"Adult":6163,"Ġcod":6164,"cos":6165,"Ġassigned":6166,"ĠCC":6167,"Ġexperimental":6168,"Ġintestinal":6169,"ĠRCTs":6170,"ifications":6171,"Ġconsists":6172,"entia":6173,"Ġphosphate":6174,"amous":6175,"Ġsepsis":6176,"ĠTNF":6177,"ĠYou":6178,"Ġdizziness":6179,"Ġleak":6180,"ĠHA":6181,"Ġdelivered":6182,"Ġtraditional":6183,"ĠHeart":6184,"ĠPrecautions":6185,"nic":6186,"ĠDem":6187,"ournal":6188,"Ġmetastasis":6189,"arcom":6190,"Ġpreventive":6191,"Ġfix":6192,"----":6193,"ĠMultiple":6194,"phen":6195,"ĠUl":6196,"ĠSurve":6197,"oric":6198,"uccess":6199,"Ġformal":6200,"PI":6201,"Ġ$":6202,"Ġbelieved":6203,"ĠShort":6204,"Ġcomputer":6205,"Ġstandardized":6206,"Ġtiming":6207,"Ġrevised":6208,"ologically":6209,"Ġchanged":6210,"Ġwarfarin":6211,"ĠDM":6212,"Ġissue":6213,"ury":6214,"chang":6215,"razole":6216,"Ġdirected":6217,"Ġacceler":6218,"Ġseems":6219,"Ġinterferon":6220,"ĠCOPD":6221,"flow":6222,"ends":6223,"lined":6224,"odialysis":6225,"Ġlea":6226,"ometric":6227,"Ġprecautions":6228,"ĠFirst":6229,"ultaneous":6230,"ometry":6231,"ĠOS":6232,"Ġsubgroups":6233,"ĠSch":6234,"Ġmicrob":6235,"Ġmelanoma":6236,"Ġactual":6237,"Ġinterpre":6238,"Ġrectal":6239,"Ġphenomen":6240,"gg":6241,"ĠÎ²":6242,"Ġdissection":6243,"aryng":6244,"Ġcategory":6245,"Ġvaries":6246,"perm":6247,"Ġwave":6248,"Ġattemp":6249,"Ġcomparator":6250,"ields":6251,"ĠTTT":6252,"bits":6253,"Ġapplicable":6254,"Ġtransient":6255,"Ġdifferential":6256,"ĠCauses":6257,"Î±":6258,"otide":6259,"osocial":6260,"Ġrup":6261,"Ġswe":6262,"Ġperforming":6263,"Cl":6264,"ĠDerm":6265,"Ġcure":6266,"Ġfacilitate":6267,"Ġ2014":6268,"DS":6269,"iative":6270,"athe":6271,"Ġworse":6272,"Ġrefractory":6273,"Ġpromoter":6274,"SAID":6275,"ocarcin":6276,"ocyte":6277,"Ġsick":6278,"oting":6279,"ocl":6280,"Ġpert":6281,"rous":6282,"Ġages":6283,"Ġspecified":6284,"Ġmigraine":6285,"Ġvivo":6286,"ians":6287,"Ġ2013":6288,"ĠChem":6289,"Ġrituximab":6290,"Ġbile":6291,"ifying":6292,"ĠBP":6293,"uff":6294,"Ġvaccinated":6295,"Ġblind":6296,"ĠGG":6297,"avy":6298,"Ġhealing":6299,"ĠClin":6300,"icient":6301,"ĠMal":6302,"ams":6303,"ĠIns":6304,"sectional":6305,"Ġmellitus":6306,"NO":6307,"Ġprompt":6308,"Ġroot":6309,"ĠCompar":6310,"estern":6311,"Ġmarker":6312,"Ġinsertion":6313,"Ġmanner":6314,"Ġcollabor":6315,"Ġbin":6316,"Ġtransmitted":6317,"Ġhighl":6318,"alled":6319,"Ġabscess":6320,"Ġshowing":6321,"DC":6322,"Ġpathogens":6323,"Ġonline":6324,"ĠDel":6325,"Ġinterpretation":6326,"Ġremove":6327,"Ġâī¤":6328,"rium":6329,"nis":6330,"osine":6331,"Ġstratif":6332,"Ġsteps":6333,"ervation":6334,"illing":6335,"Ġasked":6336,"Ġnons":6337,"Ġsmok":6338,"Ġsudden":6339,"Ġpersist":6340,"ady":6341,"Ġdrop":6342,"Ġrub":6343,"ather":6344,"ĠEff":6345,"Ġcellular":6346,"...":6347,"Ġpolymer":6348,"Ġvariability":6349,"Ġrefers":6350,"ĠProt":6351,"atoid":6352,"Ġgenital":6353,"Ġarticle":6354,"Ġavoided":6355,"atosis":6356,"DM":6357,"threatening":6358,"ĠGl":6359,"Ġseem":6360,"lets":6361,"drug":6362,"Ġinadequate":6363,"CH":6364,"Ġbecame":6365,"ĠLDL":6366,"Ġindependently":6367,"aste":6368,"Ġversion":6369,"Ġbio":6370,"esthetic":6371,"Ġpharmacokinetic":6372,"Ġmach":6373,"anib":6374,"Ġorganic":6375,"erative":6376,"ĠCNS":6377,"EE":6378,"ĠDecember":6379,"Ġfluids":6380,"Ġimplemented":6381,"RADE":6382,"VR":6383,"Ġorganizations":6384,"Ġarrest":6385,"Ġfron":6386,"aceu":6387,"Ġribavirin":6388,"Ġexaminations":6389,"ĠNorth":6390,"ĠWarning":6391,"ĠSo":6392,"Ġoperative":6393,"Ġ41":6394,"Ġpericardi":6395,"Ġnovel":6396,"ophen":6397,"Ġdrinking":6398,"Ġbaby":6399,"sh":6400,"Ġvariants":6401,"redi":6402,"ĠMo":6403,"omide":6404,"ĠPublic":6405,"after":6406,"ĠTra":6407,"phrine":6408,"initis":6409,"Ġsubstances":6410,"ĠCanadian":6411,"Ġischemia":6412,"state":6413,"PO":6414,"Ġtheore":6415,"Ġrelief":6416,"azol":6417,"ĠCal":6418,"ĠFunction":6419,"Ġmanaging":6420,"ĠDrugs":6421,"ĠComplications":6422,"hob":6423,"Ġlowest":6424,"ulties":6425,"Ġ600":6426,"Ġbeginning":6427,"Ġophthal":6428,"Ġcreated":6429,"aqu":6430,"Ġ(>":6431,"Ġprote":6432,"ĠHepatic":6433,"Ġintroduced":6434,"thing":6435,"oplast":6436,"ifestyle":6437,"inflammatory":6438,"Ġperfusion":6439,"Ġarrange":6440,"Ġexceed":6441,"Ġgestational":6442,"Ġsac":6443,"Ġextension":6444,"Ġpathways":6445,"Ġaneurys":6446,"Ġcholec":6447,"lial":6448,"Ġminimize":6449,"ria":6450,"ĠProvid":6451,"Ġinjections":6452,"Ġbilateral":6453,"ĠProgn":6454,",\"":6455,"Ġdest":6456,"ificant":6457,"Ġmetabolites":6458,"pes":6459,"Ġlob":6460,"where":6461,"place":6462,"Ġobese":6463,"Ġinsufficiency":6464,"ĠES":6465,"force":6466,"test":6467,"Ġaid":6468,"invasive":6469,"armaceu":6470,"existing":6471,"umbar":6472,"ĠAAA":6473,"Ġquantitative":6474,"Ġuro":6475,"iform":6476,"Ġunique":6477,"ophren":6478,"FR":6479,"activity":6480,"ders":6481,"Ġhard":6482,"cemic":6483,"ĠAS":6484,"Ġschiz":6485,"idone":6486,"Ġnurse":6487,"ĠSection":6488,"Ġcomputed":6489,"head":6490,"Ġeating":6491,"Ġspecimen":6492,"ĠAdult":6493,"ĠGGC":6494,"ĠFl":6495,"physiology":6496,"Ġlaser":6497,"Ġretention":6498,"Ġassessments":6499,"ĠLA":6500,"Ġinduce":6501,"Ġvarying":6502,"Ag":6503,"eared":6504,"ytes":6505,"ĠAmerica":6506,"ann":6507,"Ġdepressive":6508,"Ġperceived":6509,"ĠLoc":6510,"clusions":6511,"nec":6512,"Ġdyn":6513,"asvir":6514,"Ġ1999":6515,"Ġpsori":6516,"etine":6517,"Ġabor":6518,"ĠFem":6519,"Ġcatal":6520,"ades":6521,"Ġdomains":6522,"Ġperfor":6523,"Ġfocused":6524,"ontinence":6525,"Ġcultures":6526,"Ġbreath":6527,"ĠPanel":6528,"ĠScale":6529,"Ġlogistic":6530,"ĠTr":6531,"ĠAut":6532,"Ġpercutaneous":6533,"Ġserot":6534,"Ġbel":6535,"Ġparas":6536,"rix":6537,"Ġinn":6538,"LD":6539,"Ġpredictor":6540,"ector":6541,"Ġassumptions":6542,"Ġsatisfaction":6543,"Ġcompression":6544,"Ġmemory":6545,"Ġattempt":6546,"Ġmultidisciplinary":6547,"ĠSumm":6548,"Ġtachycardia":6549,"Ġosteoporosis":6550,"âī":6551,"rie":6552,"Ġpermanent":6553,"alities":6554,"Ġsulfate":6555,"uly":6556,"ony":6557,"ĠCollege":6558,"Ġunable":6559,"ĠICU":6560,"Ġfatty":6561,"Ġlev":6562,"ĠYour":6563,"ĠGI":6564,"ears":6565,"Ġcovered":6566,"Ġrespir":6567,"Ġfunctioning":6568,"cor":6569,"Ġaudit":6570,"ĠHydro":6571,"Ġpredominant":6572,"Ġspine":6573,"Ġgestation":6574,"Ġpig":6575,"Ġmanage":6576,"Ġundertaken":6577,"yr":6578,"Ġepisode":6579,"umes":6580,"Ġexpand":6581,"Ġcoag":6582,"06":6583,"Ġcontrovers":6584,"Ġworks":6585,"ĠBefore":6586,"Ġmalignancy":6587,"ĠIM":6588,"Ġcontraceptive":6589,"ulative":6590,"ĠHa":6591,"uncture":6592,"oxif":6593,"ĠWhere":6594,"Ġpractical":6595,"ĠTG":6596,"Ġcomparative":6597,"ĠPos":6598,"Ġframework":6599,"ademic":6600,"ĠCenter":6601,"ilities":6602,"Ġhot":6603,"ĠPa":6604,"Ġextrap":6605,"ĠTrials":6606,"St":6607,"being":6608,"Ġcapsules":6609,"Ġallergy":6610,"Ġoperations":6611,"Ġextremely":6612,"Ġerythem":6613,"Ġsystolic":6614,"abetes":6615,"irable":6616,"ocaine":6617,"ococcus":6618,"Ġangiography":6619,"Are":6620,"Ġ85":6621,"Ġopinion":6622,"ritish":6623,"Ġgall":6624,"Ġaddressed":6625,"Ġveloc":6626,"HE":6627,"astic":6628,"ĠPri":6629,"administration":6630,"ĠDosing":6631,"Ġexpertise":6632,"Ġneutrop":6633,"Ġthrombocyt":6634,"alle":6635,"Ġobst":6636,"ĠCef":6637,"ĠAct":6638,"apine":6639,"patibility":6640,"Ġpredictors":6641,"Ġdiscovered":6642,"Ġmanifestations":6643,"Ġheterogene":6644,"ĠOx":6645,"Ġcis":6646,"Ġsections":6647,"Ġincom":6648,"Ġinstrument":6649,"Ġways":6650,"Ġevolution":6651,"An":6652,"ĠSix":6653,"Ġvessel":6654,"Ġanth":6655,"Ġcoup":6656,"reported":6657,"Ġacknowled":6658,"Ġgir":6659,"Ġmodern":6660,"days":6661,"ĠCE":6662,"ĠIts":6663,"Ġimprovements":6664,"ĠTe":6665,"asty":6666,"Ġsolutions":6667,"Ġrob":6668,"Ġpostpartum":6669,"Ġschools":6670,"SE":6671,"Ġgenerated":6672,"GTG":6673,"Ġranging":6674,"Ġadvantage":6675,"ellar":6676,"Ġadolescent":6677,"Ġresearchers":6678,"Ġindicating":6679,"Ġtext":6680,"ĠSho":6681,"generation":6682,"ĠAdditionally":6683,"Ġindicators":6684,"Ġmultivariate":6685,"ĠACE":6686,"Ġunus":6687,"Ġsocio":6688,"atter":6689,"Ġadhes":6690,"Ġcolitis":6691,"oses":6692,"jects":6693,"acterial":6694,"ographics":6695,"Ġparent":6696,"Ġsimultaneous":6697,"Ġscenario":6698,"Ġdiure":6699,"ĠAfrica":6700,"olol":6701,"Ġprivate":6702,"Ġanticoagul":6703,"TR":6704,"Ġ(<":6705,"Ġfacial":6706,"Ġdetermining":6707,"Ġcompet":6708,"Ġendothe":6709,"ĠMor":6710,"Ġ56":6711,"Ġsclerosis":6712,"ĠProgram":6713,"Ġlens":6714,"inherit":6715,"Ġisolation":6716,"ĠBi":6717,"Ġcontin":6718,"Ġtopic":6719,"Ġdefect":6720,"Ġpromoters":6721,"Ġsure":6722,"Ġinvestigations":6723,"ranch":6724,"iter":6725,"pped":6726,"Ġaltered":6727,"ING":6728,"Ġstabil":6729,"Ġrationale":6730,"Ġcentres":6731,"Ġdigital":6732,"Ġantiviral":6733,"ACT":6734,"Ġdioxide":6735,"rown":6736,"Ġampl":6737,"ply":6738,"ocon":6739,"Ġsubmitted":6740,"Ġdevelopmental":6741,"Ġdefine":6742,"NI":6743,"ipolar":6744,"rolimus":6745,"Ġcompletion":6746,"ĠCmax":6747,"Ġblue":6748,"Ġburn":6749,"athyroid":6750,"Ġappropri":6751,"ament":6752,"zation":6753,"apter":6754,"Ġmarket":6755,"Ġgoals":6756,"raf":6757,"ĠScre":6758,"Ġunivers":6759,"olytic":6760,"Ġresusc":6761,"Ġthoracic":6762,"FDA":6763,"NE":6764,"aun":6765,"Ġring":6766,"entan":6767,"Ġoutput":6768,"Ġlabour":6769,"ĠToxic":6770,"artments":6771,"ĠExam":6772,"Ġcontainer":6773,"eat":6774,"ss":6775,"Ġlam":6776,"Ġ120":6777,"ĠLook":6778,"diagn":6779,"ĠDO":6780,"Ġstaging":6781,"ott":6782,"Ġrabbits":6783,"ading":6784,"Ġproven":6785,"virus":6786,"Ġleukemia":6787,"Ġcomparisons":6788,"Ġsuppression":6789,"Ġalgorithm":6790,"Ġ47":6791,"ĠStructure":6792,"Ġexplanation":6793,"ested":6794,"Ġdiscrim":6795,"pecified":6796,"asm":6797,"Ġincontinence":6798,"parin":6799,"cil":6800,"Ġretros":6801,"CV":6802,"oxyc":6803,"Ġlocally":6804,"Ġadvoc":6805,"Ġdifficulties":6806,"Ġhospitalized":6807,"aphy":6808,"ĠMI":6809,"ensin":6810,"Ġ54":6811,"ĠQuality":6812,"Ġcontamination":6813,"ulitis":6814,"Ġprolif":6815,"ĠâĨĴ":6816,"Ġpooled":6817,"Ġadapt":6818,"Ġvalidated":6819,"Ġgraf":6820,"esophageal":6821,"nex":6822,"Ġcounseling":6823,"lated":6824,"ĠWhy":6825,"injection":6826,"ercept":6827,"Ġbehaviors":6828,"Ġnucleus":6829,"ibrary":6830,"Ġsuicide":6831,"ecal":6832,"Ġrural":6833,"Ġdementia":6834,"Ġrating":6835,"Ġcreate":6836,"Ġlargely":6837,"Ġworker":6838,"Table":6839,"ks":6840,"release":6841,"Ġpseud":6842,"Ġmention":6843,"ĠOnce":6844,"Ġtolerated":6845,"Ġbodi":6846,"Ġsalt":6847,"Ġuterine":6848,"ĠStorage":6849,"vuls":6850,"ĠAfrican":6851,"Ġteeth":6852,"Ġmob":6853,"which":6854,"ĠICERs":6855,"Ġlifestyle":6856,"adine":6857,"Ġautom":6858,"tri":6859,"ĠPharmacokine":6860,"ĠTalk":6861,"essions":6862,"Ġhemoglobin":6863,"Ġproduces":6864,"Ġawareness":6865,"Ġactions":6866,"Ġingredi":6867,"Hg":6868,"Ġappoint":6869,"ĠHyper":6870,"Ġplaus":6871,"Ġcentre":6872,"Ġelse":6873,"Ġmatched":6874,"Ġgel":6875,"ĠPotential":6876,"ticip":6877,"Ġcareful":6878,"elled":6879,"Ġangle":6880,"ĠScreening":6881,"aque":6882,"Ġclosure":6883,"Ġstopping":6884,"FA":6885,"matic":6886,"Ġintr":6887,"Ġadrenal":6888,"ued":6889,"Ġ64":6890,"Ġoccasion":6891,"Ġrise":6892,"ĠFactors":6893,"Ġestrogen":6894,"Ġsuggestive":6895,"ĠSummary":6896,"revir":6897,"Ġerror":6898,"onate":6899,"Ġhor":6900,"lium":6901,"Ġvisible":6902,"Ġempir":6903,"07":6904,"ylate":6905,"Ġpenet":6906,"artan":6907,"Ġ77":6908,"Ġfavor":6909,"Ġmembran":6910,"Ġbarriers":6911,"GE":6912,"ĠAny":6913,"ATT":6914,"Ġnight":6915,"ĠBen":6916,"Ġbiliary":6917,"left":6918,"plasty":6919,"Ġdiscontinue":6920,"Ġcavity":6921,"esium":6922,"Ġ1998":6923,"irub":6924,"oxy":6925,"Ġtakes":6926,"otyp":6927,"Ġpowder":6928,"Ġpremature":6929,"ĠDiseases":6930,"Ġpregnancies":6931,"Ġracial":6932,"Ġventric":6933,"ĠBrand":6934,"loon":6935,"Ġbrief":6936,"Ġunex":6937,"ĠIgG":6938,"Ġpyl":6939,"ĠCar":6940,"Ġmorp":6941,"Ġimmunization":6942,"Ġintubation":6943,"luor":6944,"Ġcommunities":6945,"Ġrol":6946,"Ġgrad":6947,"Ġarticles":6948,"oi":6949,"acu":6950,"Ġconversion":6951,"ocarcinoma":6952,"idazole":6953,"ĠMS":6954,"gestion":6955,"Ġpsychosocial":6956,"Ġintracranial":6957,"Ġband":6958,"cluding":6959,"Ġsurfaces":6960,"ĠNeuro":6961,"actam":6962,"pler":6963,"Ġvaried":6964,"ida":6965,"irty":6966,"gina":6967,"Ġcode":6968,"Ġscope":6969,"Ġmodelling":6970,"ĠGiven":6971,"Ġnarrow":6972,"Ġ49":6973,"alyses":6974,"inese":6975,"unit":6976,"teen":6977,"tt":6978,"ptic":6979,"Ġplans":6980,"Ġmostly":6981,"oprotein":6982,"08":6983,"Ġcontacts":6984,"oration":6985,"essation":6986,"Ġupdate":6987,"Ġinstructions":6988,"Ġreconstruction":6989,"lif":6990,"Ġlost":6991,"Ġstri":6992,"enh":6993,"Ġdissemin":6994,"ĠReport":6995,"Ġbott":6996,"Ġglut":6997,"acent":6998,"Ġinferior":6999,"ĠBlack":7000,"arate":7001,"ressing":7002,"avail":7003,"Ġswallow":7004,"HT":7005,"Ġclinics":7006,"ĠAdvise":7007,"Ġopportunity":7008,"ĠSD":7009,"ministered":7010,"Ġlatter":7011,"UR":7012,"economic":7013,"Ġerr":7014,"iles":7015,"ophrenia":7016,"ĠBas":7017,"'.":7018,"Ġcompl":7019,"Ġrace":7020,"ns":7021,"elt":7022,"location":7023,"Ġ51":7024,"Ġcorrection":7025,"Ġsperm":7026,"Ġobstructive":7027,"Ġimmunoglobulin":7028,"Ġconcerning":7029,"Ġportion":7030,"Ġtolerance":7031,"erves":7032,"iotic":7033,"iva":7034,"Ġsurrounding":7035,"Ġretrospectively":7036,"Ġeffectively":7037,"ĠEnglish":7038,"Ġemployed":7039,"Ġgovernment":7040,"Ġsterile":7041,"ĠMeas":7042,"Ġqualitative":7043,"vol":7044,"Ġtight":7045,"ĠBritish":7046,"Ġfilter":7047,"ches":7048,"Ġpulse":7049,"aban":7050,"ĠJohn":7051,"tent":7052,"amil":7053,"wenty":7054,"ĠSyndrome":7055,"LN":7056,"Ġimmunity":7057,"Ġthickness":7058,"Ġureth":7059,"Ġ53":7060,"ĠEpidemiology":7061,"isations":7062,"Ġdro":7063,"ĠAA":7064,"lococc":7065,"Ġathe":7066,"oplasty":7067,"sies":7068,"rections":7069,"Ġacetate":7070,"ĠFr":7071,"ban":7072,"Ġelective":7073,"Ġalkal":7074,"umulative":7075,"Ġthink":7076,"ĠNet":7077,"cetaxel":7078,"Ġlaboratories":7079,"Ġadequately":7080,"Ġdexamethasone":7081,"Ġartif":7082,"ana":7083,"oli":7084,"va":7085,"ulum":7086,"ĠMetho":7087,"ĠTwenty":7088,"Ġstopped":7089,"ĠNSAID":7090,"Ġsaid":7091,"loz":7092,"ancial":7093,"Ġmalaria":7094,"Ġfist":7095,"regist":7096,"otensin":7097,"Ġesophageal":7098,"Ġscience":7099,"Ġregulation":7100,"Ġwebs":7101,"Ġmeasuring":7102,"Ġroute":7103,"Ġincremental":7104,"ĠClassification":7105,"Ġparticipation":7106,"ĠPR":7107,"Ġtooth":7108,"ĠÎ±":7109,"Ġ58":7110,"ectable":7111,"Ġcommunic":7112,"Ġentry":7113,"carb":7114,"Ġï":7115,"Ġvulner":7116,"ĠBre":7117,"Ġscans":7118,"Ġinside":7119,"ĠChe":7120,"Ġlungs":7121,"Ġepilepsy":7122,"ict":7123,"CM":7124,"Ġegg":7125,"Ġmind":7126,"ĠCM":7127,"Ġppm":7128,"Ġcomorbidities":7129,"Ġsto":7130,"Ġobject":7131,"ĠMarch":7132,"Ġdistinguish":7133,"Ġendoscopy":7134,"ogenous":7135,"ley":7136,"ĠUp":7137,"Î²":7138,"Ġjo":7139,"Ġplastic":7140,"Ġdoctors":7141,"ĠMoreover":7142,"Ġfed":7143,"ĠAction":7144,"Ġ99":7145,"Ġcirculation":7146,"Ġenl":7147,"lospor":7148,"Ġheavy":7149,"Ġwalking":7150,"Ġhypoglycemia":7151,"Ġbil":7152,"Ġfemoral":7153,"Ġautoimmune":7154,"Ġbarrier":7155,"Alike":7156,"Ġmineral":7157,"Ġpathological":7158,"ushing":7159,"Ġansw":7160,"nutrition":7161,"ĠLim":7162,"Ġintram":7163,"CRC":7164,"osinophil":7165,"Ġscheme":7166,"Ġrig":7167,"Ġcluster":7168,"Ġiod":7169,"struct":7170,"ĠQues":7171,"Ġwait":7172,"Ġsubsequently":7173,"Ġmess":7174,"obic":7175,"Ġdele":7176,"coho":7177,"ĠCommun":7178,"Ġinfluenced":7179,"Ġcessation":7180,"Ġ59":7181,"Ġchanging":7182,"ivudine":7183,"Ġconduct":7184,"Ġinhalation":7185,"ĠPatho":7186,"ĠCTT":7187,"ĠNP":7188,"ĠâĪĴ":7189,"Ġinterrup":7190,"Ġsupplements":7191,"Ġelectrical":7192,"Ġanticip":7193,"Ġmetformin":7194,"Ġimproves":7195,"Ġelevation":7196,"ĠNursing":7197,"Ġ1990":7198,"Ġreleased":7199,"rectomy":7200,"Ġhighlighted":7201,"Ġcarotid":7202,"Ġaggressive":7203,"odds":7204,"Ġmouse":7205,"GGT":7206,"OC":7207,"Ġ63":7208,"isition":7209,"ĠHb":7210,"comfort":7211,"osol":7212,"ĠId":7213,"Ġattit":7214,"Ġshared":7215,"Ġinput":7216,"Ġ57":7217,"Ġpriority":7218,"Ġaccompan":7219,"Ġdop":7220,"Ġagencies":7221,"Ġskeletal":7222,"Ġaffecting":7223,"Ġradiograph":7224,"pr":7225,"astom":7226,"],":7227,"mosp":7228,"ancing":7229,"Ġdisplay":7230,"phone":7231,"Ġactivated":7232,"Ġregulatory":7233,"Ġdiver":7234,"Ġlimits":7235,"Ġfibers":7236,"Ġmetabolite":7237,"ĠMechanism":7238,"ĠPark":7239,"Ġoxide":7240,"Ġregularly":7241,"ĠSurgical":7242,"avirus":7243,"Ġdefinitive":7244,"umps":7245,"Ġdevi":7246,"Ġprophylactic":7247,"Ġsupplementation":7248,"hn":7249,"administered":7250,"Ġnearly":7251,"ĠPrognosis":7252,"Ġsupplied":7253,"Ġnewly":7254,"Ġinsert":7255,"iopathic":7256,"adily":7257,"Ġcomplicated":7258,"Ġfollic":7259,"Ġgal":7260,"Ġseizure":7261,"Ġstored":7262,"etho":7263,"ĠSS":7264,"lamy":7265,"Ġextrapol":7266,"ventricular":7267,"ĠChinese":7268,"thetic":7269,"ĠAustralia":7270,"Ġfeedback":7271,"ĠRem":7272,"Ġheparin":7273,"Ġdifferentiated":7274,"aphylococc":7275,"Ġneutral":7276,"hic":7277,"ĠLocation":7278,"Ġcapsule":7279,"tipation":7280,"Ġacademic":7281,"....":7282,"ĠJune":7283,"ampin":7284,"500":7285,"ception":7286,"Ġprocessing":7287,"Ġulcers":7288,"Ġscar":7289,"Ġglass":7290,"appropriate":7291,"MB":7292,"Ġsteady":7293,"Ġchallenges":7294,"Ġreverse":7295,"ĠAre":7296,"Ġlumbar":7297,"Ġgirls":7298,"that":7299,"ĠIF":7300,"ĠDue":7301,"vac":7302,"ĠAP":7303,"Ġoverview":7304,"Ġadministr":7305,"Ġgiving":7306,"Ġworsening":7307,"Ġcouns":7308,"Ġrheumatoid":7309,"Ġdispos":7310,"Ġelectronic":7311,"ĠTrial":7312,"ĠPain":7313,"Ġemphas":7314,"ĠAC":7315,"ĠNA":7316,"Ġthroat":7317,"buvir":7318,"Ġsyphilis":7319,"Ġ96":7320,"missions":7321,"Ġtel":7322,"osbuvir":7323,"astolic":7324,"hypert":7325,"Ġtook":7326,"ached":7327,"holds":7328,"osen":7329,"olus":7330,"Ġprice":7331,"itud":7332,"Ġpolyp":7333,"LT":7334,"sec":7335,"Ġresuscitation":7336,"Ġfusion":7337,"ptive":7338,"EF":7339,"illi":7340,"Ġexcretion":7341,"Ġdeterior":7342,"formations":7343,"BV":7344,"inatal":7345,"Ġsubmission":7346,"Ġhapp":7347,"tivation":7348,"Ġhydrox":7349,"Ġtrend":7350,"Ġencoded":7351,"pe":7352,"Ġcome":7353,"Ġextrem":7354,"Ġreductions":7355,"Ġhab":7356,"Ġorganism":7357,"ovirus":7358,"Ġdogs":7359,"Ġneonates":7360,"Ġworldwide":7361,"ĠSuccess":7362,"Ġalbumin":7363,"hythmias":7364,"inavir":7365,"Ġcomes":7366,"Ġcorticosteroid":7367,"Ġunusual":7368,"Ġinvasion":7369,"Ġquickly":7370,"vit":7371,"Ġappeared":7372,"Ġconsiderable":7373,"Ġauthorisation":7374,"ĠReproduc":7375,"ĠSal":7376,"Ġattend":7377,"Ġcentury":7378,"Ġconscious":7379,"GGG":7380,"Ġthromboemb":7381,"tober":7382,"Ġnamed":7383,"iazide":7384,"ĠSecondary":7385,"Ġ62":7386,"tenu":7387,"auc":7388,"Ġcontaminated":7389,"roz":7390,"norm":7391,"lycer":7392,"ĠDist":7393,"ĠPostmarketing":7394,"Ġdiagnoses":7395,"Ġly":7396,"ĠCer":7397,"then":7398,"Ġinfil":7399,"Ġmood":7400,"itabine":7401,"Ġseverely":7402,"Ġintroduction":7403,"Ġbabies":7404,"tron":7405,"Ġraised":7406,"psycho":7407,"irth":7408,"Ġvalidity":7409,"Ġsecretion":7410,"Ġexcision":7411,"ĠPractice":7412,"ĠUnder":7413,"Ġcounter":7414,"Ġsteroid":7415,"Ġmitochond":7416,"Ġemployees":7417,"ocellular":7418,"ional":7419,"ĠÎ¼":7420,"Ġbiomark":7421,"tially":7422,"Ġgeneration":7423,"Ġphysiological":7424,"Ġpred":7425,"ĠIS":7426,"ĠAge":7427,"Ġ68":7428,"Ġlegal":7429,"bas":7430,"gths":7431,"Ġthin":7432,"achment":7433,"Ġbasal":7434,"Ġcontained":7435,"Ġplanned":7436,"azepine":7437,"ĠGender":7438,"Ġcomposition":7439,"Ġpeer":7440,"Ġanalysed":7441,"lozin":7442,"DI":7443,"liflozin":7444,"Ġdust":7445,"Ġorganization":7446,"Ġbid":7447,"Ġacknowledged":7448,"Th":7449,"ero":7450,"Ġdispl":7451,"Ġcit":7452,"ĠVir":7453,"Ġmeasles":7454,"Ġcompens":7455,"Ġfeasibility":7456,"Ġenhanced":7457,"ĠGe":7458,"Ġhistopat":7459,"Ġisolates":7460,"Ġlargest":7461,"ĠIndivid":7462,"Ġmembranes":7463,"ilization":7464,"ĠUSA":7465,"OP":7466,"ptember":7467,"ĠInfection":7468,"Ġ67":7469,"ĠHCC":7470,"Ġglomer":7471,"Ġsensory":7472,"apor":7473,"Ġdefinitions":7474,"Ġchallenge":7475,"utis":7476,"ĠLibrary":7477,"others":7478,"radiol":7479,"Ġsaving":7480,"king":7481,"Ġbranch":7482,"unds":7483,"Ġlayer":7484,"Ġtrimester":7485,"Ġrupture":7486,"ATC":7487,"Ġsaline":7488,"Ġdang":7489,"ĠCro":7490,"etry":7491,"âĢĶ":7492,"ostomy":7493,"Ġrecognition":7494,"Ġpay":7495,"Ġsept":7496,"Ġangina":7497,"Ġscreen":7498,"Ġstrict":7499,"arcoma":7500,"lamydi":7501,"Ġ1997":7502,"Ġanomal":7503,"Ġpharmacological":7504,"Ġyouth":7505,"Ġvelocity":7506,"QU":7507,"Ġallowing":7508,"roscler":7509,"Ġimplantation":7510,"09":7511,"Ġwind":7512,"Ġfinger":7513,"Ġ66":7514,"ky":7515,"Ġinactiv":7516,"Ġ86":7517,"OX":7518,"Ġvital":7519,"ĠCompatibility":7520,"Ġsedation":7521,"Ġproject":7522,"ĠChar":7523,"ruit":7524,"Ġbodies":7525,"Ġcontinuing":7526,"Ġlabeling":7527,"chlor":7528,"Ġfixation":7529,"Ġju":7530,"Ġdisrup":7531,"Ġatmosp":7532,"bet":7533,"ris":7534,"org":7535,"Template":7536,"urity":7537,"Ġvolunt":7538,"Ġrobust":7539,"Ġdocetaxel":7540,"changed":7541,"Ġschizophrenia":7542,"eal":7543,"scription":7544,"Ġalternate":7545,"olysis":7546,"Ġattacks":7547,"ĠPharmacokinetics":7548,"ĠGRADE":7549,"Ġhemodialysis":7550,"Ġvide":7551,"Ġformulation":7552,"Ġrandomly":7553,"onstit":7554,"oll":7555,"irc":7556,"Ġresponded":7557,"orphine":7558,"ĠAdapted":7559,"omical":7560,"arding":7561,"ĠEns":7562,"ĠEduc":7563,"Ġinitiating":7564,"ĠHCW":7565,"ĠIncreased":7566,"ceptions":7567,"Ġballoon":7568,"ĠPersons":7569,"Ġarch":7570,"ĠStore":7571,"Ġspeech":7572,"xia":7573,"Ġsense":7574,"Ġ2015":7575,"Ġvariations":7576,"Ġidiopathic":7577,"registration":7578,"ĠPack":7579,"ĠNone":7580,"oxid":7581,"imal":7582,"urgical":7583,"Ġobservations":7584,"Ġderiv":7585,"Ġneuropathy":7586,"tify":7587,"Ġobjects":7588,"Ġgreen":7589,"ĠCong":7590,"Ġauthorities":7591,"cence":7592,"Ġconservative":7593,"Ġcontrolling":7594,"aker":7595,"Ġsoluble":7596,"Ġmyel":7597,"Ġactually":7598,"methyl":7599,"Ġnote":7600,"Ġker":7601,"Ġvehic":7602,"Ġsuperf":7603,"Ġbic":7604,"cm":7605,"ĠGastro":7606,"cursor":7607,"Ġapplications":7608,"ĠÂµg":7609,"ĠKing":7610,"rating":7611,"ĠScho":7612,"guid":7613,"ĠGC":7614,"Ġsuccessfully":7615,"ĠSimilarly":7616,"Ġaccoun":7617,"Ġshape":7618,"rog":7619,"rates":7620,"atum":7621,"Ġ(-":7622,"NP":7623,"ĠImpro":7624,"Ġaccompanied":7625,"Ġbehavioral":7626,"Ġcommission":7627,"Ġaxis":7628,"ifi":7629,"ĠDisorders":7630,"Ġmode":7631,"Ġsyndrom":7632,"Ġpylori":7633,"itudinal":7634,"dim":7635,"py":7636,"tiary":7637,"Ġmaintaining":7638,"Ġdependence":7639,"Ġsquamous":7640,"Ġtrop":7641,"ura":7642,"Ġacquisition":7643,"MW":7644,"Ġesophag":7645,"Ġbiochemical":7646,"Ġbeg":7647,"Ġ61":7648,"Ġnine":7649,"otoxic":7650,"Ġurgent":7651,"inson":7652,"Ġcritically":7653,"rich":7654,"Ġpersonality":7655,"Ġcystic":7656,"Ġpalliative":7657,"Ġsl":7658,"ommon":7659,"ustry":7660,"inating":7661,"Ġnose":7662,"Ġbiopsies":7663,"block":7664,"ĠNatural":7665,"Ġdescription":7666,"Ġabortion":7667,"Ġnodules":7668,"ĠOrganization":7669,"ĠMut":7670,"Ġpotent":7671,"Ġpresents":7672,"tides":7673,"titial":7674,"Ġadvis":7675,"ĠACT":7676,"Ġsought":7677,"ĠTablets":7678,"Ġviews":7679,"Ġneutropenia":7680,"Ġspeed":7681,"allel":7682,"OT":7683,"Ġbind":7684,"Ġcyclo":7685,"ĠmRNA":7686,"ĠHis":7687,"Ġchance":7688,"Ġperitoneal":7689,"Ġhypothes":7690,"ĠPharmacology":7691,"ni":7692,"onide":7693,"aret":7694,"Ġprospectively":7695,"Ġintegrated":7696,"Ġbelief":7697,"Ġneurons":7698,"Ġserve":7699,"ĠPharmacodynamics":7700,"Ġplausible":7701,"Ġmethotrex":7702,"rocardi":7703,"Ġmethotrexate":7704,"Ġip":7705,"Ġmye":7706,"ĠFull":7707,"Ġpaediatric":7708,"LY":7709,"Ġcumulative":7710,"Ġwarm":7711,"Ġoverl":7712,"Ġintraoperative":7713,"Le":7714,"Ġhistological":7715,"Ġaspiration":7716,"font":7717,"âĪĴ":7718,"Ġevid":7719,"Ġrestricted":7720,"Ġdual":7721,"Ġlum":7722,"Ġinstitutions":7723,"Ġrein":7724,"Ġhousehold":7725,"ronate":7726,"stable":7727,"Ġprediction":7728,"Ġrelax":7729,"Ġgreatest":7730,"ĠSkin":7731,"Ġamp":7732,"ests":7733,"ocytosis":7734,"izon":7735,"Ġmargin":7736,"menopausal":7737,"Ġtestosterone":7738,"Ġepithelial":7739,"ĠStrept":7740,"Ġdecreasing":7741,"Ġmagnitude":7742,"Ġproperly":7743,"Ġteaching":7744,"ĠContrain":7745,"afenib":7746,"Ġcutaneous":7747,"Ġanticoagulation":7748,"Ġfeet":7749,"Ġgrowing":7750,"Ġharms":7751,"lines":7752,"ITY":7753,"Ġclinician":7754,"ĠWeek":7755,"VI":7756,"kern":7757,"ĠPart":7758,"entical":7759,"subscription":7760,"eces":7761,"Ġsurviv":7762,"Ġlith":7763,"Ġty":7764,"olve":7765,"Ġappend":7766,"defined":7767,"Ġpan":7768,"ussis":7769,"ukin":7770,"GGC":7771,"'t":7772,"Ġechocardiography":7773,"Ġfum":7774,"BI":7775,"usting":7776,"Ġaims":7777,"Ġcoe":7778,"Ġpneumoniae":7779,"ĠCardiac":7780,"ĠOctober":7781,"ĠTechn":7782,"Ġvirolog":7783,"Ġpages":7784,"ramine":7785,"Ġround":7786,"ptin":7787,"Ġnitrogen":7788,"Ġfinancial":7789,"pres":7790,"akers":7791,"KI":7792,"room":7793,"ĠExamination":7794,"ĠSodium":7795,"Ġhous":7796,"Ġ2019":7797,"Ġprecise":7798,"Ġetiology":7799,"VT":7800,"domen":7801,"Ġadjunc":7802,"necess":7803,"Ġdark":7804,"Ġthrombocytopenia":7805,"Ġreflux":7806,"ĠKeep":7807,"from":7808,"icot":7809,"Ġencoding":7810,"Ġbinds":7811,"ives":7812,"entists":7813,"mat":7814,"Ġelectroly":7815,"Ġoutbreaks":7816,"omnia":7817,"ĠPlas":7818,"ĠHel":7819,"ĠConf":7820,"Chief":7821,"amycin":7822,"ĠDiabetes":7823,"rab":7824,"also":7825,"Ġattributed":7826,"ĠCP":7827,"ares":7828,"Ġtransf":7829,"Ġhall":7830,"Ġconstipation":7831,"ĠPCI":7832,"rice":7833,"450":7834,"Ġendpoint":7835,"ĠToxicology":7836,"olizumab":7837,"Ġinten":7838,"Ġaccumulation":7839,"UD":7840,"Ġerrors":7841,"ORT":7842,"oxycycline":7843,"Ġherpes":7844,"Ġwounds":7845,"Ġ1996":7846,"Ġsn":7847,"ĠPCR":7848,"Ġheld":7849,"800":7850,"icillin":7851,"ĠPhase":7852,"Ġvaric":7853,"ĠSerum":7854,"CLC":7855,"anus":7856,"ĠSeptember":7857,"estic":7858,"ĠVTE":7859,"ĠDermatology":7860,"Ġconfid":7861,"Ġeffort":7862,"ĠPopulations":7863,"Ġcomplain":7864,"fib":7865,"Ġparticipate":7866,"Ġexchange":7867,"Ġaccurately":7868,"Ġexperiment":7869,"eriatric":7870,"loy":7871,"Ġcomments":7872,"Ġaccordance":7873,"Ġveins":7874,"Ġhazards":7875,"Ġfavour":7876,"ĠTake":7877,"Ġstake":7878,"uction":7879,"ĠNDC":7880,"char":7881,"Ġreadily":7882,"ologous":7883,"aemic":7884,"Ġglo":7885,"hematic":7886,"ĠCounseling":7887,"Ġmanag":7888,"ĠATP":7889,"ĠCho":7890,"Ġdermatitis":7891,"Ġgamma":7892,"Ġ1995":7893,"ANT":7894,"inemia":7895,"Ġpermit":7896,"Ġarri":7897,"rophic":7898,"Ġsteroids":7899,"Ġsegment":7900,"Ġacts":7901,"Ġspect":7902,"Ġsubstrate":7903,"two":7904,"Ġcaregivers":7905,"vacc":7906,"ynec":7907,"Ġcas":7908,"Ġrights":7909,"Ġcharge":7910,"Ġsugar":7911,"opt":7912,"ĠCVD":7913,"ossible":7914,"Ġexception":7915,"ĠGT":7916,"Ġassumption":7917,"Ġanaesthesia":7918,"ĠADHD":7919,"ĠKore":7920,"Ġcleaning":7921,"Ġtargets":7922,"Ġincision":7923,"Ġ69":7924,"Ġscreened":7925,"Ġpredicting":7926,"Ġzinc":7927,"ĠMc":7928,"oxetine":7929,"Ġdistributed":7930,"ĠReturn":7931,"Ġpopular":7932,"Ġbipolar":7933,"Ġthereby":7934,"Ġcategor":7935,"rotic":7936,"Ġmyc":7937,"usp":7938,"Ġthorough":7939,"ĠEven":7940,"ĠLocal":7941,"Ġpoorly":7942,"Ġsubset":7943,"ongue":7944,"Ġtenofovir":7945,"era":7946,"Ġanastom":7947,"otoxicity":7948,"odef":7949,"Ġjob":7950,"rob":7951,"Ġwaste":7952,"high":7953,"hydrate":7954,"Ġabsorbed":7955,"Ġcame":7956,"Ġallog":7957,"ureus":7958,"Ġcirculating":7959,"Ġincomplete":7960,"Ġrit":7961,"Ġintoler":7962,"oidal":7963,"yloid":7964,"Ġsyringe":7965,"Ġincid":7966,"Ġdepartments":7967,"Ġconfusion":7968,"Ġfasting":7969,"Ġjudge":7970,"Ġmetabolized":7971,"yroidism":7972,"Ġasc":7973,"Ġproducing":7974,"Ġstability":7975,"Ġmono":7976,"ĠApril":7977,"ĠHealthcare":7978,"astric":7979,"Ġpreced":7980,"ĠPSA":7981,"regular":7982,"Ġgram":7983,"Ġencouraged":7984,"Ġsessions":7985,"rile":7986,"do":7987,"onitis":7988,"het":7989,"enem":7990,"Ġ74":7991,"opl":7992,"omegal":7993,"Ġretinal":7994,"ancomycin":7995,"Ġlaws":7996,"ĠEfficacy":7997,"lick":7998,"Ġreflex":7999,"ĠContraindications":8000,"orrhea":8001,"Ġinpatient":8002,"Ġhepatocellular":8003,"alimumab":8004,"ĠFinally":8005,"Ġimpair":8006,"Ġclient":8007,"Ġexplore":8008,"hor":8009,"Ġparameter":8010,"Ġpolymorph":8011,"Ġsmooth":8012,"cons":8013,"pub":8014,"ĠSpec":8015,"Ġincident":8016,"Ġabnorm":8017,"igaret":8018,"Ġvalpro":8019,"anth":8020,"ĠSci":8021,"olone":8022,"ĠMedi":8023,"Ġmulticenter":8024,"mber":8025,"RD":8026,"Ġdyst":8027,"ĠIndex":8028,"Ġmeal":8029,"Ġcausal":8030,"ĠRecent":8031,"apping":8032,"ĠJuly":8033,"ĠEditor":8034,"Ġ--":8035,"Ġgenome":8036,"isis":8037,"Ġunnecess":8038,"OH":8039,"Ġport":8040,"aped":8041,"cellent":8042,"vacizumab":8043,"Ġclasses":8044,"Ġparenteral":8045,"median":8046,"mediated":8047,"psia":8048,"tium":8049,"Ġnas":8050,"ĠAug":8051,"ĠPP":8052,"Ġsubs":8053,"Ġindicator":8054,"ĠImaging":8055,"Ġtip":8056,"Ġinsurance":8057,"Ġincons":8058,"Ġparticle":8059,"ĠAIDS":8060,"Ġsuppl":8061,"Ġdiagnose":8062,"Ġneural":8063,"ĠChang":8064,"ulos":8065,"Ġcontraceptives":8066,"ĠTer":8067,"ĠGCT":8068,"ĠSA":8069,"ĠMen":8070,"theless":8071,"Ġdominant":8072,"Ġirritation":8073,"ĠEnsure":8074,"Ġ(âī":8075,"ĠCKD":8076,"Ġindustry":8077,"osyn":8078,"Ġexclusive":8079,"Ġendometrial":8080,"Ġmenstr":8081,"Ġsilic":8082,"Ġinters":8083,"Ġperception":8084,"Ġpeptide":8085,"ming":8086,"Ġphenomenon":8087,"Ġdiscomfort":8088,"ignment":8089,"ĠTen":8090,"Ġquar":8091,"Ġirradi":8092,"Ġengine":8093,"organisms":8094,"Ġmovements":8095,"Ġocular":8096,"factory":8097,"Ġelectrons":8098,"uel":8099,"list":8100,"agliflozin":8101,"iprof":8102,"Ġgives":8103,"orous":8104,"Ġanten":8105,"Ġconsisted":8106,"ĠParticip":8107,"ĠStandard":8108,"ospor":8109,"Ġsafely":8110,"Ġretro":8111,"plantation":8112,"Ġassistance":8113,"Ġgr":8114,"Ġdifferentiation":8115,"ĠLiver":8116,"Ġobstetric":8117,"Ġcisplatin":8118,"Ġ92":8119,"acetyl":8120,"Ġcounselling":8121,"Ġcamp":8122,"ĠDet":8123,"Ġcardiomy":8124,"Ġendothelial":8125,"Ġwords":8126,"ĠAN":8127,"ĠmmHg":8128,"Ġrecognised":8129,"Ġsyndromes":8130,"VE":8131,"ĠQuestion":8132,"Ġions":8133,"ĠAtlas":8134,"ensional":8135,"Ġexperiments":8136,"Ġinterpreted":8137,"Ġaureus":8138,"ĠPMID":8139,"Ġsmoke":8140,"ĠMothers":8141,"rench":8142,"hoea":8143,"Ġneurom":8144,"random":8145,"Ġequally":8146,"Ġcontraception":8147,"Ġunchanged":8148,"Ġconjug":8149,"arthritis":8150,"ĠCalc":8151,"Ġmodification":8152,"Ġshift":8153,"Ġpotentials":8154,"Ġsmokers":8155,"\")":8156,"acing":8157,"agic":8158,"Ġranges":8159,"Ġconflict":8160,"Ġhypoth":8161,"OM":8162,"Ġattenu":8163,"riptan":8164,"ĠBox":8165,"Ġmeningitis":8166,"Ġultrason":8167,"VC":8168,"ADEC":8169,"ĠCCC":8170,"Ġoverweight":8171,"Ġmalnutrition":8172,"Ġank":8173,"Ġchosen":8174,"Ġcircumc":8175,"Ġrevascular":8176,"inity":8177,"Ġmast":8178,"Ġfelt":8179,"rays":8180,"ĠAsian":8181,"Ġpathogenesis":8182,"Ġ71":8183,"ĠEmerg":8184,"Ġneither":8185,"Ġpreference":8186,"iol":8187,"ĠRace":8188,"Ġhorizon":8189,"ĠDop":8190,"ĠAsia":8191}